
// This is a TensorFlow Lite model file that has been converted into a C data
// array using the tensorflow.lite.util.convert_bytes_to_c_source() function.
// This form is useful for compiling into a binary for devices that don't have a
// file system.

#include "cnn_some_quantized_model.h"

// We need to keep the data array aligned on some architectures.
#ifdef __has_attribute
#define HAVE_ATTRIBUTE(x) __has_attribute(x)
#else
#define HAVE_ATTRIBUTE(x) 0
#endif
#if HAVE_ATTRIBUTE(aligned) || (defined(__GNUC__) && !defined(__clang__))
#define DATA_ALIGN_ATTRIBUTE __attribute__((aligned(4)))
#else
#define DATA_ALIGN_ATTRIBUTE
#endif

const unsigned char cnn_some_quantized_model[] DATA_ALIGN_ATTRIBUTE = {
    0x1c, 0x00, 0x00, 0x00, 0x54, 0x46, 0x4c, 0x33, 0x14, 0x00, 0x20, 0x00, 0x1c,
    0x00, 0x18, 0x00, 0x14, 0x00, 0x10, 0x00, 0x0c, 0x00, 0x00, 0x00, 0x08, 0x00,
    0x04, 0x00, 0x14, 0x00, 0x00, 0x00, 0x1c, 0x00, 0x00, 0x00, 0x8c, 0x00, 0x00,
    0x00, 0x0c, 0x01, 0x00, 0x00, 0x80, 0x25, 0x00, 0x00, 0x90, 0x25, 0x00, 0x00,
    0x08, 0x32, 0x00, 0x00, 0x03, 0x00, 0x00, 0x00, 0x01, 0x00, 0x00, 0x00, 0x04,
    0x00, 0x00, 0x00, 0x6e, 0xd9, 0xff, 0xff, 0x0c, 0x00, 0x00, 0x00, 0x1c, 0x00,
    0x00, 0x00, 0x40, 0x00, 0x00, 0x00, 0x0f, 0x00, 0x00, 0x00, 0x73, 0x65, 0x72,
    0x76, 0x69, 0x6e, 0x67, 0x5f, 0x64, 0x65, 0x66, 0x61, 0x75, 0x6c, 0x74, 0x00,
    0x01, 0x00, 0x00, 0x00, 0x04, 0x00, 0x00, 0x00, 0x68, 0xff, 0xff, 0xff, 0x0d,
    0x00, 0x00, 0x00, 0x04, 0x00, 0x00, 0x00, 0x0d, 0x00, 0x00, 0x00, 0x71, 0x75,
    0x61, 0x6e, 0x74, 0x5f, 0x64, 0x65, 0x6e, 0x73, 0x65, 0x5f, 0x39, 0x00, 0x00,
    0x00, 0x01, 0x00, 0x00, 0x00, 0x04, 0x00, 0x00, 0x00, 0x66, 0xda, 0xff, 0xff,
    0x04, 0x00, 0x00, 0x00, 0x08, 0x00, 0x00, 0x00, 0x69, 0x6e, 0x70, 0x75, 0x74,
    0x5f, 0x31, 0x30, 0x00, 0x00, 0x00, 0x00, 0x03, 0x00, 0x00, 0x00, 0x5c, 0x00,
    0x00, 0x00, 0x2c, 0x00, 0x00, 0x00, 0x04, 0x00, 0x00, 0x00, 0xb8, 0xff, 0xff,
    0xff, 0x11, 0x00, 0x00, 0x00, 0x04, 0x00, 0x00, 0x00, 0x13, 0x00, 0x00, 0x00,
    0x43, 0x4f, 0x4e, 0x56, 0x45, 0x52, 0x53, 0x49, 0x4f, 0x4e, 0x5f, 0x4d, 0x45,
    0x54, 0x41, 0x44, 0x41, 0x54, 0x41, 0x00, 0xdc, 0xff, 0xff, 0xff, 0x10, 0x00,
    0x00, 0x00, 0x04, 0x00, 0x00, 0x00, 0x13, 0x00, 0x00, 0x00, 0x6d, 0x69, 0x6e,
    0x5f, 0x72, 0x75, 0x6e, 0x74, 0x69, 0x6d, 0x65, 0x5f, 0x76, 0x65, 0x72, 0x73,
    0x69, 0x6f, 0x6e, 0x00, 0x08, 0x00, 0x0c, 0x00, 0x08, 0x00, 0x04, 0x00, 0x08,
    0x00, 0x00, 0x00, 0x0f, 0x00, 0x00, 0x00, 0x04, 0x00, 0x00, 0x00, 0x13, 0x00,
    0x00, 0x00, 0x6d, 0x69, 0x6e, 0x5f, 0x72, 0x75, 0x6e, 0x74, 0x69, 0x6d, 0x65,
    0x5f, 0x76, 0x65, 0x72, 0x73, 0x69, 0x6f, 0x6e, 0x00, 0x12, 0x00, 0x00, 0x00,
    0x70, 0x24, 0x00, 0x00, 0x68, 0x24, 0x00, 0x00, 0x50, 0x24, 0x00, 0x00, 0x18,
    0x24, 0x00, 0x00, 0x48, 0x02, 0x00, 0x00, 0xb8, 0x01, 0x00, 0x00, 0x48, 0x01,
    0x00, 0x00, 0x40, 0x01, 0x00, 0x00, 0x38, 0x01, 0x00, 0x00, 0x30, 0x01, 0x00,
    0x00, 0x28, 0x01, 0x00, 0x00, 0xe4, 0x00, 0x00, 0x00, 0xc0, 0x00, 0x00, 0x00,
    0xb8, 0x00, 0x00, 0x00, 0xb0, 0x00, 0x00, 0x00, 0x90, 0x00, 0x00, 0x00, 0x70,
    0x00, 0x00, 0x00, 0x04, 0x00, 0x00, 0x00, 0x4e, 0xdb, 0xff, 0xff, 0x04, 0x00,
    0x00, 0x00, 0x5c, 0x00, 0x00, 0x00, 0x0c, 0x00, 0x00, 0x00, 0x08, 0x00, 0x0e,
    0x00, 0x08, 0x00, 0x04, 0x00, 0x08, 0x00, 0x00, 0x00, 0x10, 0x00, 0x00, 0x00,
    0x2c, 0x00, 0x00, 0x00, 0x00, 0x00, 0x06, 0x00, 0x08, 0x00, 0x04, 0x00, 0x06,
    0x00, 0x00, 0x00, 0x04, 0x00, 0x00, 0x00, 0x02, 0x00, 0x00, 0x00, 0xeb, 0x03,
    0x00, 0x00, 0xd0, 0x07, 0x00, 0x00, 0x00, 0x00, 0x0a, 0x00, 0x10, 0x00, 0x0c,
    0x00, 0x08, 0x00, 0x04, 0x00, 0x0a, 0x00, 0x00, 0x00, 0x02, 0x00, 0x00, 0x00,
    0x02, 0x00, 0x00, 0x00, 0x04, 0x00, 0x00, 0x00, 0x06, 0x00, 0x00, 0x00, 0x32,
    0x2e, 0x31, 0x36, 0x2e, 0x31, 0x00, 0x00, 0xb6, 0xdb, 0xff, 0xff, 0x04, 0x00,
    0x00, 0x00, 0x10, 0x00, 0x00, 0x00, 0x00, 0x00, 0x00, 0x00, 0x00, 0x00, 0x00,
    0x00, 0x00, 0x00, 0x00, 0x00, 0x00, 0x00, 0x00, 0x00, 0xd2, 0xdb, 0xff, 0xff,
    0x04, 0x00, 0x00, 0x00, 0x10, 0x00, 0x00, 0x00, 0x31, 0x2e, 0x31, 0x34, 0x2e,
    0x30, 0x00, 0x00, 0x00, 0x00, 0x00, 0x00, 0x00, 0x00, 0x00, 0x00, 0xb4, 0xd0,
    0xff, 0xff, 0xb8, 0xd0, 0xff, 0xff, 0xf6, 0xdb, 0xff, 0xff, 0x04, 0x00, 0x00,
    0x00, 0x14, 0x00, 0x00, 0x00, 0xba, 0xff, 0xff, 0xff, 0x38, 0x00, 0x00, 0x00,
    0xee, 0xff, 0xff, 0xff, 0x21, 0x00, 0x00, 0x00, 0xe7, 0xff, 0xff, 0xff, 0x16,
    0xdc, 0xff, 0xff, 0x04, 0x00, 0x00, 0x00, 0x32, 0x00, 0x00, 0x00, 0xd3, 0x0a,
    0x3a, 0x56, 0xfa, 0xe9, 0xf1, 0xfe, 0x35, 0xea, 0xf8, 0xaf, 0xb2, 0xdd, 0x35,
    0x0a, 0xa6, 0x54, 0x3e, 0xf8, 0xdf, 0x44, 0x21, 0xc4, 0x44, 0xb9, 0x65, 0xdd,
    0x09, 0xa9, 0x37, 0x51, 0x35, 0xb2, 0x05, 0x81, 0xcc, 0xa3, 0x20, 0x13, 0x8d,
    0x30, 0x4e, 0x00, 0xcc, 0x57, 0xa3, 0x9e, 0x0b, 0x28, 0x00, 0x00, 0x1c, 0xd1,
    0xff, 0xff, 0x20, 0xd1, 0xff, 0xff, 0x24, 0xd1, 0xff, 0xff, 0x28, 0xd1, 0xff,
    0xff, 0x66, 0xdc, 0xff, 0xff, 0x04, 0x00, 0x00, 0x00, 0x60, 0x00, 0x00, 0x00,
    0x9d, 0x81, 0xc7, 0x1c, 0x7f, 0x4a, 0x7f, 0xee, 0x8f, 0x50, 0x7f, 0x0d, 0x50,
    0x2f, 0x81, 0xd7, 0x81, 0xcc, 0x72, 0x81, 0xa9, 0xfb, 0x7f, 0x2b, 0x7f, 0x68,
    0x36, 0x81, 0xd7, 0xdc, 0xaa, 0xd6, 0x7f, 0x9e, 0x81, 0x3b, 0xc4, 0x81, 0xa6,
    0x4e, 0x7f, 0xf5, 0xef, 0x81, 0x81, 0x91, 0x81, 0xd6, 0x39, 0x81, 0x85, 0x60,
    0x1d, 0x81, 0xbd, 0xbc, 0x7f, 0x5c, 0x7b, 0x7f, 0x1a, 0x7f, 0x7b, 0x81, 0xa4,
    0x99, 0x6e, 0xfc, 0x7f, 0x6c, 0x7f, 0x73, 0xb5, 0xa2, 0x81, 0xeb, 0x81, 0xe8,
    0x4f, 0x68, 0x7f, 0x7f, 0x06, 0x6c, 0x75, 0x09, 0x81, 0xb2, 0xea, 0x81, 0x6c,
    0x31, 0x7f, 0x95, 0x85, 0x81, 0xd2, 0xdc, 0xff, 0xff, 0x04, 0x00, 0x00, 0x00,
    0x80, 0x00, 0x00, 0x00, 0xc6, 0x09, 0x00, 0x00, 0xa2, 0xff, 0xff, 0xff, 0xf2,
    0xff, 0xff, 0xff, 0x44, 0xff, 0xff, 0xff, 0xf6, 0xff, 0xff, 0xff, 0xed, 0x0b,
    0x00, 0x00, 0xff, 0x01, 0x00, 0x00, 0xbd, 0xff, 0xff, 0xff, 0x02, 0x0b, 0x00,
    0x00, 0x35, 0x0e, 0x00, 0x00, 0xf5, 0xff, 0xff, 0xff, 0x7e, 0x09, 0x00, 0x00,
    0xe0, 0x09, 0x00, 0x00, 0xce, 0xff, 0xff, 0xff, 0x55, 0x06, 0x00, 0x00, 0x57,
    0x0e, 0x00, 0x00, 0x04, 0x08, 0x00, 0x00, 0xf4, 0xff, 0xff, 0xff, 0x15, 0x00,
    0x00, 0x00, 0x7b, 0xff, 0xff, 0xff, 0x2d, 0xff, 0xff, 0xff, 0x59, 0x0a, 0x00,
    0x00, 0x92, 0xff, 0xff, 0xff, 0x1a, 0xff, 0xff, 0xff, 0xa8, 0x09, 0x00, 0x00,
    0x8a, 0x07, 0x00, 0x00, 0x87, 0xff, 0xff, 0xff, 0x65, 0xff, 0xff, 0xff, 0xee,
    0xff, 0xff, 0xff, 0x5a, 0x0b, 0x00, 0x00, 0x19, 0x0f, 0x00, 0x00, 0x14, 0x0c,
    0x00, 0x00, 0x5e, 0xdd, 0xff, 0xff, 0x04, 0x00, 0x00, 0x00, 0xc0, 0x21, 0x00,
    0x00, 0xd1, 0xfa, 0xf9, 0xfc, 0xeb, 0xeb, 0xdd, 0xce, 0xf8, 0xb3, 0xd1, 0xdd,
    0xc0, 0x06, 0xb6, 0xc2, 0xd9, 0xf4, 0xcf, 0xfe, 0x0e, 0xbf, 0x1d, 0x12, 0xf0,
    0xd3, 0x20, 0xe3, 0xcd, 0xdd, 0x2b, 0xcf, 0x12, 0xd7, 0x13, 0x15, 0x0b, 0x0b,
    0xf2, 0xfe, 0x1c, 0x07, 0xf0, 0xf7, 0xfe, 0xec, 0x18, 0x0b, 0x1c, 0x22, 0xc4,
    0xec, 0xe7, 0x27, 0xd8, 0xfb, 0x04, 0xdb, 0xe0, 0xeb, 0x03, 0x35, 0xdf, 0xfd,
    0xda, 0x30, 0xce, 0x4d, 0xf9, 0xca, 0xc8, 0x49, 0x20, 0xc2, 0xd0, 0xdf, 0xbb,
    0x12, 0xe8, 0xbd, 0xf4, 0xe9, 0x9e, 0x28, 0x1f, 0xde, 0x1b, 0x27, 0xe0, 0xe6,
    0x51, 0x59, 0xe7, 0xd8, 0x38, 0xbd, 0xd2, 0x0f, 0xf5, 0x06, 0xe1, 0xc7, 0xb3,
    0xe2, 0x2b, 0xf4, 0xc3, 0xda, 0xbb, 0xf0, 0xb3, 0xcd, 0xc5, 0xd6, 0xb0, 0x27,
    0xef, 0xc2, 0x0b, 0xff, 0xd4, 0xc4, 0x17, 0x13, 0xc4, 0xbc, 0x51, 0xe9, 0x19,
    0xda, 0xe4, 0xda, 0x07, 0x1d, 0xf7, 0xe2, 0xec, 0x27, 0xf3, 0x23, 0x29, 0xe1,
    0xf5, 0x39, 0x0b, 0xee, 0xfd, 0xd3, 0xe3, 0x00, 0x00, 0xde, 0x29, 0x18, 0x09,
    0xf0, 0xe0, 0x09, 0xe9, 0x28, 0xe4, 0x1f, 0xbb, 0x39, 0xd5, 0xca, 0xaf, 0x39,
    0x1e, 0x08, 0xc2, 0xdc, 0xde, 0x0a, 0xd8, 0xfc, 0xd6, 0xbc, 0xc8, 0x19, 0x2b,
    0xff, 0x17, 0x40, 0x0c, 0xd2, 0x44, 0x57, 0xbf, 0xf2, 0x1c, 0xdb, 0xad, 0x12,
    0xfe, 0x1f, 0xf5, 0xce, 0xe1, 0xfc, 0x3a, 0xb8, 0xd7, 0xc3, 0xdc, 0x2a, 0xe7,
    0xdf, 0xea, 0xc7, 0xcd, 0x0e, 0x08, 0xed, 0x00, 0xf8, 0xea, 0xc6, 0x26, 0x16,
    0xd0, 0xf6, 0x45, 0xde, 0x14, 0xf7, 0xe6, 0x0f, 0x0b, 0x07, 0x0d, 0x09, 0xeb,
    0xff, 0x2f, 0x02, 0xf7, 0x0c, 0x08, 0xf8, 0xf3, 0xef, 0x4c, 0x03, 0x06, 0x19,
    0xe1, 0x0d, 0x05, 0x1f, 0x12, 0x06, 0xfb, 0x17, 0x14, 0xfd, 0x0a, 0x12, 0xeb,
    0x0c, 0xc5, 0x01, 0xf4, 0x31, 0x36, 0xd0, 0xe7, 0xc6, 0xfe, 0x1a, 0xdf, 0xf9,
    0xef, 0xc1, 0xdf, 0x34, 0x1a, 0xfa, 0x2d, 0x37, 0xdb, 0xf9, 0x16, 0x3d, 0xc5,
    0xe5, 0x22, 0xea, 0xcd, 0x0d, 0xcc, 0x21, 0xe1, 0xeb, 0xeb, 0x02, 0x30, 0xc9,
    0xeb, 0xe6, 0xf4, 0x0e, 0xd7, 0xc2, 0xf1, 0xf6, 0x0e, 0x1e, 0x06, 0xc5, 0x2d,
    0x2a, 0xc1, 0xff, 0x29, 0x1f, 0xdf, 0xd6, 0x15, 0xd5, 0x14, 0xc7, 0x1f, 0xf1,
    0x0e, 0x02, 0xe8, 0xd5, 0xfc, 0x26, 0xee, 0x02, 0x04, 0xef, 0xf7, 0xfa, 0x20,
    0x20, 0xd0, 0xf4, 0xd2, 0x08, 0xdd, 0x04, 0x21, 0xe1, 0xe9, 0xe7, 0x0b, 0xf5,
    0xe6, 0xf4, 0xe5, 0x46, 0xe7, 0x24, 0xf4, 0x0c, 0xcd, 0x2f, 0x25, 0xed, 0xe6,
    0xe1, 0xeb, 0x4e, 0xee, 0x12, 0xb2, 0x18, 0xdb, 0x3a, 0x32, 0x01, 0x21, 0x1f,
    0x17, 0xf9, 0x1b, 0x1b, 0xdf, 0x04, 0x13, 0x00, 0xf7, 0x12, 0xf4, 0x0c, 0xf8,
    0xee, 0x07, 0x04, 0x16, 0xd9, 0xfa, 0xf9, 0xef, 0x11, 0xd3, 0xe5, 0xdd, 0x19,
    0xce, 0x1f, 0xf0, 0xd0, 0xf1, 0xfc, 0xdc, 0xf7, 0x17, 0x1f, 0x02, 0xcf, 0x21,
    0xf4, 0x11, 0xdb, 0xf5, 0xf4, 0xf3, 0x0f, 0x1b, 0xee, 0x01, 0xfa, 0x09, 0xfa,
    0x22, 0xef, 0xef, 0xf9, 0x07, 0x1b, 0x22, 0xd6, 0x09, 0xe9, 0xe3, 0xdd, 0xf8,
    0xee, 0x01, 0xd9, 0xfd, 0x12, 0xe3, 0xfc, 0x06, 0x1f, 0xd8, 0x1d, 0xf0, 0xf1,
    0xdc, 0x0f, 0x15, 0xf7, 0xf1, 0xeb, 0xdc, 0xf7, 0xe4, 0xeb, 0xf2, 0xe3, 0xd4,
    0x32, 0x2d, 0xfa, 0x1f, 0x11, 0x13, 0x02, 0x15, 0x29, 0xeb, 0x15, 0x08, 0xf5,
    0xf2, 0xca, 0xe9, 0xf2, 0xc0, 0xde, 0xce, 0xcd, 0xed, 0x0e, 0xf9, 0x09, 0xe3,
    0xd9, 0xc3, 0x06, 0xdc, 0xe7, 0xdf, 0x00, 0xff, 0xdc, 0xd9, 0xe3, 0xce, 0xfb,
    0xd2, 0xe9, 0xbd, 0xea, 0x12, 0xef, 0x23, 0xcd, 0x00, 0xf1, 0x06, 0x09, 0x2a,
    0xd6, 0xf3, 0x31, 0x04, 0xf9, 0x03, 0x00, 0x29, 0x19, 0x1b, 0x25, 0xf9, 0xce,
    0xde, 0xfd, 0xcb, 0x00, 0x08, 0xfa, 0xd7, 0xc4, 0xec, 0x1a, 0xf0, 0x0e, 0xfd,
    0x1c, 0xe0, 0x39, 0xf8, 0x0d, 0xdc, 0x10, 0x26, 0x0c, 0xd8, 0xd5, 0x09, 0x11,
    0xd6, 0xf1, 0x06, 0xe6, 0xed, 0x13, 0x1e, 0xe0, 0x25, 0x37, 0x0b, 0x00, 0x18,
    0x3b, 0xdb, 0x01, 0x1f, 0xfe, 0xc2, 0x0a, 0xfa, 0xe3, 0xf1, 0xc7, 0xd0, 0x14,
    0x01, 0xe2, 0xf5, 0xf7, 0xaa, 0xee, 0xce, 0xdb, 0xe7, 0x0a, 0x03, 0xf7, 0xef,
    0xbc, 0x10, 0x0f, 0xb5, 0xcb, 0xe2, 0xe2, 0xef, 0xf8, 0x17, 0xdc, 0xfc, 0x0b,
    0xe7, 0xd4, 0xe3, 0xfa, 0x24, 0xec, 0xe4, 0x26, 0xf7, 0x25, 0x07, 0x01, 0x21,
    0x2b, 0x15, 0x18, 0x1e, 0xe8, 0xe8, 0xf9, 0xd4, 0xf3, 0x1e, 0x2c, 0xf9, 0xdc,
    0xe8, 0x27, 0xeb, 0x08, 0xe5, 0x13, 0xd0, 0x3d, 0xe9, 0x13, 0x03, 0x1b, 0x3d,
    0xf4, 0x02, 0xd5, 0x05, 0x31, 0x04, 0xf8, 0x03, 0xec, 0xc7, 0x40, 0x1d, 0xfe,
    0x0b, 0x36, 0xdc, 0xf7, 0x1b, 0x28, 0xfd, 0xf1, 0x16, 0x04, 0xcc, 0xfa, 0x09,
    0x00, 0xd2, 0xbc, 0xe1, 0xf2, 0x1b, 0xe2, 0xf3, 0xc3, 0xd9, 0x01, 0xd3, 0xb7,
    0xeb, 0xed, 0xc7, 0x0a, 0xd0, 0xea, 0xf5, 0x08, 0xe0, 0xdd, 0xd5, 0x06, 0xe1,
    0xc4, 0xf6, 0xba, 0x0c, 0x1b, 0x08, 0xeb, 0x04, 0x2a, 0x03, 0x0a, 0xe0, 0x1c,
    0xec, 0x0a, 0x19, 0xee, 0x22, 0x01, 0x17, 0x0c, 0x03, 0xef, 0xf1, 0xef, 0xe5,
    0xe3, 0x2a, 0x18, 0x11, 0xdf, 0xfd, 0x28, 0xea, 0x19, 0xea, 0x1d, 0xd7, 0x09,
    0xf5, 0x0f, 0xd4, 0x16, 0x2b, 0x03, 0xd3, 0xd5, 0xf2, 0x18, 0xe8, 0xef, 0xfb,
    0xfd, 0xe8, 0x1a, 0x2b, 0x11, 0x15, 0x2d, 0x0a, 0xe2, 0x35, 0x10, 0xfe, 0x06,
    0x2b, 0xf0, 0xbf, 0xff, 0xc7, 0xe6, 0xf4, 0xe5, 0xe3, 0xf1, 0xdd, 0xef, 0x03,
    0xe6, 0xb0, 0xfa, 0xac, 0xd0, 0xc0, 0xc0, 0xe4, 0xf0, 0xc7, 0xc1, 0xdf, 0xe7,
    0xc3, 0xf2, 0xe8, 0xdc, 0xc6, 0xcc, 0x18, 0xcd, 0x2b, 0xf2, 0x06, 0xf5, 0xe5,
    0x12, 0xda, 0xc9, 0xf3, 0x0e, 0xf9, 0x20, 0x24, 0x0f, 0x14, 0x29, 0xe1, 0xe5,
    0xcb, 0xf5, 0xfa, 0x0f, 0xde, 0x12, 0x22, 0x27, 0xf8, 0xc2, 0xea, 0x1b, 0xd7,
    0x09, 0x09, 0x0a, 0xd4, 0x2c, 0x13, 0x01, 0xce, 0xf7, 0x2d, 0xdd, 0xc0, 0x07,
    0xff, 0x28, 0xd5, 0xf9, 0x01, 0x00, 0xbe, 0x26, 0x05, 0xdd, 0x2b, 0x24, 0xfb,
    0xf0, 0x02, 0x29, 0xed, 0xcd, 0x2c, 0xdf, 0xe4, 0x0f, 0xf3, 0x07, 0xe1, 0x1f,
    0xfa, 0x00, 0x10, 0x0b, 0xf7, 0x00, 0xf0, 0xfb, 0x06, 0x1c, 0x20, 0xe9, 0xf0,
    0xf8, 0xef, 0xe8, 0x29, 0x2a, 0x11, 0xf9, 0x11, 0x23, 0x0d, 0x18, 0x39, 0x17,
    0xee, 0x24, 0xfe, 0xfa, 0xf5, 0x1f, 0x06, 0xfe, 0x2b, 0x1b, 0xf3, 0xf8, 0xf8,
    0x18, 0xf5, 0x04, 0x10, 0xf6, 0xfa, 0x06, 0x01, 0xfb, 0xf9, 0x17, 0x03, 0x0d,
    0xef, 0x05, 0x25, 0xf0, 0x23, 0xea, 0xc2, 0x23, 0x03, 0x3c, 0x1a, 0xaf, 0xf5,
    0x32, 0x17, 0xd9, 0xf0, 0xb8, 0xc3, 0x45, 0xac, 0xa8, 0xe1, 0xfa, 0xc0, 0x2d,
    0x25, 0xcc, 0x29, 0x33, 0xd0, 0xd7, 0x1a, 0x3e, 0xde, 0xb6, 0x43, 0xa5, 0x14,
    0x1c, 0xf9, 0x12, 0x04, 0xf2, 0xee, 0xfd, 0x04, 0xf6, 0xfc, 0xfa, 0xe4, 0x0f,
    0x1a, 0x16, 0x02, 0x08, 0x16, 0x21, 0x29, 0x0d, 0x2e, 0x00, 0xe7, 0x10, 0x22,
    0xfb, 0x10, 0xf7, 0x20, 0x1a, 0x1b, 0x07, 0x2d, 0xef, 0x08, 0x14, 0xeb, 0x04,
    0x08, 0x0a, 0xf9, 0x1b, 0xef, 0xf0, 0x09, 0xed, 0x20, 0x22, 0x19, 0xea, 0xfa,
    0xf1, 0x11, 0xef, 0xef, 0xfb, 0xf2, 0xea, 0x17, 0x20, 0x1d, 0xf9, 0xde, 0x3e,
    0x02, 0x18, 0xf6, 0xd1, 0xd8, 0x4d, 0x14, 0xbb, 0xd9, 0xbb, 0xcd, 0x29, 0xf4,
    0xdd, 0xf3, 0xf2, 0xe6, 0x20, 0x23, 0xe0, 0x35, 0x05, 0xea, 0x04, 0x36, 0x2b,
    0xf7, 0xd7, 0x47, 0xe0, 0xfa, 0x05, 0xff, 0x08, 0x0d, 0x21, 0x1a, 0xf4, 0x31,
    0xf8, 0xf4, 0x1b, 0x18, 0xf4, 0xf5, 0xef, 0x14, 0xf9, 0xf7, 0x1b, 0x1a, 0xee,
    0xfa, 0x19, 0x15, 0x23, 0x24, 0x36, 0x04, 0xed, 0x3f, 0xfb, 0x11, 0x1f, 0x1f,
    0x11, 0x00, 0x20, 0xfd, 0x11, 0x14, 0xf7, 0x0d, 0xfc, 0x1e, 0x11, 0xf9, 0x08,
    0x14, 0x18, 0x1f, 0x14, 0xf6, 0x05, 0x18, 0x10, 0xfd, 0x15, 0xf0, 0x12, 0x0b,
    0xfa, 0x11, 0xf4, 0xd6, 0x35, 0xf2, 0x37, 0xda, 0xdd, 0xf2, 0x14, 0x1c, 0xc3,
    0xee, 0xc0, 0xeb, 0x1d, 0xcd, 0xcc, 0xcf, 0x03, 0xe4, 0x0c, 0x18, 0xb8, 0x32,
    0x2a, 0xe4, 0x01, 0x38, 0x3d, 0xf0, 0xe6, 0x2c, 0xc8, 0xf4, 0x12, 0xfe, 0x00,
    0xed, 0x1f, 0xf6, 0x14, 0x26, 0x1a, 0xee, 0xf3, 0x01, 0xfa, 0xef, 0x12, 0xec,
    0x0e, 0x01, 0x2e, 0xf9, 0x22, 0x1a, 0x0f, 0xf9, 0x26, 0xfd, 0xf6, 0x08, 0x01,
    0x11, 0xf2, 0x11, 0x0b, 0x02, 0xe1, 0x0d, 0xf7, 0x05, 0xf1, 0x22, 0x09, 0x15,
    0xf8, 0x14, 0x1b, 0xe6, 0xfa, 0x02, 0x0f, 0x0a, 0x18, 0xfe, 0x0c, 0xe7, 0xea,
    0x17, 0x0f, 0x00, 0xf5, 0xfe, 0x06, 0xfc, 0x14, 0xe2, 0x13, 0xea, 0x2a, 0x02,
    0xe3, 0xc4, 0x27, 0x1f, 0xbe, 0x06, 0xd9, 0xdd, 0x47, 0xe9, 0xd4, 0xc6, 0x13,
    0xde, 0x2a, 0x12, 0xcc, 0x31, 0x1e, 0xe8, 0xe4, 0x28, 0x3f, 0xec, 0xcc, 0x1a,
    0xbd, 0xff, 0xfc, 0x17, 0x2d, 0xf0, 0xfa, 0x02, 0x1f, 0x17, 0x1b, 0x09, 0xed,
    0xf6, 0x29, 0x07, 0x10, 0xff, 0xf5, 0xe0, 0x09, 0xfd, 0xf6, 0x00, 0xf5, 0x08,
    0x1e, 0x0c, 0x1d, 0x03, 0x11, 0x31, 0xec, 0x0a, 0xf4, 0x11, 0xf5, 0x16, 0xef,
    0xfb, 0xf4, 0xed, 0x07, 0x0f, 0xfd, 0xfe, 0xee, 0x0a, 0x12, 0x23, 0x20, 0x1f,
    0xe3, 0x06, 0xec, 0x01, 0x0b, 0x16, 0x17, 0xf9, 0xcf, 0x22, 0xf2, 0xef, 0xe5,
    0xe9, 0x43, 0xf3, 0x0a, 0x00, 0xd2, 0xdc, 0x19, 0x18, 0xca, 0x26, 0xe8, 0xde,
    0x39, 0xe2, 0xc4, 0xd2, 0xd5, 0xe6, 0x12, 0x3b, 0xdd, 0x21, 0x17, 0xce, 0xd2,
    0x33, 0x5a, 0xf0, 0xba, 0x30, 0xbf, 0xef, 0xe2, 0x00, 0xda, 0xd3, 0x15, 0xff,
    0xd6, 0xfd, 0x2c, 0x13, 0x06, 0x0a, 0xe8, 0x05, 0x20, 0x18, 0xee, 0x08, 0x0c,
    0xf4, 0x1f, 0x0c, 0xea, 0x0b, 0x2a, 0x12, 0xe9, 0xfa, 0x02, 0x08, 0x12, 0xe7,
    0x0d, 0x14, 0x01, 0xf6, 0x1b, 0x06, 0x01, 0xf3, 0xfe, 0x10, 0x0a, 0x0f, 0x06,
    0xe9, 0xf1, 0xf5, 0x0a, 0x0d, 0xe5, 0xf0, 0xef, 0x11, 0x0a, 0x01, 0x19, 0xf1,
    0x04, 0xea, 0x16, 0x14, 0xf8, 0xc8, 0x39, 0xe8, 0x19, 0xf1, 0xb5, 0xd2, 0x3d,
    0x35, 0xbc, 0xf2, 0xd9, 0xaf, 0x22, 0xc6, 0xbd, 0xd9, 0xff, 0xd5, 0x20, 0x37,
    0xe8, 0x0f, 0x1d, 0xc3, 0x01, 0x3f, 0x47, 0x05, 0xd9, 0x33, 0xdc, 0x07, 0x14,
    0xfc, 0xee, 0xf7, 0xed, 0x04, 0x02, 0x22, 0xef, 0x05, 0x13, 0xec, 0xfa, 0xf8,
    0xe9, 0x0a, 0x0c, 0x02, 0x08, 0xf1, 0xf6, 0xf8, 0xf3, 0x14, 0x02, 0x26, 0x1e,
    0xf9, 0x0e, 0xff, 0x01, 0x03, 0xf3, 0x11, 0xe6, 0x1c, 0xf2, 0xe7, 0x21, 0xf3,
    0xf0, 0xf2, 0xf5, 0x1b, 0xf9, 0x13, 0xea, 0x08, 0x2b, 0x09, 0xfb, 0xfc, 0xfa,
    0xe8, 0x22, 0x00, 0x09, 0xf1, 0x0f, 0x10, 0xe8, 0xf2, 0x06, 0xd4, 0x21, 0xf1,
    0x29, 0xe4, 0xbc, 0xf9, 0x4a, 0x0f, 0xf0, 0xf2, 0xd9, 0xe2, 0x0c, 0xe4, 0xbb,
    0x06, 0xde, 0xe8, 0x27, 0x2c, 0x00, 0x0b, 0x23, 0xef, 0xde, 0x2d, 0x44, 0xf1,
    0xd9, 0x22, 0xe0, 0xff, 0xe5, 0x0d, 0x21, 0x08, 0x0b, 0x12, 0xf5, 0x22, 0xf0,
    0x00, 0xfb, 0x20, 0x0c, 0xea, 0x1b, 0x18, 0x27, 0xfc, 0x08, 0xff, 0x18, 0x15,
    0x10, 0xf2, 0xfc, 0xf5, 0xf9, 0x27, 0x09, 0x12, 0x1e, 0x10, 0x17, 0x0a, 0x15,
    0x02, 0x09, 0x00, 0x12, 0xf0, 0x09, 0x1f, 0x1b, 0x00, 0xf5, 0x06, 0x01, 0xfc,
    0x21, 0x16, 0x1b, 0x03, 0x0d, 0x13, 0x23, 0xfb, 0x08, 0xfb, 0x0f, 0xe6, 0x09,
    0x22, 0x1a, 0xde, 0x45, 0xe4, 0x32, 0x03, 0xd5, 0xf6, 0x44, 0x43, 0xc5, 0xf4,
    0xd4, 0xf7, 0x14, 0x05, 0xd0, 0xe5, 0xfd, 0xd4, 0x2e, 0x0e, 0xd0, 0x3e, 0x39,
    0xdf, 0x02, 0x0a, 0x2b, 0xf4, 0xe4, 0x26, 0xd5, 0xf0, 0x18, 0x03, 0xe2, 0xf3,
    0x0e, 0x0d, 0x18, 0x20, 0xf4, 0x09, 0xff, 0x15, 0x17, 0x04, 0xec, 0x16, 0xec,
    0x36, 0x14, 0x05, 0xfa, 0xf1, 0xf8, 0xee, 0x0b, 0x1a, 0xfc, 0xff, 0x15, 0x01,
    0xea, 0x00, 0x20, 0x00, 0x03, 0xeb, 0x13, 0xf6, 0x16, 0x19, 0xee, 0xee, 0x07,
    0xe5, 0xf9, 0xf4, 0x10, 0xe7, 0xf9, 0xd1, 0xfb, 0xf3, 0x07, 0xff, 0x1e, 0x17,
    0xf7, 0xf9, 0xe0, 0x13, 0x08, 0x21, 0xf1, 0xef, 0x47, 0x05, 0x25, 0x05, 0xc4,
    0xc9, 0x15, 0x2b, 0xe5, 0xf6, 0xd6, 0xf5, 0x3c, 0xd6, 0xfd, 0xc8, 0x11, 0xd4,
    0x34, 0x08, 0xf5, 0x2d, 0x0a, 0xec, 0xdf, 0x31, 0x32, 0xe4, 0xd1, 0x50, 0xe8,
    0x29, 0x31, 0x1b, 0x21, 0x2f, 0x29, 0x19, 0x31, 0x21, 0x21, 0xfa, 0x28, 0xfb,
    0x0a, 0x2b, 0x2f, 0x16, 0x22, 0x04, 0x27, 0x05, 0x2b, 0x09, 0x2f, 0x04, 0x19,
    0x29, 0x16, 0x17, 0xfa, 0x0b, 0x07, 0x17, 0x03, 0xf3, 0xf1, 0xf6, 0xec, 0xff,
    0xfe, 0x09, 0xe9, 0x1d, 0xfb, 0x16, 0xfa, 0xfa, 0x16, 0x0b, 0x12, 0x20, 0x1c,
    0xf0, 0x0b, 0xf5, 0x13, 0xec, 0xff, 0x16, 0x1f, 0x13, 0xfc, 0x18, 0x06, 0xf3,
    0xfb, 0x15, 0xfb, 0x2d, 0x03, 0x07, 0xf0, 0x00, 0xfa, 0x06, 0x0a, 0x14, 0xee,
    0x04, 0x05, 0x0d, 0x25, 0x10, 0xf4, 0x14, 0x1a, 0x13, 0xf8, 0xf5, 0x1d, 0xf6,
    0xfe, 0x1e, 0x1c, 0xf4, 0xef, 0xfd, 0x03, 0x04, 0x1b, 0x2e, 0x00, 0x0f, 0x0c,
    0xed, 0x08, 0x01, 0x29, 0x03, 0x24, 0x00, 0xfd, 0x1e, 0x0f, 0x2d, 0x07, 0xfb,
    0x07, 0xf7, 0x15, 0x0b, 0x07, 0x15, 0x01, 0x1c, 0x28, 0x1a, 0x11, 0x0f, 0x05,
    0x05, 0x01, 0x04, 0x0e, 0xe5, 0x0c, 0x04, 0xed, 0xec, 0x11, 0x19, 0xf4, 0xfa,
    0x05, 0x03, 0x16, 0xf1, 0xea, 0xf2, 0xf5, 0x16, 0x1a, 0x17, 0xf7, 0x1b, 0x04,
    0x0a, 0x13, 0xec, 0xf7, 0x1f, 0xe8, 0xfb, 0xfb, 0x08, 0x25, 0x1f, 0xf3, 0x09,
    0x04, 0x02, 0xf6, 0x11, 0x0e, 0xf5, 0x16, 0x11, 0x11, 0x3b, 0xe8, 0xe0, 0x24,
    0xe9, 0x13, 0xef, 0x04, 0x16, 0xfa, 0x18, 0x03, 0xe0, 0x0c, 0x24, 0x0c, 0xf4,
    0xf5, 0xfd, 0xfe, 0x0f, 0x1b, 0x16, 0x15, 0x09, 0x0a, 0x01, 0xfb, 0x00, 0xfc,
    0x16, 0x0e, 0x0c, 0xff, 0x01, 0x1f, 0x0d, 0x0b, 0x15, 0xf7, 0x06, 0x30, 0xf5,
    0xf3, 0xff, 0xfa, 0xf2, 0x08, 0x1b, 0xfc, 0x0e, 0xe6, 0xf7, 0x18, 0x17, 0xf9,
    0x04, 0xec, 0xe7, 0xe6, 0x1b, 0xef, 0x19, 0x02, 0x0d, 0xf1, 0x02, 0x16, 0x0b,
    0xe6, 0xf9, 0xee, 0x0d, 0xf2, 0x26, 0x06, 0xd9, 0x1c, 0x14, 0xec, 0x1c, 0x10,
    0x2c, 0xf4, 0x07, 0xfc, 0x1c, 0x29, 0x1a, 0x02, 0xf4, 0x09, 0xf0, 0xf7, 0xf4,
    0xfc, 0x18, 0x15, 0x01, 0x10, 0x0d, 0xf7, 0x13, 0x0b, 0xe8, 0xe3, 0x27, 0x13,
    0xff, 0x1c, 0xfe, 0xf1, 0x21, 0x17, 0x15, 0x03, 0xee, 0x09, 0x1b, 0x02, 0xf7,
    0xf0, 0xfc, 0x0f, 0x07, 0x0f, 0x0f, 0x27, 0x18, 0x05, 0x2f, 0xfa, 0x15, 0x14,
    0x0b, 0x04, 0x17, 0xee, 0x21, 0xf2, 0x0b, 0x16, 0xf0, 0x1d, 0xf6, 0xef, 0x1d,
    0x08, 0xed, 0x00, 0xe2, 0xf1, 0x28, 0xed, 0xed, 0x0f, 0xf6, 0xf0, 0x00, 0xf8,
    0x13, 0x14, 0xed, 0xe9, 0x1d, 0xfe, 0x06, 0xee, 0x01, 0xf1, 0xfa, 0x16, 0x1c,
    0x0f, 0x17, 0xfb, 0x1a, 0xfa, 0x09, 0xf5, 0xee, 0xff, 0xf0, 0x06, 0xf7, 0xff,
    0xee, 0x0c, 0x18, 0x09, 0xf8, 0x11, 0x22, 0xea, 0x0a, 0xf2, 0xfc, 0x15, 0x0f,
    0xf1, 0x04, 0xf7, 0x23, 0xf4, 0xeb, 0x0d, 0x17, 0x0c, 0x0f, 0xfa, 0xe8, 0x01,
    0x14, 0xee, 0xe8, 0x0e, 0x24, 0x2c, 0xf5, 0x03, 0x00, 0xf4, 0x02, 0xfe, 0x07,
    0xec, 0x01, 0xfa, 0x06, 0x1b, 0x0e, 0xf5, 0x18, 0x17, 0x10, 0x1d, 0x1d, 0x08,
    0x0d, 0xf0, 0x22, 0xe6, 0x01, 0xed, 0xf4, 0xe7, 0xea, 0xea, 0xef, 0xe7, 0x1d,
    0x05, 0x1e, 0x00, 0xe8, 0xfd, 0x01, 0xef, 0x0e, 0xe8, 0x20, 0x14, 0x04, 0x0c,
    0x00, 0x14, 0x22, 0xee, 0xfe, 0xe6, 0xe5, 0xf8, 0x1e, 0x16, 0x17, 0x04, 0xe5,
    0x1a, 0x0c, 0x1a, 0x0c, 0x0c, 0x06, 0x0f, 0xff, 0xfb, 0xfe, 0xfd, 0x0f, 0xe7,
    0xe8, 0x02, 0x13, 0xfe, 0x02, 0xed, 0xf7, 0x0a, 0x0b, 0x1b, 0xee, 0xf8, 0x13,
    0x04, 0x1d, 0x1c, 0x08, 0x06, 0x04, 0xf9, 0x0e, 0x17, 0xfe, 0x15, 0xff, 0x0e,
    0x0b, 0xfc, 0x12, 0x14, 0x00, 0x01, 0x06, 0x05, 0x10, 0xf6, 0x28, 0xfe, 0x32,
    0x12, 0x1e, 0x0b, 0x0e, 0x25, 0xe5, 0x0d, 0xf0, 0xfb, 0xe6, 0x0f, 0x0c, 0xef,
    0xfe, 0x15, 0x0a, 0x16, 0xe3, 0x00, 0xfd, 0x0b, 0x0b, 0x03, 0x12, 0x09, 0x04,
    0xec, 0xf9, 0x07, 0xee, 0xf8, 0xf7, 0x20, 0x0a, 0xf8, 0x01, 0xed, 0xe5, 0xfa,
    0x12, 0xe1, 0x1b, 0x0e, 0x18, 0x10, 0xe4, 0x1f, 0x25, 0x18, 0x12, 0x06, 0x0b,
    0xf4, 0x15, 0x1c, 0x1e, 0xde, 0xdd, 0xff, 0x0a, 0xe6, 0xff, 0xfc, 0xf6, 0xfd,
    0x25, 0x1d, 0x00, 0xe8, 0x26, 0x24, 0x06, 0x1e, 0xff, 0x14, 0xf3, 0x22, 0x13,
    0x2b, 0xf6, 0x13, 0x08, 0x13, 0x29, 0x2c, 0x0f, 0xfb, 0x26, 0x2c, 0x13, 0xff,
    0x0f, 0x07, 0x0b, 0x20, 0x28, 0xfd, 0x11, 0xfe, 0x26, 0xf3, 0xdd, 0x1c, 0xff,
    0xf4, 0x00, 0xef, 0xf1, 0x03, 0x14, 0x07, 0x04, 0x01, 0x03, 0x16, 0x0a, 0x14,
    0x18, 0x28, 0x1b, 0xfd, 0x1c, 0x13, 0x0f, 0xfa, 0xe3, 0xf6, 0x00, 0xf0, 0xfa,
    0xfe, 0xf9, 0x05, 0xec, 0xf5, 0x20, 0x0f, 0xf3, 0xff, 0xf9, 0x17, 0xef, 0xf4,
    0xec, 0xee, 0xe4, 0x0b, 0x04, 0x18, 0xe7, 0x2b, 0x0b, 0x17, 0x0b, 0x10, 0xfd,
    0xf3, 0xf5, 0xec, 0xf1, 0xd9, 0xee, 0x22, 0xf6, 0x20, 0x03, 0x20, 0x17, 0x2f,
    0x19, 0x19, 0x24, 0x1f, 0xf8, 0x07, 0x28, 0x1d, 0x20, 0x0d, 0x2a, 0x13, 0x17,
    0x12, 0x1f, 0xfe, 0x1c, 0x0d, 0x29, 0x16, 0x17, 0x12, 0x2e, 0xf5, 0x10, 0x1d,
    0x18, 0x19, 0xfd, 0xfb, 0x08, 0xf0, 0x26, 0xed, 0x04, 0xfc, 0x0c, 0x06, 0x15,
    0xfe, 0x04, 0x1c, 0xef, 0xef, 0x08, 0x1a, 0xfb, 0x17, 0x0a, 0xf0, 0xe7, 0x0c,
    0xf4, 0xfd, 0xfc, 0x0f, 0x0e, 0xed, 0xe8, 0xe6, 0xf2, 0xdd, 0x0b, 0x0a, 0xf1,
    0xf1, 0x1e, 0xf9, 0xee, 0x04, 0x23, 0xed, 0x00, 0x13, 0x0f, 0xfc, 0x15, 0xf9,
    0x03, 0xdf, 0xed, 0x0c, 0xff, 0xf7, 0x1a, 0xfb, 0x08, 0xf2, 0xfd, 0x0a, 0x16,
    0x22, 0xf2, 0x2e, 0x17, 0x04, 0xf1, 0x1f, 0xf8, 0x07, 0x22, 0xfb, 0x0f, 0x08,
    0x1b, 0xf6, 0x06, 0x21, 0x27, 0x15, 0x0f, 0x17, 0x0b, 0x25, 0x2d, 0x10, 0x1b,
    0x25, 0x07, 0x08, 0xee, 0x12, 0x36, 0xf0, 0x0b, 0x05, 0x19, 0x02, 0x0c, 0xf2,
    0x04, 0x06, 0xfc, 0x15, 0x19, 0xf5, 0xe5, 0x20, 0xf2, 0xee, 0x1b, 0x30, 0x42,
    0x03, 0x0d, 0xfb, 0xfa, 0xe4, 0x06, 0xe9, 0x15, 0x20, 0xfd, 0xfa, 0x0f, 0xe2,
    0x25, 0x03, 0xf6, 0xfa, 0xf0, 0xfb, 0x03, 0x16, 0xfc, 0x00, 0x09, 0x07, 0x27,
    0xf2, 0x04, 0xfb, 0xff, 0xf0, 0x2b, 0xe2, 0x0c, 0x34, 0xfe, 0x01, 0x07, 0x2a,
    0x1a, 0xf4, 0x02, 0x33, 0x02, 0x1f, 0x3c, 0x05, 0x09, 0xdc, 0xde, 0x39, 0x03,
    0xe3, 0xf9, 0x32, 0xea, 0x17, 0x41, 0x09, 0x0e, 0x24, 0x32, 0x09, 0xfe, 0xec,
    0xee, 0x35, 0x08, 0xf4, 0x1c, 0x1a, 0xf5, 0x06, 0xfc, 0x10, 0xec, 0x3f, 0xe5,
    0xcc, 0xfa, 0xd3, 0x08, 0xea, 0x06, 0xee, 0x06, 0x02, 0xe6, 0x14, 0xef, 0xf5,
    0x02, 0xf0, 0x14, 0xfe, 0xcf, 0xe4, 0xde, 0x0d, 0xe7, 0xff, 0xeb, 0xfb, 0xfe,
    0x09, 0xf1, 0x07, 0x11, 0x07, 0x36, 0xe5, 0xf1, 0xe8, 0xed, 0x30, 0x00, 0xbd,
    0xe0, 0x42, 0xe7, 0x1c, 0x0a, 0xeb, 0x27, 0x0a, 0x07, 0xe2, 0xfc, 0xf0, 0xdc,
    0x15, 0xd4, 0xc1, 0x33, 0x02, 0xbe, 0xcf, 0xd6, 0x2f, 0xcd, 0x18, 0x37, 0xd8,
    0x00, 0xec, 0xf8, 0x17, 0xfa, 0x0a, 0x04, 0x31, 0xec, 0x32, 0x1b, 0x0f, 0x10,
    0x3b, 0x38, 0xe4, 0x06, 0xd8, 0xee, 0x14, 0xf6, 0xe8, 0x2d, 0x29, 0xf2, 0xe4,
    0xe9, 0x12, 0xd3, 0x1c, 0xed, 0xd8, 0xf4, 0xd9, 0xff, 0x00, 0xdd, 0xce, 0xff,
    0x1c, 0xed, 0xf3, 0xe6, 0xdf, 0xde, 0x15, 0xe5, 0x0b, 0xdd, 0xc4, 0xe7, 0xde,
    0x07, 0xe5, 0x00, 0xe0, 0xdb, 0xf6, 0xf9, 0x01, 0x26, 0xf8, 0x2e, 0xe1, 0xdb,
    0xb5, 0xfe, 0x18, 0xd4, 0xd6, 0xba, 0x39, 0xd6, 0x02, 0x0b, 0xb8, 0x05, 0x29,
    0x23, 0xda, 0xed, 0xcb, 0xec, 0x2e, 0xcf, 0xf4, 0x17, 0x24, 0xd3, 0xbd, 0x08,
    0x23, 0xbe, 0x16, 0x21, 0xf3, 0xe5, 0xfa, 0xf6, 0x3f, 0x22, 0xde, 0xf2, 0x33,
    0x09, 0x26, 0x34, 0x08, 0x23, 0x1d, 0x2b, 0xf9, 0x21, 0x14, 0xdd, 0x1c, 0xd6,
    0x05, 0x15, 0x3d, 0x18, 0xe6, 0xf5, 0x43, 0xfc, 0x12, 0x02, 0xf4, 0xfe, 0xf4,
    0xeb, 0xfa, 0xe7, 0xd1, 0x1d, 0x16, 0xf6, 0xee, 0x0f, 0xf1, 0xda, 0xfe, 0xe8,
    0xe4, 0xf0, 0xd2, 0xf9, 0xee, 0xd9, 0xf7, 0xe5, 0xe1, 0xf7, 0xd6, 0xfe, 0x09,
    0x32, 0xeb, 0xfe, 0xd0, 0xfc, 0xd3, 0x08, 0x01, 0x0f, 0xd9, 0xc1, 0x32, 0x08,
    0x13, 0x24, 0xcc, 0x16, 0x0b, 0x0a, 0x06, 0xfc, 0xec, 0xc0, 0x15, 0xd3, 0xc7,
    0x0a, 0xf9, 0xdb, 0xcb, 0xf4, 0x20, 0xe8, 0x12, 0x1e, 0xd7, 0xe8, 0xfa, 0xf0,
    0x2a, 0x27, 0xe9, 0xe3, 0x3d, 0xe2, 0x12, 0x3b, 0xff, 0x10, 0x35, 0x14, 0xdf,
    0x17, 0xec, 0x0b, 0x3b, 0xe0, 0xe3, 0x18, 0x12, 0xfd, 0xf8, 0xe1, 0x34, 0xf0,
    0x36, 0xfe, 0xe9, 0x08, 0xf7, 0xef, 0x17, 0xd5, 0x0c, 0x0c, 0xff, 0xf6, 0xe5,
    0xfe, 0x17, 0xec, 0xf5, 0xf8, 0xe9, 0xd2, 0xe9, 0xed, 0x17, 0xf7, 0xe3, 0x07,
    0x0d, 0xca, 0xf5, 0xff, 0xf3, 0xfa, 0x07, 0x05, 0xe6, 0xf4, 0xe2, 0x04, 0x1c,
    0xe6, 0xdf, 0xc0, 0x3f, 0x17, 0x06, 0x1a, 0xde, 0x06, 0x37, 0x1b, 0xd5, 0xfa,
    0xe2, 0xe2, 0x04, 0xce, 0xc5, 0x20, 0x25, 0xe9, 0xb1, 0xf9, 0x16, 0xbe, 0x05,
    0x38, 0x08, 0xe6, 0x03, 0xe0, 0x35, 0x27, 0x09, 0x0e, 0x49, 0xe0, 0x1b, 0x1a,
    0x06, 0x06, 0x46, 0x1b, 0x00, 0x1e, 0xdb, 0xdb, 0x24, 0xf1, 0x0e, 0x2a, 0x3f,
    0xf5, 0xdf, 0xf5, 0x08, 0xd4, 0x36, 0x11, 0xe0, 0xf1, 0xe3, 0xd6, 0xdd, 0xe9,
    0xfd, 0x16, 0xfa, 0xe4, 0x09, 0xe5, 0xe6, 0xda, 0xf5, 0x02, 0xe0, 0xe2, 0xdc,
    0xd9, 0xfb, 0xf5, 0xd3, 0xe8, 0xf2, 0x01, 0xd5, 0xca, 0xee, 0x30, 0xe6, 0x31,
    0xbf, 0xfa, 0xe3, 0x17, 0x21, 0xdd, 0xb3, 0xca, 0x26, 0xd5, 0x10, 0x2e, 0xe1,
    0x05, 0x13, 0x05, 0x03, 0xc4, 0xc6, 0xbf, 0x20, 0xde, 0xcc, 0x00, 0x25, 0xe8,
    0xc1, 0x03, 0x0a, 0xd4, 0x3a, 0x36, 0x11, 0xd5, 0xfc, 0xe3, 0x14, 0x0c, 0x00,
    0x0e, 0x27, 0xf6, 0x2a, 0x2d, 0xec, 0x3e, 0x29, 0x3d, 0xf0, 0xed, 0x17, 0x18,
    0x0d, 0x08, 0xf1, 0x38, 0x27, 0x04, 0xe4, 0x1a, 0x0d, 0xdd, 0x0c, 0x00, 0xfb,
    0xfe, 0xd8, 0xfc, 0xfd, 0xfa, 0xe0, 0x17, 0x08, 0xd5, 0xe1, 0x09, 0xf6, 0xda,
    0xd9, 0xf9, 0xd9, 0xe2, 0xdf, 0x04, 0xe5, 0xe6, 0xf2, 0xda, 0x08, 0xd9, 0xe3,
    0xf1, 0xec, 0x24, 0xf0, 0x02, 0xb4, 0x05, 0xc7, 0x0a, 0x27, 0xda, 0xd3, 0xd2,
    0x42, 0xf3, 0x21, 0x1e, 0xbb, 0xfa, 0x1d, 0xff, 0xe6, 0xdc, 0xcb, 0xb9, 0x0e,
    0xb7, 0xe3, 0x15, 0x2b, 0xdb, 0xa5, 0xdf, 0x43, 0xbd, 0xfe, 0x31, 0x09, 0xff,
    0xee, 0xeb, 0x2b, 0x0c, 0xe7, 0x12, 0x47, 0xe6, 0x28, 0x0e, 0xfc, 0x0d, 0x40,
    0x13, 0xe2, 0xf5, 0x13, 0x0e, 0x20, 0xec, 0x0b, 0x0d, 0x14, 0x09, 0x1c, 0xf1,
    0x1c, 0xd6, 0x15, 0xe0, 0xed, 0xda, 0xd7, 0xf8, 0xe8, 0xef, 0x03, 0x09, 0x14,
    0xfe, 0x06, 0xed, 0xf0, 0xdb, 0xff, 0x0f, 0xf8, 0xdb, 0xd4, 0xcb, 0xe8, 0xf7,
    0xdf, 0xe4, 0x04, 0xde, 0xe2, 0xf0, 0xe0, 0x0f, 0x10, 0x05, 0xd1, 0x01, 0xb8,
    0xd2, 0x0c, 0xe3, 0xb4, 0xc3, 0x2c, 0xe4, 0x19, 0x1b, 0xbe, 0x06, 0x20, 0xf8,
    0xfe, 0xe9, 0xca, 0xec, 0x19, 0xcc, 0xee, 0x27, 0x27, 0xd9, 0xc1, 0xfc, 0x34,
    0xba, 0x1b, 0x0c, 0x12, 0xfa, 0x0e, 0xf0, 0x0b, 0xff, 0xf2, 0x02, 0x41, 0xfc,
    0x11, 0x45, 0x00, 0x39, 0x41, 0x34, 0xf0, 0x26, 0x0c, 0x0d, 0x22, 0xe0, 0xf0,
    0x0b, 0x1c, 0xff, 0x17, 0x0a, 0x2f, 0xe0, 0x06, 0xf9, 0xce, 0xec, 0xcb, 0xf5,
    0xfa, 0x0d, 0xd4, 0x18, 0x04, 0xd4, 0xfe, 0x03, 0xec, 0x08, 0xec, 0x0c, 0xec,
    0xd5, 0xef, 0xdf, 0x06, 0xcc, 0xe8, 0x15, 0xee, 0xdc, 0x06, 0x03, 0x21, 0x21,
    0xf9, 0x27, 0xcb, 0x08, 0xe7, 0x08, 0xf6, 0xeb, 0xd3, 0xf7, 0x4a, 0xe5, 0xee,
    0x0a, 0xd8, 0x0e, 0x02, 0xed, 0xea, 0xe1, 0xd5, 0xea, 0x18, 0xd3, 0xf1, 0xeb,
    0x10, 0xdc, 0xbd, 0x06, 0x22, 0xec, 0xf1, 0x33, 0xe0, 0x0a, 0x0a, 0xdd, 0x1c,
    0x0d, 0xfc, 0xff, 0x3d, 0x12, 0x33, 0x29, 0xe5, 0x1f, 0x0e, 0x3c, 0xde, 0x2e,
    0x1a, 0x06, 0x2b, 0xe2, 0xf7, 0x22, 0x47, 0x06, 0xeb, 0x1c, 0x3a, 0x16, 0x38,
    0xe7, 0xda, 0xd3, 0xf7, 0xd3, 0x00, 0xdf, 0xe9, 0x15, 0x2d, 0x01, 0x17, 0x1a,
    0xf5, 0x16, 0x13, 0x17, 0xfb, 0x0e, 0xdf, 0xde, 0xf3, 0xf3, 0xee, 0xf4, 0x15,
    0xcb, 0xfc, 0xee, 0xf6, 0x29, 0xdc, 0x2b, 0xce, 0xdb, 0xc8, 0xe8, 0x06, 0xf9,
    0xc8, 0xe2, 0x2d, 0xec, 0x06, 0x16, 0xd0, 0x25, 0x2e, 0x05, 0xd7, 0xda, 0xd5,
    0xda, 0x17, 0xd9, 0xbe, 0x3c, 0x22, 0xdb, 0xd2, 0xf9, 0x32, 0xc3, 0x0e, 0x10,
    0xca, 0xd1, 0xf6, 0xda, 0x19, 0xf4, 0xe8, 0x0a, 0x09, 0x09, 0x1a, 0xed, 0xd7,
    0xff, 0xff, 0x09, 0xee, 0xdf, 0xc7, 0xc8, 0xe7, 0xf9, 0xee, 0x10, 0x04, 0xc5,
    0x00, 0xf4, 0xef, 0xfe, 0xe2, 0x2d, 0xec, 0xf5, 0xe1, 0xff, 0x04, 0x0e, 0x18,
    0x01, 0x1f, 0xcf, 0x01, 0x1c, 0xf3, 0x1e, 0x1e, 0x25, 0xf6, 0xf6, 0x18, 0xf2,
    0x01, 0x03, 0x0a, 0x28, 0x00, 0x03, 0xf1, 0xfb, 0x2f, 0xdd, 0x0a, 0xf5, 0xda,
    0xe7, 0xe9, 0xf7, 0x13, 0xfa, 0xf1, 0x00, 0x1b, 0x08, 0x09, 0xec, 0x05, 0x10,
    0xf6, 0xf4, 0x04, 0xd5, 0xe4, 0xd1, 0x1b, 0xdf, 0xee, 0xe7, 0xe1, 0xe2, 0xef,
    0xe8, 0xf4, 0xf9, 0x0e, 0xf2, 0xd0, 0xd8, 0xf9, 0xd2, 0xe8, 0x0c, 0xeb, 0xec,
    0xf3, 0xcc, 0x05, 0x10, 0xe9, 0x08, 0xdf, 0xed, 0xdb, 0xdb, 0xf0, 0xd8, 0xe1,
    0xcf, 0xe6, 0x09, 0xf7, 0xc3, 0xf6, 0xd4, 0xeb, 0x02, 0xf0, 0x08, 0xee, 0xcd,
    0xf4, 0xf1, 0x0b, 0x0d, 0x07, 0xec, 0x24, 0xe7, 0x26, 0x05, 0x10, 0x20, 0x26,
    0x24, 0xe6, 0xfe, 0xf0, 0xee, 0x2f, 0x04, 0x12, 0x19, 0x1e, 0x14, 0x0f, 0xf1,
    0x15, 0x02, 0x28, 0xec, 0xd8, 0xde, 0xf5, 0xcc, 0xe3, 0xe9, 0xfb, 0xfe, 0x14,
    0xf8, 0xf2, 0xe4, 0xf8, 0x0d, 0x0a, 0xe4, 0xdf, 0xce, 0xec, 0xf2, 0x16, 0xcb,
    0xd4, 0xe2, 0xfe, 0x01, 0xd4, 0xc3, 0xfb, 0xdc, 0xea, 0xda, 0xe6, 0xe8, 0xdd,
    0xfd, 0xe4, 0x0c, 0x06, 0x13, 0xe2, 0xc2, 0xea, 0xf8, 0xeb, 0xdb, 0xde, 0xe9,
    0x04, 0xbc, 0xf6, 0xfa, 0xfb, 0x03, 0xd9, 0xf2, 0x09, 0xe1, 0xdd, 0xdb, 0x02,
    0xf1, 0xe5, 0x0c, 0x05, 0xed, 0x0d, 0xe7, 0x2a, 0xf6, 0xea, 0x0c, 0xee, 0xdd,
    0x0e, 0xf8, 0xe5, 0xfd, 0x31, 0x1e, 0xd9, 0xf6, 0xdf, 0x0d, 0x17, 0xfd, 0xe8,
    0x20, 0x0f, 0x00, 0xf1, 0x0b, 0x02, 0xee, 0x29, 0xf9, 0xdc, 0xec, 0xf3, 0xec,
    0x1b, 0x14, 0xd1, 0x09, 0xe6, 0xcd, 0xe1, 0x12, 0x02, 0x14, 0x21, 0xf3, 0xf9,
    0xf6, 0xe0, 0xdb, 0x05, 0xdc, 0xd0, 0xf9, 0x03, 0xee, 0xf1, 0x03, 0x1a, 0xed,
    0x0d, 0xfc, 0xc9, 0xeb, 0xe5, 0xfb, 0xfd, 0xdd, 0x04, 0xee, 0x05, 0x16, 0xfb,
    0xe8, 0xda, 0xf9, 0x00, 0xdf, 0xca, 0xff, 0xee, 0xf6, 0x11, 0x0f, 0xde, 0x0f,
    0x0d, 0xfd, 0xd6, 0xe2, 0xde, 0xfe, 0xe7, 0xfa, 0xf6, 0x0a, 0xe6, 0xed, 0x13,
    0xf4, 0xfe, 0x10, 0x14, 0xda, 0x13, 0xfa, 0x03, 0xf2, 0x2e, 0x1d, 0x0b, 0xee,
    0x18, 0x18, 0x2a, 0xe4, 0xfd, 0x24, 0x14, 0x16, 0xfd, 0xf1, 0x12, 0x13, 0x0a,
    0x0a, 0xf4, 0xd5, 0x0c, 0xd6, 0xe8, 0x0c, 0x0a, 0xf0, 0x15, 0xf2, 0xe8, 0x1d,
    0xdb, 0xf7, 0xfb, 0x0c, 0xe7, 0x02, 0x10, 0x08, 0x16, 0xdc, 0xd9, 0xf4, 0xf8,
    0xec, 0xdd, 0xea, 0xe6, 0xf3, 0x12, 0xf4, 0xf3, 0x0f, 0xef, 0xf5, 0x14, 0x09,
    0xd1, 0x00, 0x03, 0xed, 0x09, 0xe1, 0xea, 0xf9, 0xdd, 0x17, 0xf1, 0xec, 0x08,
    0xee, 0x12, 0xdd, 0xe1, 0xdb, 0xf3, 0xfa, 0xd4, 0xec, 0xee, 0xee, 0xdc, 0xf5,
    0x02, 0xcd, 0xfc, 0xcf, 0x1a, 0x07, 0x07, 0x16, 0x1f, 0x07, 0xf8, 0x18, 0xfe,
    0x11, 0x1b, 0xf2, 0xe6, 0xe5, 0xf4, 0x04, 0xf9, 0xde, 0x12, 0x14, 0xf6, 0x03,
    0x14, 0xdd, 0x21, 0xdd, 0x29, 0xec, 0xbc, 0x0a, 0x09, 0xf6, 0x00, 0xe0, 0xf5,
    0xe7, 0x0b, 0xeb, 0x0d, 0x10, 0xf8, 0xe2, 0x2e, 0x10, 0x0d, 0xe4, 0xc9, 0xcb,
    0xeb, 0xca, 0xdc, 0xe5, 0x0c, 0xbf, 0xfd, 0xff, 0xf6, 0x04, 0x08, 0x0c, 0xdd,
    0x03, 0x18, 0xdd, 0xdd, 0xe5, 0xf8, 0xfc, 0xe8, 0xe1, 0xe2, 0x0f, 0xfd, 0xd5,
    0xe3, 0xe6, 0xf5, 0x02, 0xf6, 0x14, 0xe0, 0xd7, 0xf4, 0x0e, 0xe5, 0x16, 0xf4,
    0xd9, 0xf9, 0xe4, 0xf7, 0x28, 0xea, 0xe8, 0xde, 0x00, 0x2e, 0xf6, 0xfc, 0xe0,
    0xf2, 0xce, 0x01, 0x22, 0x07, 0x00, 0x2f, 0x0c, 0xf0, 0xe8, 0x07, 0x06, 0x1b,
    0xf9, 0xde, 0x26, 0xfa, 0xdf, 0xdf, 0xeb, 0x22, 0xe7, 0x29, 0x0f, 0xdf, 0xe8,
    0xe7, 0x0a, 0x1c, 0xf8, 0x0a, 0xda, 0x18, 0xea, 0x17, 0xec, 0xf7, 0xf0, 0x0c,
    0xe6, 0xe8, 0xdf, 0x09, 0xd0, 0xee, 0xdb, 0xcc, 0x12, 0xf8, 0xdd, 0xde, 0xd8,
    0xf9, 0xfe, 0xf6, 0xe2, 0xd0, 0x12, 0x0e, 0x10, 0x0a, 0x06, 0xd6, 0x1c, 0xdc,
    0xff, 0xf8, 0x01, 0x02, 0xf4, 0xe7, 0x0e, 0xdf, 0xd7, 0xf1, 0xf4, 0x05, 0xe7,
    0xde, 0xd8, 0x05, 0x02, 0xea, 0xfc, 0xdb, 0x0d, 0xda, 0x30, 0xf1, 0xd3, 0xf4,
    0xd4, 0x14, 0x0e, 0xf8, 0xe8, 0x17, 0xfe, 0x03, 0x1d, 0x06, 0x23, 0xfb, 0x16,
    0x05, 0xee, 0xf6, 0xe1, 0x2a, 0xe6, 0x00, 0x30, 0x01, 0xe2, 0xf8, 0x05, 0x24,
    0xe7, 0x27, 0xee, 0xf4, 0x0f, 0xcf, 0x0e, 0x13, 0x0f, 0xd2, 0xd1, 0x0f, 0xec,
    0xec, 0xf2, 0x0c, 0xf2, 0x17, 0x08, 0x02, 0xf6, 0xde, 0xe8, 0x0a, 0xdd, 0xd7,
    0xf3, 0xe5, 0xf3, 0xe7, 0x10, 0xf3, 0xcd, 0x0c, 0xec, 0xe8, 0xe5, 0xea, 0x07,
    0xf3, 0x12, 0x08, 0xed, 0xfd, 0xff, 0x07, 0x02, 0xfb, 0x0e, 0x07, 0xee, 0x0b,
    0xdb, 0xd8, 0xcb, 0x01, 0xec, 0xe8, 0xdc, 0xe9, 0xf0, 0x06, 0x09, 0xda, 0x0b,
    0xf7, 0x2f, 0xf9, 0x02, 0xf8, 0x12, 0x14, 0xff, 0xe0, 0xe2, 0x07, 0xe1, 0x01,
    0x04, 0xf5, 0x2a, 0xf9, 0x12, 0x10, 0xf4, 0xe3, 0xe4, 0xff, 0xff, 0xfe, 0x1b,
    0x08, 0x0f, 0xde, 0xf1, 0x0b, 0xf0, 0x28, 0x01, 0xe5, 0xea, 0x01, 0xe1, 0x0a,
    0xe6, 0xe2, 0xd5, 0xfc, 0x08, 0xe1, 0xf5, 0xd9, 0x0f, 0xf1, 0xf8, 0xd9, 0xef,
    0xe5, 0xde, 0xf5, 0xd0, 0xf4, 0xe5, 0xf5, 0xc4, 0xbc, 0xee, 0x13, 0xcf, 0x0d,
    0xf5, 0xdb, 0xdb, 0xdc, 0x0c, 0xe5, 0xe8, 0xfd, 0x15, 0xf0, 0xec, 0xee, 0xe1,
    0xfe, 0x02, 0xf5, 0xf1, 0xf9, 0xf3, 0x01, 0xf2, 0x13, 0x0a, 0x07, 0xed, 0x03,
    0xea, 0xee, 0x03, 0x03, 0x10, 0xe6, 0x39, 0xee, 0xd8, 0x14, 0xfc, 0x1e, 0x0b,
    0x05, 0xf5, 0x1f, 0xe9, 0x09, 0x1a, 0x09, 0x16, 0x37, 0x05, 0xe8, 0xe6, 0xd9,
    0xde, 0xff, 0xf4, 0x05, 0x0e, 0x11, 0xfc, 0xf4, 0x08, 0x06, 0xf9, 0x1c, 0xec,
    0xde, 0xde, 0xea, 0xf6, 0xfa, 0xda, 0xd5, 0xfd, 0x11, 0xfa, 0x07, 0x12, 0xeb,
    0x05, 0xe2, 0xec, 0xe2, 0xd2, 0xdc, 0xcf, 0x07, 0xf9, 0xd0, 0xe4, 0x15, 0xe6,
    0x00, 0xe5, 0x02, 0xf1, 0x03, 0x26, 0x0c, 0x3b, 0x2c, 0x2e, 0x1d, 0x19, 0x1a,
    0xf2, 0x27, 0x2d, 0x16, 0x2c, 0x14, 0x09, 0x22, 0x1a, 0x4a, 0x52, 0x2d, 0x12,
    0x00, 0x20, 0x22, 0x2d, 0x14, 0x08, 0xfa, 0x2e, 0x09, 0xe9, 0x14, 0x21, 0x2e,
    0x25, 0x10, 0xfd, 0x2f, 0x08, 0x14, 0xff, 0x24, 0x40, 0x31, 0x0f, 0x18, 0x2b,
    0x0b, 0x13, 0x1c, 0x61, 0x34, 0x3b, 0x1a, 0x28, 0x00, 0x12, 0x38, 0x2e, 0x3e,
    0xfd, 0xf7, 0x2a, 0x26, 0x22, 0xcf, 0x49, 0xe8, 0x17, 0x30, 0x3b, 0xfc, 0xda,
    0x2b, 0x20, 0x4c, 0x27, 0xf2, 0x41, 0x16, 0x2c, 0x4a, 0x42, 0xe2, 0xf4, 0x0f,
    0xc6, 0xd8, 0x3c, 0x21, 0xe7, 0xde, 0x19, 0xfd, 0xd1, 0x31, 0x1e, 0xf1, 0x0b,
    0x28, 0x24, 0x11, 0x03, 0x1a, 0x02, 0x27, 0x52, 0x37, 0x3a, 0x20, 0x2f, 0x36,
    0x0e, 0x43, 0x65, 0x13, 0x0f, 0x2b, 0x12, 0xf6, 0x33, 0x41, 0xdb, 0x0c, 0x2d,
    0x2c, 0xe8, 0x0e, 0x12, 0x1f, 0x0c, 0x3f, 0x05, 0x27, 0x13, 0xfa, 0x3c, 0xef,
    0x04, 0xf1, 0x14, 0x29, 0x2b, 0xfe, 0x11, 0x0a, 0x1f, 0x11, 0x39, 0x17, 0x2c,
    0x0c, 0x09, 0xfa, 0x42, 0x2f, 0x1d, 0x27, 0x16, 0x06, 0xfa, 0xed, 0x20, 0xf9,
    0x23, 0x1f, 0x10, 0x02, 0x05, 0x01, 0x30, 0x3e, 0x12, 0x11, 0x1d, 0x15, 0x04,
    0x1a, 0x58, 0x00, 0xf4, 0x0e, 0xe8, 0xd9, 0x02, 0x3a, 0x03, 0xfb, 0x34, 0x2f,
    0xf4, 0xf5, 0x1c, 0x1a, 0x16, 0xfe, 0x44, 0x18, 0x36, 0xf7, 0x05, 0x1a, 0x26,
    0x2f, 0xf7, 0x27, 0xf1, 0x15, 0x14, 0x19, 0x40, 0xf2, 0xfc, 0xfe, 0xef, 0xed,
    0x1e, 0x00, 0x1a, 0x06, 0x24, 0x04, 0xe1, 0x07, 0x18, 0x1b, 0x15, 0x2d, 0x0d,
    0x18, 0x22, 0x0e, 0x27, 0x28, 0x13, 0x2b, 0x1d, 0x2e, 0x0b, 0x27, 0x11, 0x0c,
    0xff, 0x21, 0x39, 0x1e, 0x0b, 0x25, 0x2e, 0x19, 0x21, 0x1b, 0x00, 0x16, 0x25,
    0x12, 0x0c, 0xfa, 0x24, 0x0e, 0x38, 0x03, 0x2e, 0xfe, 0xfc, 0x33, 0x2a, 0x17,
    0x24, 0xf5, 0x23, 0x04, 0x0f, 0x4c, 0x2a, 0xe3, 0x04, 0x30, 0xff, 0xf8, 0x18,
    0x0a, 0xe9, 0x06, 0x48, 0x00, 0xf8, 0x30, 0xee, 0x16, 0x3e, 0x1b, 0x0e, 0x1e,
    0xff, 0x28, 0x02, 0x25, 0x04, 0x14, 0x05, 0x03, 0x21, 0x22, 0x1e, 0x0d, 0x2f,
    0x03, 0xf4, 0xea, 0x04, 0xf2, 0xf0, 0xfd, 0x06, 0x10, 0x07, 0x23, 0xea, 0x13,
    0x09, 0x1e, 0x14, 0x1b, 0xfb, 0x28, 0xfa, 0x26, 0x32, 0x16, 0x33, 0x2a, 0x07,
    0x09, 0x37, 0x11, 0xfc, 0x1a, 0x1b, 0x39, 0x0b, 0x12, 0x09, 0x07, 0x39, 0x29,
    0x20, 0x2d, 0x18, 0x30, 0x0d, 0xfe, 0x1f, 0xeb, 0x3a, 0xd2, 0x13, 0x26, 0x25,
    0x0c, 0x02, 0x14, 0x4c, 0x2f, 0xf8, 0xea, 0x15, 0x2b, 0x24, 0x1e, 0x56, 0x00,
    0xe9, 0x0e, 0xe1, 0xdb, 0x0b, 0x0c, 0xe7, 0xfc, 0x13, 0x14, 0x01, 0x0e, 0x0e,
    0x1c, 0x1c, 0x12, 0x32, 0x28, 0x00, 0xf7, 0x0f, 0x1c, 0x28, 0x12, 0x2a, 0x03,
    0x19, 0x08, 0x18, 0x1d, 0x29, 0x28, 0x15, 0x0b, 0x15, 0x21, 0x1f, 0x2c, 0x07,
    0x12, 0x21, 0x1e, 0x16, 0x1f, 0x04, 0x22, 0x18, 0x26, 0x22, 0x3d, 0x14, 0x17,
    0x0e, 0xff, 0xff, 0x23, 0x0c, 0x36, 0x35, 0x32, 0x13, 0x31, 0x14, 0x14, 0x22,
    0x2c, 0x2b, 0x36, 0x20, 0x16, 0x17, 0x44, 0x08, 0x16, 0x35, 0x06, 0xff, 0xee,
    0x3f, 0xec, 0x1c, 0x29, 0x09, 0x1c, 0xfb, 0xfe, 0xfe, 0x17, 0x27, 0xee, 0x1c,
    0x20, 0x0f, 0x15, 0x2f, 0xfb, 0x00, 0xfd, 0xe7, 0xe3, 0x21, 0x11, 0xdf, 0x00,
    0x37, 0x0a, 0xe7, 0x1c, 0x24, 0x2e, 0x2e, 0x1b, 0x2d, 0xfd, 0x02, 0x0d, 0x22,
    0xf6, 0x04, 0x11, 0x09, 0x2f, 0xfe, 0xf2, 0x1a, 0x45, 0x3b, 0x1d, 0x1a, 0xfb,
    0x19, 0x24, 0xf8, 0xee, 0x30, 0x09, 0x22, 0x30, 0x1f, 0xf1, 0x04, 0x2e, 0xfd,
    0x22, 0x19, 0x11, 0x20, 0x25, 0x0b, 0x1b, 0x11, 0x22, 0x14, 0x11, 0x1e, 0xfa,
    0xfb, 0x1e, 0x3b, 0x1c, 0x0f, 0x11, 0x1e, 0x43, 0x2f, 0x0b, 0x21, 0x45, 0x09,
    0xf9, 0x3b, 0x1e, 0x11, 0xd1, 0x3e, 0x0c, 0x13, 0x16, 0x08, 0xea, 0xf9, 0x2c,
    0x36, 0xff, 0xfe, 0x06, 0x02, 0x06, 0x0d, 0x0b, 0x2b, 0xef, 0x01, 0x10, 0x05,
    0xff, 0x00, 0x21, 0xfd, 0x11, 0x11, 0x17, 0xd8, 0x21, 0x09, 0xff, 0x39, 0x17,
    0x23, 0x01, 0x3d, 0x02, 0x2a, 0x32, 0x0f, 0x2e, 0x2f, 0x00, 0x26, 0x2d, 0x35,
    0x39, 0x1c, 0x32, 0x29, 0x30, 0x00, 0x30, 0x02, 0x3c, 0x21, 0x1c, 0x0f, 0x07,
    0xe8, 0x05, 0x26, 0x0c, 0x09, 0x11, 0x01, 0xf9, 0x0d, 0x0c, 0x3a, 0x1b, 0x17,
    0x20, 0x0c, 0x38, 0x32, 0xfb, 0x1a, 0xff, 0x2a, 0x19, 0x21, 0x15, 0x30, 0x33,
    0x09, 0x34, 0x1e, 0x16, 0x12, 0x0b, 0x0f, 0x34, 0x27, 0xe3, 0x23, 0xda, 0x16,
    0x09, 0x16, 0xfc, 0xef, 0x1d, 0x1f, 0xfe, 0xfa, 0xe0, 0x1a, 0x0a, 0x28, 0x44,
    0x37, 0xeb, 0xd8, 0x06, 0xf4, 0xe4, 0xff, 0x0f, 0xe6, 0xe1, 0x18, 0x19, 0xea,
    0x04, 0x17, 0x35, 0x33, 0x14, 0x0c, 0x1f, 0x33, 0x23, 0x08, 0x1a, 0x0e, 0x37,
    0x36, 0x3d, 0x12, 0x23, 0x35, 0x38, 0x50, 0x26, 0x43, 0x34, 0x1d, 0x12, 0x06,
    0x37, 0x36, 0x36, 0x26, 0x31, 0xf9, 0x2b, 0x0f, 0x00, 0x20, 0x2b, 0x33, 0x1f,
    0x21, 0x09, 0x09, 0x01, 0x39, 0x16, 0x35, 0x37, 0x12, 0x1b, 0x2f, 0x07, 0x3b,
    0x1a, 0x13, 0x24, 0x3e, 0x1c, 0x1c, 0x2e, 0x3b, 0x10, 0x2e, 0x0e, 0x28, 0x14,
    0x0c, 0xe1, 0x16, 0xe8, 0x3d, 0xff, 0x0a, 0x08, 0xd5, 0x09, 0x10, 0x23, 0x20,
    0xef, 0x11, 0x1c, 0x26, 0x41, 0x44, 0xd8, 0xd3, 0x1b, 0xdb, 0xf2, 0x2c, 0x31,
    0xce, 0xe9, 0x32, 0xf9, 0xda, 0x30, 0x24, 0x2b, 0x42, 0x1e, 0x20, 0x01, 0x19,
    0x14, 0x13, 0x1e, 0x09, 0x33, 0x0b, 0x11, 0x1e, 0x04, 0x24, 0x48, 0x13, 0x12,
    0x28, 0x05, 0x29, 0x23, 0x1d, 0x07, 0x2a, 0x19, 0x33, 0x1f, 0x19, 0x1a, 0x02,
    0x3d, 0x34, 0xff, 0x13, 0x07, 0x1f, 0x2e, 0xfa, 0x05, 0x47, 0x1d, 0x14, 0x04,
    0x09, 0x0d, 0x08, 0x0a, 0x32, 0x0b, 0x37, 0x00, 0x39, 0x39, 0x1b, 0x09, 0x3a,
    0x33, 0x31, 0x30, 0x1b, 0x13, 0x1f, 0xf4, 0x3c, 0xf6, 0x31, 0x29, 0x2e, 0xef,
    0xe0, 0x27, 0x20, 0x02, 0x36, 0xe8, 0x2a, 0x06, 0x21, 0x21, 0x2f, 0xf8, 0xfe,
    0x33, 0x05, 0xf3, 0x3e, 0x26, 0xdf, 0xef, 0x0d, 0x18, 0xd7, 0x2f, 0x2a, 0xf3,
    0xcc, 0xfa, 0xf1, 0x2b, 0x09, 0xdc, 0xd9, 0x0f, 0xf9, 0x25, 0x3c, 0xcd, 0x19,
    0x3f, 0x2a, 0xe0, 0x10, 0xe4, 0x02, 0x2d, 0xf2, 0xe6, 0x12, 0x10, 0xfa, 0xe9,
    0xd9, 0x17, 0xbf, 0x11, 0xdf, 0xdf, 0xc1, 0xd9, 0x00, 0x06, 0xfd, 0xe9, 0x1a,
    0x04, 0xe2, 0xee, 0xfe, 0xf0, 0xf3, 0xff, 0x04, 0xfe, 0xc6, 0xe3, 0xe6, 0xe6,
    0xd6, 0xdc, 0x01, 0x08, 0xde, 0xdc, 0xf7, 0xfc, 0x1b, 0x00, 0xf7, 0x17, 0xd2,
    0x02, 0xf1, 0xd8, 0xfb, 0x06, 0x1f, 0xce, 0xea, 0xd0, 0xe4, 0x31, 0xee, 0xfd,
    0xeb, 0xc5, 0xb0, 0x15, 0x10, 0xdc, 0x1b, 0x29, 0xd1, 0xe2, 0x0b, 0x12, 0x02,
    0xd1, 0x39, 0xc6, 0x34, 0xe7, 0xe9, 0xe5, 0xdd, 0x08, 0x02, 0xda, 0xf8, 0x27,
    0xc0, 0x15, 0x31, 0xcf, 0x08, 0x13, 0x3d, 0xfe, 0xbb, 0x04, 0xfc, 0x32, 0xde,
    0xe4, 0x2b, 0x32, 0xf9, 0xf4, 0x01, 0x29, 0xef, 0x10, 0xe6, 0xdd, 0xca, 0xd5,
    0xf4, 0x09, 0xda, 0x0b, 0xe9, 0xf4, 0xd5, 0xf8, 0xcf, 0xfa, 0xee, 0xd7, 0xf3,
    0xfc, 0xe9, 0xdf, 0xe7, 0xff, 0xf8, 0xfe, 0xf5, 0xf0, 0x05, 0xcc, 0x0a, 0xf6,
    0xf8, 0xd4, 0xdb, 0xf6, 0xcf, 0x1b, 0xe6, 0xfc, 0xf1, 0x16, 0x20, 0xde, 0xe8,
    0x08, 0xec, 0x13, 0xd1, 0x06, 0xf1, 0xf1, 0xe0, 0x23, 0xfd, 0x04, 0x1b, 0x0e,
    0x05, 0xf0, 0x21, 0xfd, 0xfb, 0xf8, 0x16, 0xf4, 0x2c, 0x00, 0xed, 0x05, 0xea,
    0x18, 0x30, 0x01, 0xc8, 0x2c, 0xe1, 0x23, 0x30, 0xf7, 0x3c, 0x41, 0x29, 0xda,
    0xed, 0xdf, 0xf7, 0x33, 0xfa, 0xe1, 0x25, 0x3e, 0xdb, 0xe2, 0xf1, 0x25, 0xe1,
    0x11, 0xdc, 0xe0, 0xf9, 0xcd, 0xe6, 0x00, 0x05, 0xf4, 0x0c, 0xf7, 0xf4, 0xfc,
    0xf6, 0xe6, 0xf8, 0xdb, 0xd9, 0xd4, 0xf7, 0xe5, 0xff, 0x0b, 0xfd, 0xf1, 0xee,
    0xff, 0xe7, 0xda, 0xc7, 0xd4, 0x01, 0xd5, 0x07, 0x06, 0xc9, 0x0c, 0xe5, 0xf2,
    0xeb, 0x07, 0x24, 0xf1, 0xc7, 0xdc, 0xe0, 0x15, 0x00, 0xdf, 0xe2, 0xcb, 0xcc,
    0x1e, 0x19, 0xc9, 0x0a, 0x1a, 0xf8, 0xd7, 0xf4, 0xfe, 0xea, 0xe9, 0x1d, 0xe2,
    0x0b, 0xe1, 0xdc, 0x01, 0xc0, 0x3b, 0x28, 0xdb, 0xbf, 0x48, 0xf6, 0x3a, 0x14,
    0xe9, 0x15, 0x23, 0x00, 0xf3, 0xed, 0xf7, 0xe6, 0x3b, 0xf7, 0x00, 0x08, 0x0f,
    0xea, 0x03, 0xfc, 0x1e, 0xbd, 0x08, 0x08, 0xd9, 0xd5, 0xd5, 0xd6, 0xfe, 0xef,
    0xf5, 0xfb, 0xf2, 0xf6, 0xdd, 0xfa, 0x06, 0x05, 0xfd, 0xe2, 0xd0, 0xbd, 0xd7,
    0x00, 0xf2, 0xee, 0xf1, 0xe7, 0x01, 0x07, 0xc1, 0x07, 0xf0, 0x0b, 0xde, 0xd4,
    0x04, 0xc3, 0x1e, 0xe3, 0x03, 0xe8, 0x17, 0x28, 0x00, 0xe4, 0xd3, 0xf2, 0x0b,
    0xd5, 0xf1, 0xea, 0xe8, 0xd8, 0x01, 0xf6, 0xec, 0x17, 0x01, 0x06, 0xfe, 0x1b,
    0x09, 0xd6, 0x0e, 0x27, 0x0a, 0x0c, 0x07, 0xe8, 0xd7, 0xf7, 0x2a, 0xeb, 0xf7,
    0xe4, 0x05, 0xd9, 0x3b, 0x0c, 0xe3, 0x11, 0x43, 0x03, 0xd9, 0xd0, 0xfb, 0xf9,
    0x2f, 0xe6, 0xde, 0x1f, 0x17, 0xf2, 0xd9, 0xd8, 0x3f, 0xea, 0x21, 0xf5, 0xe9,
    0xdd, 0xf2, 0xf0, 0xeb, 0xf3, 0x03, 0x1a, 0xf3, 0xd4, 0xd2, 0xec, 0xe2, 0xd7,
    0xea, 0xec, 0xfc, 0xf0, 0x00, 0xe2, 0x07, 0xd3, 0xe6, 0xeb, 0xea, 0x09, 0xe9,
    0xff, 0xd7, 0xf9, 0xd7, 0xe5, 0xf2, 0xe1, 0x10, 0xca, 0xdd, 0xe9, 0x0f, 0x02,
    0xe9, 0xef, 0xd5, 0xe8, 0x04, 0xe6, 0x08, 0xe3, 0xcf, 0xd1, 0x13, 0x05, 0xf2,
    0xfb, 0xf5, 0x04, 0x05, 0x26, 0x06, 0xf2, 0xe3, 0x0e, 0xf3, 0x3e, 0xd7, 0xf9,
    0xce, 0xd4, 0x3c, 0xff, 0xdc, 0xef, 0x3e, 0xeb, 0x28, 0x32, 0xe6, 0x37, 0x32,
    0x12, 0xd4, 0x0f, 0xf9, 0xfa, 0x11, 0x02, 0xfc, 0x1a, 0x43, 0xc5, 0xe5, 0xec,
    0x26, 0xe4, 0x20, 0xe3, 0xed, 0xcb, 0xe6, 0xd5, 0xe6, 0xfb, 0x05, 0xf9, 0xd8,
    0xd7, 0xfb, 0xd4, 0xd5, 0xfd, 0xf9, 0xe1, 0xd2, 0xe2, 0xed, 0xd0, 0xea, 0xf5,
    0xe8, 0xfd, 0xf0, 0xdb, 0xd5, 0xf5, 0xec, 0x2b, 0xf2, 0x0c, 0x20, 0xe1, 0x1f,
    0xdf, 0xda, 0xeb, 0xfb, 0x30, 0xef, 0xd2, 0xe1, 0x0b, 0x14, 0xf6, 0xec, 0x07,
    0xeb, 0xba, 0x1d, 0x11, 0x06, 0x04, 0x02, 0xdc, 0xfc, 0x0e, 0x05, 0xd5, 0xfb,
    0x0e, 0x0f, 0x26, 0x03, 0xd3, 0xe5, 0xc5, 0x32, 0x05, 0xf3, 0xdc, 0x26, 0xdc,
    0x23, 0x3d, 0xfa, 0x0b, 0x29, 0x1f, 0xe6, 0xd1, 0xcc, 0xd9, 0x28, 0x05, 0xf9,
    0x2d, 0x39, 0xd0, 0x07, 0xd6, 0x09, 0xf6, 0x27, 0xde, 0x0c, 0xf2, 0xef, 0xf4,
    0x03, 0xd4, 0xd5, 0x00, 0x13, 0xe6, 0xef, 0xe4, 0x0a, 0xe7, 0xf1, 0xf9, 0xc8,
    0xd8, 0xf3, 0xda, 0xde, 0xf1, 0xdd, 0x08, 0xf3, 0xe9, 0xe6, 0xe6, 0xd5, 0xfd,
    0xf3, 0xe5, 0x18, 0xdd, 0x25, 0xf3, 0xe0, 0xf3, 0x17, 0x30, 0xde, 0xe1, 0xf4,
    0xe7, 0x0c, 0xd1, 0xe3, 0xe2, 0xc3, 0xdb, 0x00, 0xf3, 0xfd, 0x1e, 0x22, 0xe0,
    0xe6, 0x28, 0x03, 0xf2, 0x00, 0x3a, 0xee, 0x32, 0xf4, 0xdf, 0x08, 0xf5, 0x3a,
    0xef, 0x04, 0xcb, 0x1b, 0xd2, 0x2f, 0x1a, 0xe3, 0x1d, 0x12, 0x18, 0xd1, 0xe2,
    0xf1, 0xd6, 0x0e, 0xf7, 0xfd, 0x1c, 0x10, 0xd7, 0x07, 0xe6, 0x0f, 0xd7, 0x12,
    0x06, 0xf5, 0xda, 0xd4, 0xef, 0xff, 0xe9, 0xd4, 0x07, 0x03, 0xea, 0xe9, 0xd6,
    0xd8, 0xe3, 0xf5, 0x05, 0xf7, 0xd5, 0xf0, 0xd0, 0x0b, 0xf9, 0xd3, 0xe8, 0x09,
    0xe7, 0x03, 0x00, 0xfa, 0x25, 0xee, 0xc8, 0x0f, 0xfa, 0xf4, 0xdf, 0xfa, 0x04,
    0x0a, 0x13, 0xd9, 0xd5, 0xfa, 0xf3, 0x20, 0xe0, 0xdb, 0x03, 0xc0, 0xd0, 0xfe,
    0x1d, 0xcf, 0x18, 0x0d, 0xee, 0xf8, 0x0c, 0x14, 0xbe, 0xe3, 0x2d, 0xc0, 0x06,
    0xd5, 0x06, 0xd8, 0xd6, 0x39, 0x12, 0x04, 0xda, 0x18, 0xf2, 0x17, 0x06, 0x05,
    0x08, 0x2c, 0x2f, 0xc9, 0xf4, 0xf5, 0xde, 0x07, 0xec, 0xd6, 0x21, 0x21, 0xe2,
    0xd0, 0xd9, 0x2b, 0xca, 0x14, 0xe3, 0xd6, 0xe0, 0xcb, 0xdf, 0xd0, 0xe3, 0xdd,
    0x17, 0xdf, 0xc8, 0xf0, 0xec, 0xed, 0xe3, 0xef, 0xd2, 0xd7, 0xbe, 0xf6, 0xe1,
    0xe9, 0xf7, 0xd7, 0xdc, 0xef, 0xf5, 0xbf, 0xdc, 0x01, 0xe7, 0x04, 0xdc, 0x10,
    0xce, 0x03, 0xda, 0xf0, 0xf2, 0x18, 0x0f, 0xd1, 0xc8, 0xce, 0xf6, 0x26, 0xdd,
    0xe6, 0xcb, 0x00, 0xbd, 0x29, 0x04, 0xf5, 0x0d, 0xfb, 0xe7, 0xe7, 0x34, 0x2e,
    0xce, 0xc2, 0x24, 0xcd, 0x1b, 0xf5, 0xdb, 0xe0, 0xd4, 0x20, 0xf2, 0xff, 0x13,
    0x39, 0xf0, 0x34, 0x08, 0xd6, 0x07, 0x19, 0x10, 0xc3, 0xf2, 0xde, 0xcc, 0x1b,
    0xed, 0xf9, 0xff, 0x27, 0xf4, 0xef, 0xd8, 0x0e, 0x0e, 0x03, 0x27, 0xf4, 0xf9,
    0xe3, 0xcc, 0x05, 0x1a, 0x01, 0xf4, 0x20, 0xff, 0x29, 0x08, 0xd5, 0x23, 0x1d,
    0xf8, 0xf9, 0xe0, 0xd5, 0xfa, 0x05, 0xf9, 0xec, 0x2d, 0x24, 0xfb, 0x08, 0xdb,
    0x1a, 0x06, 0x21, 0xee, 0xf7, 0xd0, 0xe0, 0xe2, 0xfb, 0xd7, 0xdc, 0x05, 0xfc,
    0xcc, 0x05, 0x00, 0x06, 0x14, 0x0a, 0x0d, 0xfc, 0xdb, 0xcb, 0x06, 0x10, 0xf1,
    0x01, 0xf6, 0x07, 0xd9, 0xd1, 0xdd, 0x32, 0xd4, 0xf9, 0x2f, 0xcd, 0xe7, 0xf6,
    0xc8, 0x0b, 0xf1, 0xd0, 0x08, 0x29, 0xec, 0xfd, 0x21, 0xf4, 0x23, 0xfd, 0x0a,
    0xe2, 0xd8, 0xdc, 0xcf, 0x0e, 0xdc, 0x04, 0x0b, 0x11, 0xe6, 0xf5, 0xf9, 0x0b,
    0x1b, 0x24, 0xfc, 0x02, 0xe9, 0xe5, 0xe0, 0x31, 0xf9, 0xd7, 0x09, 0x22, 0xca,
    0xfe, 0x2d, 0xf8, 0x2c, 0x16, 0x09, 0xcd, 0xf8, 0xdf, 0xd2, 0x0d, 0xe5, 0xce,
    0x11, 0x08, 0xe8, 0xee, 0x0e, 0x31, 0x19, 0x31, 0xe8, 0xea, 0xe4, 0xbe, 0xe9,
    0xed, 0x05, 0xd0, 0xf5, 0x2b, 0xf7, 0x0d, 0x09, 0x03, 0xe4, 0xff, 0xef, 0xee,
    0xe1, 0xd5, 0xe5, 0x17, 0xfc, 0xff, 0xeb, 0xef, 0xe4, 0xc4, 0xec, 0x05, 0xee,
    0x10, 0x32, 0xf0, 0xd3, 0xe8, 0xf5, 0x23, 0xed, 0xd6, 0xf0, 0x11, 0xeb, 0x13,
    0x3e, 0xf1, 0x15, 0x29, 0x07, 0xe3, 0xf7, 0xf2, 0xe4, 0x08, 0xe8, 0xe5, 0x35,
    0x0b, 0xe0, 0xf1, 0xf0, 0x3c, 0x1c, 0x40, 0x30, 0x09, 0xf0, 0xee, 0xc2, 0x31,
    0xee, 0xf9, 0x06, 0x11, 0x02, 0x16, 0x11, 0xdb, 0x00, 0xfe, 0x1e, 0xe3, 0xe1,
    0xd4, 0xd8, 0x11, 0xeb, 0xf2, 0x0b, 0xf9, 0xda, 0xdd, 0xfe, 0x07, 0x19, 0x14,
    0x11, 0xeb, 0xda, 0xf3, 0xe5, 0xfd, 0xf7, 0xe4, 0xfa, 0x16, 0xd5, 0xee, 0x0a,
    0xef, 0x12, 0x2f, 0x05, 0xfd, 0xe9, 0xe4, 0xf1, 0x03, 0xfd, 0xd8, 0xea, 0x22,
    0xd2, 0xbb, 0xe8, 0xff, 0xee, 0x13, 0x27, 0xe6, 0x00, 0xec, 0xcd, 0x05, 0x09,
    0xd1, 0x0f, 0x29, 0xef, 0x17, 0x37, 0x0a, 0x17, 0x0e, 0xf6, 0xe8, 0xd6, 0xe2,
    0xe8, 0x23, 0xff, 0xef, 0x2c, 0x26, 0xe8, 0xd4, 0xe6, 0x1a, 0x00, 0x35, 0x09,
    0xe2, 0xe3, 0xdf, 0x02, 0x09, 0x17, 0xe2, 0xf6, 0x38, 0xe2, 0xfb, 0x02, 0xf9,
    0xfb, 0x14, 0x10, 0xdf, 0xec, 0xd6, 0xea, 0x20, 0xd3, 0x0d, 0x17, 0x0e, 0xd3,
    0xfd, 0xf9, 0x2e, 0xfa, 0x02, 0x0b, 0xf6, 0xfb, 0xf3, 0xf0, 0x05, 0xf3, 0xce,
    0xec, 0x12, 0xd1, 0x18, 0xf6, 0xd9, 0xf6, 0x1f, 0x1b, 0xe4, 0xcc, 0x03, 0xde,
    0x28, 0xf1, 0xea, 0x0c, 0xec, 0xf1, 0xf8, 0x01, 0xfb, 0xff, 0x23, 0x24, 0xef,
    0xc4, 0xfa, 0xca, 0x23, 0x0d, 0xd4, 0x1f, 0x13, 0xde, 0x20, 0x1c, 0xe7, 0x17,
    0xfa, 0x15, 0xfe, 0xd3, 0x0f, 0x01, 0x1e, 0xf6, 0xee, 0xf7, 0xfa, 0x12, 0xf1,
    0xed, 0x32, 0x12, 0xf9, 0x0d, 0x02, 0xed, 0xdd, 0xe3, 0x10, 0x20, 0xd9, 0x23,
    0x00, 0xd6, 0x16, 0xf9, 0xe6, 0x1e, 0x1a, 0x01, 0xe2, 0xf0, 0x08, 0xf6, 0x26,
    0x05, 0xe8, 0x0c, 0x08, 0xf7, 0xfb, 0xd8, 0x10, 0x25, 0xfe, 0x1e, 0xef, 0xe7,
    0xdb, 0xd1, 0x30, 0xda, 0xfc, 0x05, 0x10, 0xcc, 0xf2, 0x2b, 0xea, 0xf9, 0x42,
    0x03, 0xde, 0xd6, 0xe9, 0xe1, 0x20, 0xe4, 0xd9, 0x04, 0xf0, 0xd4, 0xe4, 0xf6,
    0x00, 0xef, 0x01, 0x1b, 0xef, 0xec, 0xde, 0xf0, 0x03, 0x18, 0xee, 0x06, 0x0b,
    0x05, 0x04, 0x09, 0xe8, 0x22, 0x1e, 0x0c, 0xf2, 0xd9, 0xe8, 0x07, 0x16, 0xdb,
    0xee, 0x1b, 0x2b, 0xf4, 0xfc, 0x03, 0x05, 0x2e, 0x14, 0xfe, 0x0f, 0xfd, 0xd5,
    0xd6, 0x14, 0xf5, 0xe8, 0xf0, 0x30, 0xd2, 0x29, 0x2e, 0xf1, 0x16, 0x1e, 0x30,
    0xe8, 0xe5, 0x01, 0xf4, 0x30, 0x0c, 0xe2, 0x23, 0xfe, 0xe5, 0xe3, 0xe1, 0x06,
    0x07, 0x20, 0x27, 0xdf, 0xe4, 0xec, 0xe0, 0x07, 0xec, 0xdd, 0xe0, 0x00, 0xd9,
    0xeb, 0xfc, 0xd6, 0xf0, 0x2e, 0x0a, 0xfc, 0xc6, 0xe1, 0xf4, 0xfb, 0x04, 0xf6,
    0xf8, 0xe8, 0xca, 0xc5, 0xef, 0x1c, 0xde, 0xff, 0x35, 0xf8, 0xd2, 0x0b, 0xca,
    0x1d, 0x04, 0xe2, 0x24, 0x34, 0xf9, 0xfe, 0x0d, 0xf9, 0x25, 0x14, 0x2a, 0xcf,
    0xec, 0xe4, 0xda, 0x25, 0xe6, 0xd9, 0x2b, 0x05, 0xfb, 0x08, 0x09, 0x1a, 0x1c,
    0x10, 0x14, 0xd8, 0xe0, 0xee, 0xc9, 0x21, 0xfe, 0x01, 0xf8, 0x3d, 0xf6, 0xfe,
    0x11, 0xde, 0x23, 0x12, 0x25, 0xf5, 0x01, 0xed, 0xe0, 0x28, 0x05, 0x0e, 0x22,
    0x10, 0xd4, 0x05, 0xf2, 0xff, 0x0c, 0x07, 0xfe, 0xf5, 0xfb, 0xde, 0xfb, 0xfb,
    0xef, 0xf3, 0xfe, 0x25, 0xe9, 0xe6, 0x08, 0xf9, 0xf4, 0x11, 0xfd, 0x00, 0xe3,
    0xd8, 0xfe, 0xfc, 0xdb, 0x05, 0xfc, 0x03, 0xf5, 0xd1, 0xdb, 0x14, 0x04, 0xf2,
    0x19, 0xe6, 0xe2, 0x01, 0xf6, 0xff, 0x00, 0xd6, 0x12, 0x1f, 0xfb, 0x29, 0xfb,
    0x02, 0x06, 0x10, 0x1a, 0xda, 0xc7, 0x03, 0xf3, 0x26, 0xde, 0xe1, 0x18, 0x16,
    0xfd, 0xec, 0xd9, 0x11, 0xf9, 0x20, 0x23, 0xfb, 0xf3, 0xee, 0xe9, 0x10, 0x0b,
    0xcd, 0x0c, 0x21, 0xdf, 0x29, 0x25, 0xe8, 0x08, 0x33, 0x23, 0x09, 0xf8, 0xc6,
    0xd3, 0x0f, 0xe1, 0xeb, 0x2a, 0x06, 0xf9, 0xf7, 0xe6, 0x25, 0x10, 0x0f, 0x0e,
    0xfb, 0xee, 0xea, 0xf9, 0xff, 0xfa, 0xf2, 0xef, 0x0d, 0xf8, 0xf1, 0xe8, 0x05,
    0xf7, 0x13, 0xd9, 0xca, 0xd8, 0xd0, 0xec, 0x12, 0xe2, 0xef, 0xe3, 0x02, 0xf5,
    0xd5, 0xe8, 0xf5, 0xfb, 0xe3, 0x0f, 0xe3, 0xe1, 0xdd, 0xfc, 0x2f, 0xef, 0x01,
    0x19, 0x02, 0xd6, 0xf6, 0x2f, 0x05, 0x08, 0x32, 0x03, 0xfb, 0xee, 0xd4, 0xfd,
    0x1e, 0xd5, 0xe7, 0x16, 0x08, 0xda, 0xde, 0xfe, 0x37, 0xe9, 0x04, 0x1d, 0xd9,
    0xe6, 0xcd, 0xbf, 0x35, 0xfd, 0xef, 0xdb, 0x37, 0xd1, 0x0f, 0x1f, 0x03, 0x1c,
    0x22, 0x03, 0xf8, 0x07, 0xd4, 0x02, 0x2e, 0xf7, 0xe6, 0x15, 0x0d, 0xf8, 0xf2,
    0xda, 0x34, 0xdb, 0x16, 0x0e, 0xcd, 0xeb, 0x01, 0xff, 0xdc, 0xdf, 0xe1, 0xef,
    0x1b, 0xba, 0xda, 0xe1, 0xfa, 0xff, 0xfe, 0xed, 0xd3, 0xc1, 0xda, 0xd8, 0xfa,
    0xfb, 0xf7, 0xe4, 0xf0, 0xe4, 0xd4, 0x01, 0xe8, 0xfc, 0xd9, 0xee, 0xe9, 0xd5,
    0xf0, 0x06, 0xde, 0xe0, 0x09, 0x0d, 0xe5, 0xd8, 0xdf, 0xeb, 0xff, 0x0f, 0x10,
    0xe9, 0xfb, 0x00, 0xca, 0xdc, 0xdb, 0xd7, 0xe9, 0xfc, 0x0a, 0xf3, 0x06, 0x05,
    0xff, 0xe4, 0x07, 0xfa, 0xfa, 0xe4, 0xdc, 0x0e, 0x21, 0xfd, 0x05, 0x02, 0x0e,
    0x07, 0x13, 0x07, 0xef, 0x18, 0xfe, 0x19, 0xdc, 0xd1, 0xf8, 0x10, 0x2c, 0x0a,
    0xeb, 0xf4, 0xeb, 0x0b, 0xec, 0x13, 0x22, 0x03, 0xff, 0xe2, 0xcb, 0x08, 0xeb,
    0xdc, 0x0c, 0xfe, 0xfd, 0xee, 0x0d, 0xde, 0xdc, 0x1a, 0xe8, 0xfa, 0x0d, 0x0a,
    0xea, 0xd5, 0x00, 0x05, 0x12, 0x00, 0xec, 0x07, 0xf4, 0xd3, 0xe1, 0x04, 0x0a,
    0xf3, 0xe6, 0xfe, 0xe2, 0x09, 0xe1, 0xe5, 0xf7, 0xea, 0x03, 0xf9, 0x00, 0xe7,
    0xe6, 0xec, 0xd9, 0x0e, 0xfd, 0xef, 0xe8, 0xeb, 0xf7, 0xf2, 0xf6, 0xdd, 0xf8,
    0xdf, 0xe8, 0xcc, 0xe4, 0xf7, 0xf3, 0x0c, 0xe8, 0x03, 0xe6, 0xe8, 0xe7, 0xfd,
    0x04, 0xff, 0x01, 0x11, 0x22, 0xdd, 0x11, 0x0f, 0xee, 0x0d, 0x1a, 0xfc, 0xef,
    0x02, 0xf1, 0x13, 0x27, 0x0f, 0xf7, 0x1c, 0x13, 0x17, 0xf6, 0x06, 0x2b, 0x11,
    0x09, 0xe3, 0xe9, 0xcc, 0xde, 0xee, 0xfd, 0xe1, 0xf3, 0x0c, 0x20, 0xf4, 0xe1,
    0xf8, 0x05, 0xf4, 0x0c, 0xf2, 0xec, 0xd1, 0xe7, 0xea, 0x0b, 0xe3, 0xeb, 0xfa,
    0x0a, 0xd0, 0xd6, 0xf5, 0x15, 0xeb, 0xff, 0xe3, 0xd8, 0xf5, 0xdc, 0xf9, 0xe9,
    0xdf, 0xf6, 0x02, 0x10, 0xed, 0xeb, 0xe3, 0xfc, 0xe2, 0xfd, 0xf0, 0xdf, 0xdc,
    0x05, 0xdc, 0xf5, 0xe0, 0xe8, 0xda, 0xe3, 0xe8, 0xf2, 0x0a, 0xea, 0xf9, 0xfc,
    0x19, 0xf1, 0xda, 0xe4, 0xcd, 0x08, 0x19, 0xf6, 0xec, 0x0e, 0xfd, 0xf9, 0x1a,
    0xfa, 0x05, 0xf5, 0x24, 0xfb, 0xe6, 0xde, 0xe2, 0x1c, 0x17, 0xed, 0xf7, 0xfa,
    0xfc, 0xe9, 0xf4, 0x22, 0x06, 0x1f, 0x12, 0xf6, 0xda, 0xe4, 0xe3, 0x12, 0xfe,
    0xf0, 0xda, 0x06, 0x01, 0xe4, 0xef, 0x07, 0x0a, 0x0b, 0xf5, 0xe2, 0xdf, 0x06,
    0xdb, 0xe2, 0x0d, 0xfc, 0xf0, 0x01, 0xe4, 0xd4, 0xf4, 0xf2, 0xe8, 0xe2, 0xeb,
    0xdd, 0xd9, 0x0a, 0xdc, 0xfd, 0xef, 0xe9, 0xdc, 0xed, 0x16, 0x00, 0xe4, 0xeb,
    0xdc, 0x05, 0xf7, 0xf1, 0xf7, 0xe4, 0x05, 0xff, 0xdd, 0xf5, 0xfa, 0xdc, 0x01,
    0xe5, 0xf6, 0xf1, 0xe4, 0x0e, 0x04, 0x0b, 0xe8, 0x0d, 0x00, 0x04, 0xfd, 0xd9,
    0x06, 0xf0, 0x01, 0x1c, 0x17, 0xe5, 0xfd, 0xfb, 0x0c, 0x0e, 0xd9, 0xe7, 0x0c,
    0x01, 0x00, 0x05, 0x02, 0x1d, 0xe3, 0xf6, 0xf6, 0x0c, 0xe7, 0x21, 0x11, 0xff,
    0x00, 0xd9, 0x0a, 0xfb, 0xf0, 0x01, 0x0c, 0x13, 0xe6, 0x01, 0xe7, 0x0b, 0xf9,
    0x1b, 0xf4, 0xe3, 0xe2, 0xd1, 0xfb, 0x07, 0xe8, 0xce, 0xeb, 0x0b, 0xd7, 0x07,
    0xe7, 0xf7, 0x03, 0x0a, 0xe6, 0x07, 0xef, 0xf5, 0xeb, 0xe0, 0x0e, 0xd7, 0xf2,
    0x02, 0xee, 0xe6, 0xee, 0xff, 0xf1, 0xe0, 0x11, 0x0a, 0xee, 0xfb, 0x00, 0x10,
    0xe6, 0xf1, 0xda, 0xee, 0xe9, 0xe2, 0xea, 0xe1, 0x0c, 0x0c, 0x11, 0xf0, 0xdf,
    0xfa, 0xef, 0x2c, 0xfd, 0xe1, 0xeb, 0x10, 0xee, 0x15, 0x17, 0xe9, 0xee, 0x15,
    0xec, 0xd8, 0x0f, 0xfb, 0xe3, 0x1b, 0xf7, 0xea, 0x14, 0x21, 0xe5, 0xeb, 0xec,
    0xf3, 0x0b, 0x27, 0x10, 0x04, 0x08, 0xd1, 0x01, 0x02, 0xfc, 0xd9, 0xdc, 0x0e,
    0xf0, 0xf0, 0x10, 0x0e, 0x14, 0xe9, 0xeb, 0xe5, 0xf2, 0xec, 0xe6, 0x1a, 0xd7,
    0xcf, 0xf1, 0x00, 0xe7, 0xd1, 0x04, 0xff, 0x07, 0x1a, 0xd7, 0xe0, 0xd7, 0xea,
    0xeb, 0xe2, 0xf2, 0x08, 0xfd, 0xf5, 0xf8, 0x15, 0xe1, 0x0d, 0xdc, 0xe8, 0x05,
    0xe8, 0xfd, 0xe7, 0xdd, 0xe5, 0xdf, 0xf8, 0xde, 0x05, 0x05, 0xe8, 0x0a, 0xe5,
    0xf3, 0xe1, 0x07, 0xf4, 0x00, 0xfd, 0xe3, 0x25, 0x07, 0xde, 0x0d, 0x0e, 0xd3,
    0x02, 0x02, 0x04, 0x19, 0x09, 0x1f, 0x13, 0xfe, 0xf8, 0x11, 0x1a, 0xe3, 0xed,
    0xf8, 0x25, 0x0a, 0xeb, 0x13, 0x25, 0xf7, 0x19, 0xf2, 0xf1, 0x04, 0xf3, 0xe9,
    0x01, 0xed, 0xda, 0xff, 0x04, 0xdb, 0xfb, 0xe8, 0xfa, 0xdc, 0x00, 0xe6, 0x04,
    0xfe, 0xea, 0x07, 0xfe, 0xe6, 0xcc, 0xfd, 0x11, 0xcd, 0xed, 0x0b, 0x12, 0x00,
    0xe8, 0x10, 0xe0, 0xea, 0xde, 0xeb, 0xda, 0xdc, 0x09, 0xe3, 0x0c, 0xf6, 0x03,
    0x12, 0x00, 0x15, 0x03, 0x02, 0xe7, 0xce, 0x06, 0xef, 0xf2, 0xd3, 0xf9, 0xe3,
    0xef, 0xd2, 0xf7, 0x06, 0x0d, 0xff, 0xf8, 0x18, 0xf1, 0xe0, 0xf9, 0xe0, 0xf9,
    0x29, 0x04, 0xed, 0x1b, 0xee, 0x16, 0x2f, 0x05, 0x19, 0xfb, 0x19, 0xfb, 0xeb,
    0x0a, 0xde, 0x11, 0x05, 0x0d, 0xf8, 0x0e, 0x00, 0x17, 0xe1, 0x28, 0x04, 0x16,
    0xe4, 0xee, 0xef, 0xda, 0xe4, 0x15, 0xf2, 0xf6, 0xe4, 0xfd, 0x03, 0x17, 0xfe,
    0xeb, 0xdb, 0xea, 0x14, 0x12, 0xec, 0xed, 0xe6, 0xf1, 0xd7, 0xe9, 0x03, 0xf4,
    0xcb, 0xc9, 0xe0, 0xed, 0xdb, 0x10, 0xf8, 0x07, 0x04, 0x03, 0xdc, 0xd9, 0x02,
    0xd6, 0xdf, 0x17, 0x11, 0xf4, 0x12, 0xd8, 0xe2, 0xe4, 0xd5, 0x08, 0x03, 0xfd,
    0xe2, 0x10, 0xd6, 0xd1, 0x0b, 0xee, 0x04, 0x09, 0xeb, 0x09, 0xe4, 0xfe, 0x13,
    0x17, 0xdc, 0xdc, 0xfb, 0x02, 0x16, 0x03, 0xeb, 0x17, 0x0a, 0x22, 0xfe, 0x0a,
    0x00, 0x0e, 0x1c, 0xe8, 0x03, 0xe9, 0x0d, 0x27, 0xd9, 0x0c, 0x05, 0x21, 0xe6,
    0xf3, 0xff, 0x20, 0xe6, 0x20, 0xfe, 0xcf, 0xeb, 0xea, 0xdc, 0xe1, 0xfa, 0x00,
    0x08, 0x11, 0xee, 0x0d, 0xf9, 0xd5, 0xda, 0xee, 0x14, 0xe4, 0xfd, 0xe3, 0xcd,
    0x11, 0xeb, 0xcd, 0x12, 0x02, 0xd9, 0x06, 0x14, 0xf6, 0xd3, 0xe2, 0xfb, 0xde,
    0x04, 0xe6, 0xf7, 0xd7, 0xd4, 0xd2, 0xf6, 0x02, 0xd3, 0x09, 0xf2, 0xe3, 0xef,
    0xff, 0x03, 0x12, 0xe1, 0xf3, 0xfe, 0x04, 0x0d, 0xe0, 0x0d, 0xe7, 0xdb, 0xe7,
    0xe5, 0xe7, 0xeb, 0xf6, 0x2b, 0xfd, 0x0e, 0x0d, 0xf8, 0x0c, 0x14, 0xe4, 0x11,
    0x18, 0x07, 0x14, 0x1d, 0xf5, 0x0d, 0x18, 0x01, 0xe2, 0x16, 0xee, 0x15, 0x2b,
    0x11, 0xde, 0x31, 0x2a, 0xf3, 0xe7, 0xfa, 0x2e, 0xde, 0x32, 0x00, 0x09, 0xde,
    0xe8, 0xf0, 0xe0, 0xef, 0x09, 0x05, 0xeb, 0xf3, 0x11, 0xf4, 0x0c, 0xf1, 0x06,
    0x06, 0x09, 0xf5, 0xd0, 0xd1, 0xf4, 0xcc, 0xfc, 0xfa, 0xf8, 0xff, 0xc8, 0x00,
    0xf6, 0xfc, 0xf5, 0xe7, 0x32, 0x37, 0x31, 0x35, 0x11, 0x31, 0x26, 0x55, 0xf8,
    0x47, 0xf0, 0xef, 0x4b, 0x0c, 0xe9, 0x1d, 0x53, 0x39, 0x1c, 0x1f, 0x06, 0x3c,
    0x3b, 0xf0, 0xef, 0x33, 0x14, 0x2e, 0x0d, 0x3f, 0xfc, 0x20, 0x23, 0x41, 0x3b,
    0x3d, 0x15, 0x28, 0x0f, 0x33, 0x27, 0x2f, 0x42, 0x08, 0x1c, 0x2d, 0x07, 0x39,
    0x4a, 0x65, 0x07, 0x0f, 0x29, 0x1b, 0x0c, 0x37, 0x18, 0x09, 0x29, 0x1f, 0x36,
    0x26, 0x1f, 0x0d, 0x0c, 0x4b, 0xe9, 0x37, 0x4e, 0x42, 0x0e, 0xfb, 0x27, 0x42,
    0x40, 0x36, 0xfc, 0x14, 0x23, 0x2e, 0x42, 0x7f, 0xeb, 0xef, 0x18, 0x17, 0xe5,
    0x3b, 0x3f, 0x0b, 0x10, 0x34, 0x18, 0x01, 0x38, 0x0e, 0x28, 0x34, 0x11, 0x25,
    0xe1, 0xf9, 0x0f, 0x28, 0x16, 0x2e, 0xef, 0xee, 0x22, 0xf3, 0x04, 0xed, 0x19,
    0x3e, 0x39, 0x42, 0x04, 0x44, 0x3b, 0xfa, 0xe5, 0x3c, 0x13, 0x2b, 0xe6, 0x39,
    0xfc, 0x2c, 0x26, 0x38, 0x25, 0x24, 0x21, 0x12, 0x09, 0x39, 0x26, 0x2b, 0x3b,
    0xfe, 0x23, 0x32, 0x08, 0x17, 0x4a, 0x2f, 0x1f, 0x42, 0x17, 0x1e, 0x2d, 0x2e,
    0x07, 0x22, 0x2c, 0x41, 0xfb, 0x14, 0xff, 0x18, 0x24, 0x21, 0x16, 0x2f, 0x1e,
    0x3c, 0x35, 0x21, 0x29, 0x44, 0x46, 0x43, 0x2d, 0x11, 0x4b, 0x10, 0x57, 0x4c,
    0x0f, 0xfc, 0x18, 0x11, 0x23, 0x26, 0x16, 0xfb, 0x26, 0x26, 0x3f, 0x25, 0x1f,
    0xe1, 0x20, 0x47, 0x25, 0x2b, 0xd2, 0x12, 0x3e, 0x3e, 0xed, 0x41, 0xe9, 0xec,
    0x29, 0xdf, 0xd0, 0x06, 0x48, 0x20, 0x2b, 0x36, 0xd7, 0x2c, 0x1a, 0xeb, 0xdd,
    0x1f, 0x0d, 0x42, 0xed, 0x27, 0xc9, 0xfa, 0x09, 0x4f, 0x2b, 0x1a, 0x1b, 0x19,
    0x25, 0x22, 0x0e, 0x33, 0x1c, 0x29, 0x21, 0x3c, 0x1d, 0x3a, 0x22, 0x43, 0x11,
    0x2d, 0x23, 0x1a, 0x3b, 0x2e, 0x2b, 0x24, 0x33, 0x25, 0x1c, 0xf9, 0x0d, 0x1c,
    0x2f, 0x38, 0x07, 0x30, 0x0a, 0x0d, 0x24, 0x17, 0x45, 0x1d, 0x36, 0x2c, 0x00,
    0x0f, 0x23, 0x0c, 0x38, 0x6a, 0x0a, 0x1b, 0x0f, 0x22, 0x09, 0x29, 0x31, 0xfb,
    0x37, 0x2e, 0x2b, 0x1b, 0x2f, 0xe2, 0x1d, 0x47, 0x19, 0x56, 0xe1, 0xef, 0x2e,
    0x40, 0xce, 0x4e, 0xf2, 0xd4, 0x2a, 0xdc, 0xcc, 0x03, 0x5b, 0x44, 0x4c, 0x26,
    0xe9, 0x33, 0x30, 0xfa, 0xdf, 0x26, 0x20, 0x2b, 0xe8, 0x36, 0xd0, 0x26, 0x29,
    0x2a, 0x0b, 0x1c, 0x26, 0x3d, 0x20, 0x2e, 0x21, 0x35, 0x2a, 0x03, 0x1b, 0x16,
    0x15, 0x3d, 0x0f, 0x30, 0x0c, 0x31, 0x11, 0x30, 0x35, 0x06, 0x2f, 0x2b, 0x17,
    0x18, 0x06, 0x22, 0x13, 0x34, 0x02, 0x4f, 0x28, 0x33, 0x23, 0x3a, 0x03, 0x13,
    0x43, 0x35, 0x2f, 0x08, 0x23, 0x12, 0x3b, 0x17, 0x52, 0x6c, 0xf2, 0xfb, 0x3d,
    0x16, 0x1d, 0x12, 0x2a, 0xf0, 0x45, 0x25, 0x3b, 0xfa, 0x0c, 0xdf, 0x2a, 0x58,
    0x3d, 0x2e, 0x02, 0xfb, 0x1b, 0x12, 0xf7, 0x48, 0xe1, 0x01, 0x0f, 0xff, 0x0f,
    0xea, 0x52, 0x5a, 0x28, 0x11, 0x10, 0x13, 0x35, 0xe8, 0x0c, 0x37, 0x13, 0x3b,
    0xe3, 0x39, 0xf7, 0x35, 0x38, 0x47, 0x43, 0x2c, 0x06, 0x1f, 0x3e, 0xf6, 0x2f,
    0x13, 0x23, 0x19, 0x04, 0x1d, 0x09, 0x1f, 0x41, 0x24, 0x14, 0xfe, 0x22, 0x16,
    0x1e, 0x0e, 0x16, 0x14, 0x1d, 0x31, 0x12, 0x29, 0x12, 0x30, 0x00, 0x3e, 0x32,
    0x28, 0x35, 0x09, 0x18, 0x2b, 0x39, 0x44, 0x34, 0x12, 0x22, 0x2e, 0x3b, 0x23,
    0x25, 0x5a, 0x00, 0x08, 0x07, 0x28, 0xf3, 0x1d, 0x25, 0x03, 0x42, 0x38, 0x04,
    0xfe, 0x15, 0xeb, 0x41, 0x1c, 0x25, 0x35, 0xf2, 0xeb, 0x2c, 0x4a, 0xe9, 0x30,
    0xe9, 0xeb, 0x26, 0x10, 0xeb, 0x15, 0x3c, 0x29, 0x19, 0x42, 0xfe, 0x2e, 0x48,
    0xff, 0xff, 0x43, 0x31, 0x1e, 0x0e, 0x29, 0xdf, 0xf4, 0x34, 0x0a, 0x3d, 0x41,
    0xfa, 0x04, 0x20, 0x1e, 0x3a, 0x37, 0x1f, 0x24, 0x36, 0x0a, 0x2c, 0x0a, 0x0e,
    0x32, 0x1f, 0x10, 0x1c, 0x2a, 0x1b, 0x00, 0x1e, 0x08, 0x18, 0x31, 0x1c, 0x1c,
    0x07, 0x13, 0x1b, 0x42, 0x2b, 0x34, 0x22, 0x37, 0x07, 0x22, 0x24, 0x16, 0x03,
    0x36, 0x15, 0x3c, 0x20, 0x39, 0x50, 0x4b, 0xf6, 0x19, 0x27, 0x00, 0x14, 0x33,
    0x12, 0x10, 0x30, 0x17, 0x06, 0xf4, 0x14, 0x0f, 0x40, 0x2f, 0x27, 0x2f, 0xe6,
    0x0e, 0x24, 0x2b, 0xf3, 0x40, 0x00, 0x02, 0x1f, 0xf9, 0xf5, 0x00, 0x59, 0x3c,
    0x37, 0x3a, 0x0a, 0x20, 0x3d, 0xdc, 0xe2, 0x1e, 0x26, 0x27, 0xea, 0x19, 0xf3,
    0x01, 0x3b, 0x1f, 0x32, 0x3b, 0x06, 0x25, 0x30, 0x1b, 0x1e, 0x35, 0x32, 0x16,
    0x14, 0x29, 0xfe, 0x09, 0x18, 0x1b, 0x3e, 0x1a, 0x13, 0x30, 0x09, 0x2c, 0x03,
    0x0a, 0x37, 0x18, 0x23, 0x06, 0xf1, 0x30, 0x29, 0x47, 0xf6, 0x4b, 0x14, 0x07,
    0x38, 0xef, 0x12, 0x3d, 0x07, 0x39, 0x27, 0x05, 0x08, 0x25, 0x4c, 0x2f, 0xee,
    0xf6, 0x3c, 0xff, 0xfd, 0x37, 0x35, 0x14, 0x33, 0x54, 0x14, 0xf6, 0x23, 0xe5,
    0x36, 0x23, 0x10, 0x25, 0xdd, 0x05, 0x24, 0x1f, 0x02, 0x44, 0xf6, 0xf9, 0x44,
    0xe4, 0xd8, 0xea, 0x2c, 0x5b, 0x2e, 0x2a, 0xe6, 0x13, 0x3e, 0xf7, 0x12, 0x17,
    0x1c, 0x36, 0x13, 0x51, 0xe6, 0x12, 0x41, 0x19, 0x47, 0x2d, 0x18, 0x38, 0x32,
    0x0b, 0x0a, 0x3b, 0x24, 0x26, 0x0c, 0x2a, 0xfc, 0x02, 0x26, 0x48, 0x17, 0x14,
    0x1e, 0x44, 0x40, 0x22, 0x30, 0x3b, 0x31, 0x39, 0x30, 0x13, 0xf2, 0x19, 0xfd,
    0x42, 0xee, 0x27, 0x39, 0x36, 0x1d, 0x11, 0x29, 0x16, 0x1b, 0x41, 0x24, 0x2e,
    0x19, 0x44, 0x3b, 0x52, 0xef, 0x1a, 0x2c, 0x00, 0xe7, 0x25, 0x41, 0x02, 0x1e,
    0x39, 0x49, 0x0b, 0x1f, 0xea, 0x31, 0x17, 0x27, 0x29, 0x06, 0xfd, 0x46, 0x2b,
    0xf8, 0x21, 0x14, 0xee, 0x20, 0xf3, 0xfb, 0xe7, 0x3c, 0x2b, 0x44, 0x4e, 0x10,
    0x14, 0x1b, 0x01, 0x1c, 0x32, 0x23, 0x29, 0xda, 0x2c, 0xf5, 0x1b, 0x49, 0x4e,
    0x0d, 0x41, 0xfa, 0x1d, 0x1c, 0x00, 0x1a, 0x58, 0x24, 0x1d, 0x41, 0x0a, 0x01,
    0x13, 0x47, 0x66, 0x1c, 0x30, 0xee, 0x4b, 0x29, 0xf1, 0x49, 0x2c, 0x5f, 0x39,
    0xf4, 0x15, 0xfb, 0x48, 0x26, 0x37, 0x25, 0x22, 0x1d, 0x49, 0x1b, 0xf7, 0x2f,
    0x53, 0x2d, 0x5d, 0x12, 0x4c, 0x50, 0x27, 0x32, 0x78, 0x14, 0x10, 0x2c, 0xf0,
    0xed, 0x5c, 0x27, 0x0b, 0x2a, 0x39, 0x52, 0xf5, 0x30, 0x2a, 0xff, 0xff, 0xff,
    0x04, 0x00, 0x00, 0x00, 0x28, 0x00, 0x00, 0x00, 0xe4, 0x0a, 0x00, 0x00, 0xd4,
    0x08, 0x00, 0x00, 0x2d, 0x04, 0x00, 0x00, 0x54, 0x0a, 0x00, 0x00, 0xbb, 0x06,
    0x00, 0x00, 0x55, 0xfd, 0xff, 0xff, 0xbb, 0x09, 0x00, 0x00, 0x45, 0x0c, 0x00,
    0x00, 0x1b, 0x07, 0x00, 0x00, 0x85, 0x01, 0x00, 0x00, 0x5e, 0xff, 0xff, 0xff,
    0x04, 0x00, 0x00, 0x00, 0x08, 0x00, 0x00, 0x00, 0xff, 0xff, 0xff, 0xff, 0x60,
    0x03, 0x00, 0x00, 0x38, 0xf4, 0xff, 0xff, 0x3c, 0xf4, 0xff, 0xff, 0x0f, 0x00,
    0x00, 0x00, 0x4d, 0x4c, 0x49, 0x52, 0x20, 0x43, 0x6f, 0x6e, 0x76, 0x65, 0x72,
    0x74, 0x65, 0x64, 0x2e, 0x00, 0x01, 0x00, 0x00, 0x00, 0x14, 0x00, 0x00, 0x00,
    0x00, 0x00, 0x0e, 0x00, 0x18, 0x00, 0x14, 0x00, 0x10, 0x00, 0x0c, 0x00, 0x08,
    0x00, 0x04, 0x00, 0x0e, 0x00, 0x00, 0x00, 0x14, 0x00, 0x00, 0x00, 0x1c, 0x00,
    0x00, 0x00, 0xdc, 0x01, 0x00, 0x00, 0xe0, 0x01, 0x00, 0x00, 0xe4, 0x01, 0x00,
    0x00, 0x04, 0x00, 0x00, 0x00, 0x6d, 0x61, 0x69, 0x6e, 0x00, 0x00, 0x00, 0x00,
    0x06, 0x00, 0x00, 0x00, 0x74, 0x01, 0x00, 0x00, 0x10, 0x01, 0x00, 0x00, 0xd8,
    0x00, 0x00, 0x00, 0x88, 0x00, 0x00, 0x00, 0x50, 0x00, 0x00, 0x00, 0x04, 0x00,
    0x00, 0x00, 0x12, 0xff, 0xff, 0xff, 0x1c, 0x00, 0x00, 0x00, 0x00, 0x00, 0x00,
    0x09, 0x1c, 0x00, 0x00, 0x00, 0x20, 0x00, 0x00, 0x00, 0x04, 0x00, 0x00, 0x00,
    0x00, 0x00, 0x06, 0x00, 0x08, 0x00, 0x04, 0x00, 0x06, 0x00, 0x00, 0x00, 0x00,
    0x00, 0x80, 0x3f, 0x01, 0x00, 0x00, 0x00, 0x0d, 0x00, 0x00, 0x00, 0x01, 0x00,
    0x00, 0x00, 0x0c, 0x00, 0x00, 0x00, 0x00, 0x00, 0x0e, 0x00, 0x18, 0x00, 0x14,
    0x00, 0x10, 0x00, 0x0c, 0x00, 0x0b, 0x00, 0x04, 0x00, 0x0e, 0x00, 0x00, 0x00,
    0x14, 0x00, 0x00, 0x00, 0x00, 0x00, 0x00, 0x08, 0x10, 0x00, 0x00, 0x00, 0x14,
    0x00, 0x00, 0x00, 0x03, 0x00, 0x00, 0x00, 0x0c, 0xf5, 0xff, 0xff, 0x01, 0x00,
    0x00, 0x00, 0x0c, 0x00, 0x00, 0x00, 0x03, 0x00, 0x00, 0x00, 0x09, 0x00, 0x00,
    0x00, 0x0a, 0x00, 0x00, 0x00, 0x0b, 0x00, 0x00, 0x00, 0x8e, 0xff, 0xff, 0xff,
    0x1c, 0x00, 0x00, 0x00, 0x00, 0x00, 0x00, 0x08, 0x1c, 0x00, 0x00, 0x00, 0x20,
    0x00, 0x00, 0x00, 0x03, 0x00, 0x00, 0x00, 0x00, 0x00, 0x06, 0x00, 0x08, 0x00,
    0x07, 0x00, 0x06, 0x00, 0x00, 0x00, 0x00, 0x00, 0x00, 0x01, 0x01, 0x00, 0x00,
    0x00, 0x09, 0x00, 0x00, 0x00, 0x03, 0x00, 0x00, 0x00, 0x08, 0x00, 0x00, 0x00,
    0x03, 0x00, 0x00, 0x00, 0x02, 0x00, 0x00, 0x00, 0x00, 0x00, 0x0a, 0x00, 0x10,
    0x00, 0x0c, 0x00, 0x08, 0x00, 0x04, 0x00, 0x0a, 0x00, 0x00, 0x00, 0x0c, 0x00,
    0x00, 0x00, 0x10, 0x00, 0x00, 0x00, 0x02, 0x00, 0x00, 0x00, 0x01, 0x00, 0x00,
    0x00, 0x08, 0x00, 0x00, 0x00, 0x02, 0x00, 0x00, 0x00, 0x07, 0x00, 0x00, 0x00,
    0x01, 0x00, 0x00, 0x00, 0x00, 0x00, 0x0e, 0x00, 0x1a, 0x00, 0x14, 0x00, 0x10,
    0x00, 0x0c, 0x00, 0x0b, 0x00, 0x04, 0x00, 0x0e, 0x00, 0x00, 0x00, 0x24, 0x00,
    0x00, 0x00, 0x00, 0x00, 0x00, 0x05, 0x34, 0x00, 0x00, 0x00, 0x38, 0x00, 0x00,
    0x00, 0x01, 0x00, 0x00, 0x00, 0x00, 0x00, 0x0e, 0x00, 0x18, 0x00, 0x17, 0x00,
    0x10, 0x00, 0x0c, 0x00, 0x08, 0x00, 0x04, 0x00, 0x0e, 0x00, 0x00, 0x00, 0x02,
    0x00, 0x00, 0x00, 0x01, 0x00, 0x00, 0x00, 0x02, 0x00, 0x00, 0x00, 0x01, 0x00,
    0x00, 0x00, 0x00, 0x00, 0x00, 0x01, 0x01, 0x00, 0x00, 0x00, 0x07, 0x00, 0x00,
    0x00, 0x01, 0x00, 0x00, 0x00, 0x06, 0x00, 0x00, 0x00, 0x00, 0x00, 0x0e, 0x00,
    0x14, 0x00, 0x00, 0x00, 0x10, 0x00, 0x0c, 0x00, 0x0b, 0x00, 0x04, 0x00, 0x0e,
    0x00, 0x00, 0x00, 0x1c, 0x00, 0x00, 0x00, 0x00, 0x00, 0x00, 0x01, 0x28, 0x00,
    0x00, 0x00, 0x2c, 0x00, 0x00, 0x00, 0x0c, 0x00, 0x14, 0x00, 0x13, 0x00, 0x0c,
    0x00, 0x08, 0x00, 0x07, 0x00, 0x0c, 0x00, 0x00, 0x00, 0x00, 0x00, 0x00, 0x01,
    0x01, 0x00, 0x00, 0x00, 0x01, 0x00, 0x00, 0x00, 0x00, 0x00, 0x00, 0x01, 0x01,
    0x00, 0x00, 0x00, 0x06, 0x00, 0x00, 0x00, 0x03, 0x00, 0x00, 0x00, 0x00, 0x00,
    0x00, 0x00, 0x05, 0x00, 0x00, 0x00, 0x04, 0x00, 0x00, 0x00, 0x01, 0x00, 0x00,
    0x00, 0x0d, 0x00, 0x00, 0x00, 0x01, 0x00, 0x00, 0x00, 0x00, 0x00, 0x00, 0x00,
    0x0e, 0x00, 0x00, 0x00, 0xd4, 0x09, 0x00, 0x00, 0x78, 0x09, 0x00, 0x00, 0x00,
    0x09, 0x00, 0x00, 0x9c, 0x08, 0x00, 0x00, 0xc8, 0x06, 0x00, 0x00, 0xe4, 0x04,
    0x00, 0x00, 0x00, 0x04, 0x00, 0x00, 0x6c, 0x03, 0x00, 0x00, 0xe8, 0x02, 0x00,
    0x00, 0x2c, 0x02, 0x00, 0x00, 0x80, 0x01, 0x00, 0x00, 0x1c, 0x01, 0x00, 0x00,
    0x80, 0x00, 0x00, 0x00, 0x04, 0x00, 0x00, 0x00, 0x7a, 0xf6, 0xff, 0xff, 0x00,
    0x00, 0x00, 0x01, 0x18, 0x00, 0x00, 0x00, 0x20, 0x00, 0x00, 0x00, 0x3c, 0x00,
    0x00, 0x00, 0x0e, 0x00, 0x00, 0x00, 0x00, 0x00, 0x00, 0x09, 0x50, 0x00, 0x00,
    0x00, 0x02, 0x00, 0x00, 0x00, 0xff, 0xff, 0xff, 0xff, 0x05, 0x00, 0x00, 0x00,
    0x5c, 0xf6, 0xff, 0xff, 0x08, 0x00, 0x00, 0x00, 0x10, 0x00, 0x00, 0x00, 0x01,
    0x00, 0x00, 0x00, 0x80, 0xff, 0xff, 0xff, 0xff, 0xff, 0xff, 0xff, 0x01, 0x00,
    0x00, 0x00, 0x00, 0x00, 0x80, 0x3b, 0x19, 0x00, 0x00, 0x00, 0x53, 0x74, 0x61,
    0x74, 0x65, 0x66, 0x75, 0x6c, 0x50, 0x61, 0x72, 0x74, 0x69, 0x74, 0x69, 0x6f,
    0x6e, 0x65, 0x64, 0x43, 0x61, 0x6c, 0x6c, 0x3a, 0x30, 0x00, 0x00, 0x00, 0x02,
    0x00, 0x00, 0x00, 0x01, 0x00, 0x00, 0x00, 0x05, 0x00, 0x00, 0x00, 0xf2, 0xf6,
    0xff, 0xff, 0x00, 0x00, 0x00, 0x01, 0x18, 0x00, 0x00, 0x00, 0x20, 0x00, 0x00,
    0x00, 0x3c, 0x00, 0x00, 0x00, 0x0d, 0x00, 0x00, 0x00, 0x00, 0x00, 0x00, 0x09,
    0x70, 0x00, 0x00, 0x00, 0x02, 0x00, 0x00, 0x00, 0xff, 0xff, 0xff, 0xff, 0x05,
    0x00, 0x00, 0x00, 0xd4, 0xf6, 0xff, 0xff, 0x08, 0x00, 0x00, 0x00, 0x10, 0x00,
    0x00, 0x00, 0x01, 0x00, 0x00, 0x00, 0x03, 0x00, 0x00, 0x00, 0x00, 0x00, 0x00,
    0x00, 0x01, 0x00, 0x00, 0x00, 0x78, 0xb2, 0x62, 0x3e, 0x3a, 0x00, 0x00, 0x00,
    0x6d, 0x6f, 0x64, 0x65, 0x6c, 0x5f, 0x34, 0x2f, 0x71, 0x75, 0x61, 0x6e, 0x74,
    0x5f, 0x64, 0x65, 0x6e, 0x73, 0x65, 0x5f, 0x39, 0x2f, 0x4d, 0x61, 0x74, 0x4d,
    0x75, 0x6c, 0x3b, 0x6d, 0x6f, 0x64, 0x65, 0x6c, 0x5f, 0x34, 0x2f, 0x71, 0x75,
    0x61, 0x6e, 0x74, 0x5f, 0x64, 0x65, 0x6e, 0x73, 0x65, 0x5f, 0x39, 0x2f, 0x42,
    0x69, 0x61, 0x73, 0x41, 0x64, 0x64, 0x00, 0x00, 0x02, 0x00, 0x00, 0x00, 0x01,
    0x00, 0x00, 0x00, 0x05, 0x00, 0x00, 0x00, 0xe2, 0xf7, 0xff, 0xff, 0x00, 0x00,
    0x00, 0x01, 0x14, 0x00, 0x00, 0x00, 0x34, 0x00, 0x00, 0x00, 0x0c, 0x00, 0x00,
    0x00, 0x00, 0x00, 0x00, 0x02, 0x40, 0x00, 0x00, 0x00, 0x5c, 0xf7, 0xff, 0xff,
    0x08, 0x00, 0x00, 0x00, 0x14, 0x00, 0x00, 0x00, 0x01, 0x00, 0x00, 0x00, 0x00,
    0x00, 0x00, 0x00, 0x00, 0x00, 0x00, 0x00, 0x00, 0x00, 0x00, 0x00, 0x01, 0x00,
    0x00, 0x00, 0x3d, 0x98, 0x70, 0x3a, 0x12, 0x00, 0x00, 0x00, 0x74, 0x66, 0x6c,
    0x2e, 0x70, 0x73, 0x65, 0x75, 0x64, 0x6f, 0x5f, 0x71, 0x63, 0x6f, 0x6e, 0x73,
    0x74, 0x34, 0x00, 0x00, 0x01, 0x00, 0x00, 0x00, 0x05, 0x00, 0x00, 0x00, 0x42,
    0xf8, 0xff, 0xff, 0x00, 0x00, 0x00, 0x01, 0x14, 0x00, 0x00, 0x00, 0x30, 0x00,
    0x00, 0x00, 0x0b, 0x00, 0x00, 0x00, 0x00, 0x00, 0x00, 0x09, 0x84, 0x00, 0x00,
    0x00, 0xbc, 0xf7, 0xff, 0xff, 0x08, 0x00, 0x00, 0x00, 0x10, 0x00, 0x00, 0x00,
    0x01, 0x00, 0x00, 0x00, 0x00, 0x00, 0x00, 0x00, 0x00, 0x00, 0x00, 0x00, 0x01,
    0x00, 0x00, 0x00, 0xdf, 0xf4, 0xfd, 0x3b, 0x59, 0x00, 0x00, 0x00, 0x6d, 0x6f,
    0x64, 0x65, 0x6c, 0x5f, 0x34, 0x2f, 0x71, 0x75, 0x61, 0x6e, 0x74, 0x5f, 0x64,
    0x65, 0x6e, 0x73, 0x65, 0x5f, 0x39, 0x2f, 0x4d, 0x61, 0x74, 0x4d, 0x75, 0x6c,
    0x3b, 0x6d, 0x6f, 0x64, 0x65, 0x6c, 0x5f, 0x34, 0x2f, 0x71, 0x75, 0x61, 0x6e,
    0x74, 0x5f, 0x64, 0x65, 0x6e, 0x73, 0x65, 0x5f, 0x39, 0x2f, 0x4c, 0x61, 0x73,
    0x74, 0x56, 0x61, 0x6c, 0x75, 0x65, 0x51, 0x75, 0x61, 0x6e, 0x74, 0x2f, 0x46,
    0x61, 0x6b, 0x65, 0x51, 0x75, 0x61, 0x6e, 0x74, 0x57, 0x69, 0x74, 0x68, 0x4d,
    0x69, 0x6e, 0x4d, 0x61, 0x78, 0x56, 0x61, 0x72, 0x73, 0x00, 0x00, 0x00, 0x02,
    0x00, 0x00, 0x00, 0x05, 0x00, 0x00, 0x00, 0x0a, 0x00, 0x00, 0x00, 0x92, 0xf8,
    0xff, 0xff, 0x00, 0x00, 0x00, 0x01, 0x18, 0x00, 0x00, 0x00, 0x20, 0x00, 0x00,
    0x00, 0x40, 0x00, 0x00, 0x00, 0x0a, 0x00, 0x00, 0x00, 0x00, 0x00, 0x00, 0x09,
    0x90, 0x00, 0x00, 0x00, 0x02, 0x00, 0x00, 0x00, 0xff, 0xff, 0xff, 0xff, 0x0a,
    0x00, 0x00, 0x00, 0x74, 0xf8, 0xff, 0xff, 0x08, 0x00, 0x00, 0x00, 0x14, 0x00,
    0x00, 0x00, 0x01, 0x00, 0x00, 0x00, 0x80, 0xff, 0xff, 0xff, 0xff, 0xff, 0xff,
    0xff, 0x00, 0x00, 0x00, 0x00, 0x01, 0x00, 0x00, 0x00, 0xd8, 0x87, 0xf2, 0x3d,
    0x55, 0x00, 0x00, 0x00, 0x6d, 0x6f, 0x64, 0x65, 0x6c, 0x5f, 0x34, 0x2f, 0x71,
    0x75, 0x61, 0x6e, 0x74, 0x5f, 0x64, 0x65, 0x6e, 0x73, 0x65, 0x5f, 0x38, 0x2f,
    0x4d, 0x61, 0x74, 0x4d, 0x75, 0x6c, 0x3b, 0x6d, 0x6f, 0x64, 0x65, 0x6c, 0x5f,
    0x34, 0x2f, 0x71, 0x75, 0x61, 0x6e, 0x74, 0x5f, 0x64, 0x65, 0x6e, 0x73, 0x65,
    0x5f, 0x38, 0x2f, 0x52, 0x65, 0x6c, 0x75, 0x3b, 0x6d, 0x6f, 0x64, 0x65, 0x6c,
    0x5f, 0x34, 0x2f, 0x71, 0x75, 0x61, 0x6e, 0x74, 0x5f, 0x64, 0x65, 0x6e, 0x73,
    0x65, 0x5f, 0x38, 0x2f, 0x42, 0x69, 0x61, 0x73, 0x41, 0x64, 0x64, 0x00, 0x00,
    0x00, 0x02, 0x00, 0x00, 0x00, 0x01, 0x00, 0x00, 0x00, 0x0a, 0x00, 0x00, 0x00,
    0x4a, 0xf9, 0xff, 0xff, 0x00, 0x00, 0x00, 0x01, 0x18, 0x00, 0x00, 0x00, 0x20,
    0x00, 0x00, 0x00, 0x40, 0x00, 0x00, 0x00, 0x09, 0x00, 0x00, 0x00, 0x00, 0x00,
    0x00, 0x09, 0x58, 0x00, 0x00, 0x00, 0x02, 0x00, 0x00, 0x00, 0xff, 0xff, 0xff,
    0xff, 0x60, 0x03, 0x00, 0x00, 0x2c, 0xf9, 0xff, 0xff, 0x08, 0x00, 0x00, 0x00,
    0x14, 0x00, 0x00, 0x00, 0x01, 0x00, 0x00, 0x00, 0x80, 0xff, 0xff, 0xff, 0xff,
    0xff, 0xff, 0xff, 0x00, 0x00, 0x00, 0x00, 0x01, 0x00, 0x00, 0x00, 0x14, 0x92,
    0xf3, 0x3b, 0x1f, 0x00, 0x00, 0x00, 0x6d, 0x6f, 0x64, 0x65, 0x6c, 0x5f, 0x34,
    0x2f, 0x71, 0x75, 0x61, 0x6e, 0x74, 0x5f, 0x66, 0x6c, 0x61, 0x74, 0x74, 0x65,
    0x6e, 0x5f, 0x34, 0x2f, 0x52, 0x65, 0x73, 0x68, 0x61, 0x70, 0x65, 0x00, 0x02,
    0x00, 0x00, 0x00, 0x01, 0x00, 0x00, 0x00, 0x60, 0x03, 0x00, 0x00, 0xca, 0xf9,
    0xff, 0xff, 0x00, 0x00, 0x00, 0x01, 0x18, 0x00, 0x00, 0x00, 0x28, 0x00, 0x00,
    0x00, 0x48, 0x00, 0x00, 0x00, 0x08, 0x00, 0x00, 0x00, 0x00, 0x00, 0x00, 0x09,
    0x60, 0x00, 0x00, 0x00, 0x04, 0x00, 0x00, 0x00, 0xff, 0xff, 0xff, 0xff, 0x09,
    0x00, 0x00, 0x00, 0x03, 0x00, 0x00, 0x00, 0x20, 0x00, 0x00, 0x00, 0xb4, 0xf9,
    0xff, 0xff, 0x08, 0x00, 0x00, 0x00, 0x14, 0x00, 0x00, 0x00, 0x01, 0x00, 0x00,
    0x00, 0x80, 0xff, 0xff, 0xff, 0xff, 0xff, 0xff, 0xff, 0x00, 0x00, 0x00, 0x00,
    0x01, 0x00, 0x00, 0x00, 0x14, 0x92, 0xf3, 0x3b, 0x1f, 0x00, 0x00, 0x00, 0x6d,
    0x6f, 0x64, 0x65, 0x6c, 0x5f, 0x34, 0x2f, 0x6d, 0x61, 0x78, 0x5f, 0x70, 0x6f,
    0x6f, 0x6c, 0x69, 0x6e, 0x67, 0x32, 0x64, 0x5f, 0x34, 0x2f, 0x4d, 0x61, 0x78,
    0x50, 0x6f, 0x6f, 0x6c, 0x00, 0x04, 0x00, 0x00, 0x00, 0x01, 0x00, 0x00, 0x00,
    0x09, 0x00, 0x00, 0x00, 0x03, 0x00, 0x00, 0x00, 0x20, 0x00, 0x00, 0x00, 0x5a,
    0xfa, 0xff, 0xff, 0x00, 0x00, 0x00, 0x01, 0x18, 0x00, 0x00, 0x00, 0x28, 0x00,
    0x00, 0x00, 0x48, 0x00, 0x00, 0x00, 0x07, 0x00, 0x00, 0x00, 0x00, 0x00, 0x00,
    0x09, 0xb0, 0x00, 0x00, 0x00, 0x04, 0x00, 0x00, 0x00, 0xff, 0xff, 0xff, 0xff,
    0x12, 0x00, 0x00, 0x00, 0x03, 0x00, 0x00, 0x00, 0x20, 0x00, 0x00, 0x00, 0x44,
    0xfa, 0xff, 0xff, 0x08, 0x00, 0x00, 0x00, 0x14, 0x00, 0x00, 0x00, 0x01, 0x00,
    0x00, 0x00, 0x80, 0xff, 0xff, 0xff, 0xff, 0xff, 0xff, 0xff, 0x00, 0x00, 0x00,
    0x00, 0x01, 0x00, 0x00, 0x00, 0x14, 0x92, 0xf3, 0x3b, 0x6e, 0x00, 0x00, 0x00,
    0x6d, 0x6f, 0x64, 0x65, 0x6c, 0x5f, 0x34, 0x2f, 0x63, 0x6f, 0x6e, 0x76, 0x32,
    0x64, 0x5f, 0x34, 0x2f, 0x52, 0x65, 0x6c, 0x75, 0x3b, 0x6d, 0x6f, 0x64, 0x65,
    0x6c, 0x5f, 0x34, 0x2f, 0x63, 0x6f, 0x6e, 0x76, 0x32, 0x64, 0x5f, 0x34, 0x2f,
    0x42, 0x69, 0x61, 0x73, 0x41, 0x64, 0x64, 0x3b, 0x6d, 0x6f, 0x64, 0x65, 0x6c,
    0x5f, 0x34, 0x2f, 0x63, 0x6f, 0x6e, 0x76, 0x32, 0x64, 0x5f, 0x34, 0x2f, 0x43,
    0x6f, 0x6e, 0x76, 0x32, 0x44, 0x3b, 0x6d, 0x6f, 0x64, 0x65, 0x6c, 0x5f, 0x34,
    0x2f, 0x63, 0x6f, 0x6e, 0x76, 0x32, 0x64, 0x5f, 0x34, 0x2f, 0x42, 0x69, 0x61,
    0x73, 0x41, 0x64, 0x64, 0x2f, 0x52, 0x65, 0x61, 0x64, 0x56, 0x61, 0x72, 0x69,
    0x61, 0x62, 0x6c, 0x65, 0x4f, 0x70, 0x00, 0x00, 0x04, 0x00, 0x00, 0x00, 0x01,
    0x00, 0x00, 0x00, 0x12, 0x00, 0x00, 0x00, 0x03, 0x00, 0x00, 0x00, 0x20, 0x00,
    0x00, 0x00, 0x92, 0xfb, 0xff, 0xff, 0x00, 0x00, 0x00, 0x01, 0x14, 0x00, 0x00,
    0x00, 0xa8, 0x01, 0x00, 0x00, 0x06, 0x00, 0x00, 0x00, 0x00, 0x00, 0x00, 0x09,
    0xb4, 0x01, 0x00, 0x00, 0x0c, 0xfb, 0xff, 0xff, 0x08, 0x00, 0x00, 0x00, 0x0c,
    0x01, 0x00, 0x00, 0x20, 0x00, 0x00, 0x00, 0x00, 0x00, 0x00, 0x00, 0x00, 0x00,
    0x00, 0x00, 0x00, 0x00, 0x00, 0x00, 0x00, 0x00, 0x00, 0x00, 0x00, 0x00, 0x00,
    0x00, 0x00, 0x00, 0x00, 0x00, 0x00, 0x00, 0x00, 0x00, 0x00, 0x00, 0x00, 0x00,
    0x00, 0x00, 0x00, 0x00, 0x00, 0x00, 0x00, 0x00, 0x00, 0x00, 0x00, 0x00, 0x00,
    0x00, 0x00, 0x00, 0x00, 0x00, 0x00, 0x00, 0x00, 0x00, 0x00, 0x00, 0x00, 0x00,
    0x00, 0x00, 0x00, 0x00, 0x00, 0x00, 0x00, 0x00, 0x00, 0x00, 0x00, 0x00, 0x00,
    0x00, 0x00, 0x00, 0x00, 0x00, 0x00, 0x00, 0x00, 0x00, 0x00, 0x00, 0x00, 0x00,
    0x00, 0x00, 0x00, 0x00, 0x00, 0x00, 0x00, 0x00, 0x00, 0x00, 0x00, 0x00, 0x00,
    0x00, 0x00, 0x00, 0x00, 0x00, 0x00, 0x00, 0x00, 0x00, 0x00, 0x00, 0x00, 0x00,
    0x00, 0x00, 0x00, 0x00, 0x00, 0x00, 0x00, 0x00, 0x00, 0x00, 0x00, 0x00, 0x00,
    0x00, 0x00, 0x00, 0x00, 0x00, 0x00, 0x00, 0x00, 0x00, 0x00, 0x00, 0x00, 0x00,
    0x00, 0x00, 0x00, 0x00, 0x00, 0x00, 0x00, 0x00, 0x00, 0x00, 0x00, 0x00, 0x00,
    0x00, 0x00, 0x00, 0x00, 0x00, 0x00, 0x00, 0x00, 0x00, 0x00, 0x00, 0x00, 0x00,
    0x00, 0x00, 0x00, 0x00, 0x00, 0x00, 0x00, 0x00, 0x00, 0x00, 0x00, 0x00, 0x00,
    0x00, 0x00, 0x00, 0x00, 0x00, 0x00, 0x00, 0x00, 0x00, 0x00, 0x00, 0x00, 0x00,
    0x00, 0x00, 0x00, 0x00, 0x00, 0x00, 0x00, 0x00, 0x00, 0x00, 0x00, 0x00, 0x00,
    0x00, 0x00, 0x00, 0x00, 0x00, 0x00, 0x00, 0x00, 0x00, 0x00, 0x00, 0x00, 0x00,
    0x00, 0x00, 0x00, 0x00, 0x00, 0x00, 0x00, 0x00, 0x00, 0x00, 0x00, 0x00, 0x00,
    0x00, 0x00, 0x00, 0x00, 0x00, 0x00, 0x00, 0x00, 0x00, 0x00, 0x00, 0x00, 0x00,
    0x00, 0x00, 0x00, 0x00, 0x00, 0x00, 0x00, 0x00, 0x00, 0x00, 0x00, 0x00, 0x00,
    0x00, 0x00, 0x00, 0x00, 0x00, 0x00, 0x00, 0x20, 0x00, 0x00, 0x00, 0xc5, 0x1b,
    0x36, 0x3b, 0x4c, 0xf6, 0x4a, 0x3b, 0x15, 0xea, 0x24, 0x3b, 0xa0, 0xab, 0x5a,
    0x3b, 0x1f, 0x9d, 0x19, 0x3b, 0x17, 0xdd, 0x34, 0x3b, 0xb9, 0x50, 0x20, 0x3b,
    0xbb, 0x10, 0x75, 0x3b, 0x1c, 0x0e, 0x1f, 0x3b, 0x8c, 0x20, 0x15, 0x3b, 0x4f,
    0xec, 0x47, 0x3b, 0xb7, 0x7b, 0x3e, 0x3b, 0xbd, 0x94, 0x3a, 0x3b, 0xd5, 0xc7,
    0x5c, 0x3b, 0xd2, 0x84, 0x2f, 0x3b, 0x52, 0x16, 0x15, 0x3b, 0x54, 0xc9, 0x40,
    0x3b, 0x53, 0x2c, 0x28, 0x3b, 0x55, 0xb7, 0x12, 0x3b, 0xcd, 0x83, 0x24, 0x3b,
    0x12, 0x34, 0x59, 0x3b, 0xa7, 0xfe, 0x39, 0x3b, 0x22, 0x1e, 0x66, 0x3b, 0xe6,
    0xe0, 0x38, 0x3b, 0x8f, 0xaf, 0x20, 0x3b, 0xe7, 0x30, 0x3d, 0x3b, 0x35, 0x34,
    0x25, 0x3b, 0x3b, 0x9e, 0x3e, 0x3b, 0x44, 0x69, 0x38, 0x3b, 0xf4, 0xe6, 0x48,
    0x3b, 0xc4, 0xc6, 0x0b, 0x3b, 0xd3, 0xe1, 0x2d, 0x3b, 0x12, 0x00, 0x00, 0x00,
    0x74, 0x66, 0x6c, 0x2e, 0x70, 0x73, 0x65, 0x75, 0x64, 0x6f, 0x5f, 0x71, 0x63,
    0x6f, 0x6e, 0x73, 0x74, 0x33, 0x00, 0x00, 0x04, 0x00, 0x00, 0x00, 0x20, 0x00,
    0x00, 0x00, 0x03, 0x00, 0x00, 0x00, 0x01, 0x00, 0x00, 0x00, 0x01, 0x00, 0x00,
    0x00, 0x72, 0xfd, 0xff, 0xff, 0x00, 0x00, 0x00, 0x01, 0x14, 0x00, 0x00, 0x00,
    0xa4, 0x01, 0x00, 0x00, 0x05, 0x00, 0x00, 0x00, 0x00, 0x00, 0x00, 0x02, 0xb0,
    0x01, 0x00, 0x00, 0xec, 0xfc, 0xff, 0xff, 0x08, 0x00, 0x00, 0x00, 0x08, 0x01,
    0x00, 0x00, 0x20, 0x00, 0x00, 0x00, 0x00, 0x00, 0x00, 0x00, 0x00, 0x00, 0x00,
    0x00, 0x00, 0x00, 0x00, 0x00, 0x00, 0x00, 0x00, 0x00, 0x00, 0x00, 0x00, 0x00,
    0x00, 0x00, 0x00, 0x00, 0x00, 0x00, 0x00, 0x00, 0x00, 0x00, 0x00, 0x00, 0x00,
    0x00, 0x00, 0x00, 0x00, 0x00, 0x00, 0x00, 0x00, 0x00, 0x00, 0x00, 0x00, 0x00,
    0x00, 0x00, 0x00, 0x00, 0x00, 0x00, 0x00, 0x00, 0x00, 0x00, 0x00, 0x00, 0x00,
    0x00, 0x00, 0x00, 0x00, 0x00, 0x00, 0x00, 0x00, 0x00, 0x00, 0x00, 0x00, 0x00,
    0x00, 0x00, 0x00, 0x00, 0x00, 0x00, 0x00, 0x00, 0x00, 0x00, 0x00, 0x00, 0x00,
    0x00, 0x00, 0x00, 0x00, 0x00, 0x00, 0x00, 0x00, 0x00, 0x00, 0x00, 0x00, 0x00,
    0x00, 0x00, 0x00, 0x00, 0x00, 0x00, 0x00, 0x00, 0x00, 0x00, 0x00, 0x00, 0x00,
    0x00, 0x00, 0x00, 0x00, 0x00, 0x00, 0x00, 0x00, 0x00, 0x00, 0x00, 0x00, 0x00,
    0x00, 0x00, 0x00, 0x00, 0x00, 0x00, 0x00, 0x00, 0x00, 0x00, 0x00, 0x00, 0x00,
    0x00, 0x00, 0x00, 0x00, 0x00, 0x00, 0x00, 0x00, 0x00, 0x00, 0x00, 0x00, 0x00,
    0x00, 0x00, 0x00, 0x00, 0x00, 0x00, 0x00, 0x00, 0x00, 0x00, 0x00, 0x00, 0x00,
    0x00, 0x00, 0x00, 0x00, 0x00, 0x00, 0x00, 0x00, 0x00, 0x00, 0x00, 0x00, 0x00,
    0x00, 0x00, 0x00, 0x00, 0x00, 0x00, 0x00, 0x00, 0x00, 0x00, 0x00, 0x00, 0x00,
    0x00, 0x00, 0x00, 0x00, 0x00, 0x00, 0x00, 0x00, 0x00, 0x00, 0x00, 0x00, 0x00,
    0x00, 0x00, 0x00, 0x00, 0x00, 0x00, 0x00, 0x00, 0x00, 0x00, 0x00, 0x00, 0x00,
    0x00, 0x00, 0x00, 0x00, 0x00, 0x00, 0x00, 0x00, 0x00, 0x00, 0x00, 0x00, 0x00,
    0x00, 0x00, 0x00, 0x00, 0x00, 0x00, 0x00, 0x00, 0x00, 0x00, 0x00, 0x00, 0x00,
    0x00, 0x00, 0x00, 0x00, 0x00, 0x00, 0x00, 0x00, 0x00, 0x00, 0x00, 0x00, 0x00,
    0x00, 0x00, 0x20, 0x00, 0x00, 0x00, 0xa2, 0xf1, 0x36, 0x38, 0xa7, 0xe4, 0x4b,
    0x38, 0xc1, 0xab, 0x25, 0x38, 0x6d, 0xac, 0x5b, 0x38, 0x86, 0x51, 0x1a, 0x38,
    0x7e, 0xb1, 0x35, 0x38, 0xfe, 0x0c, 0x21, 0x38, 0x88, 0x30, 0x76, 0x38, 0xe6,
    0xc8, 0x1f, 0x38, 0xae, 0xcf, 0x15, 0x38, 0x18, 0xd7, 0x48, 0x38, 0x6a, 0x5b,
    0x3f, 0x38, 0xdb, 0x6f, 0x3b, 0x38, 0x1d, 0xcb, 0x5d, 0x38, 0xf2, 0x52, 0x30,
    0x38, 0x68, 0xc5, 0x15, 0x38, 0xbb, 0xab, 0x41, 0x38, 0xd3, 0xf1, 0x28, 0x38,
    0xa2, 0x63, 0x13, 0x38, 0x01, 0x45, 0x25, 0x38, 0x26, 0x33, 0x5a, 0x38, 0x15,
    0xd9, 0x3a, 0x38, 0x61, 0x2c, 0x67, 0x38, 0x04, 0xba, 0x39, 0x38, 0x44, 0x6c,
    0x21, 0x38, 0x16, 0x0f, 0x3e, 0x38, 0x38, 0xf6, 0x25, 0x38, 0x17, 0x7e, 0x3f,
    0x38, 0xd5, 0x41, 0x39, 0x38, 0xe3, 0xd2, 0x49, 0x38, 0xea, 0x6a, 0x0c, 0x38,
    0x07, 0xae, 0x2e, 0x38, 0x12, 0x00, 0x00, 0x00, 0x74, 0x66, 0x6c, 0x2e, 0x70,
    0x73, 0x65, 0x75, 0x64, 0x6f, 0x5f, 0x71, 0x63, 0x6f, 0x6e, 0x73, 0x74, 0x32,
    0x00, 0x00, 0x01, 0x00, 0x00, 0x00, 0x20, 0x00, 0x00, 0x00, 0x42, 0xff, 0xff,
    0xff, 0x00, 0x00, 0x00, 0x01, 0x14, 0x00, 0x00, 0x00, 0x30, 0x00, 0x00, 0x00,
    0x04, 0x00, 0x00, 0x00, 0x00, 0x00, 0x00, 0x09, 0x3c, 0x00, 0x00, 0x00, 0xbc,
    0xfe, 0xff, 0xff, 0x08, 0x00, 0x00, 0x00, 0x10, 0x00, 0x00, 0x00, 0x01, 0x00,
    0x00, 0x00, 0x00, 0x00, 0x00, 0x00, 0x00, 0x00, 0x00, 0x00, 0x01, 0x00, 0x00,
    0x00, 0x5f, 0x53, 0x33, 0x3b, 0x12, 0x00, 0x00, 0x00, 0x74, 0x66, 0x6c, 0x2e,
    0x70, 0x73, 0x65, 0x75, 0x64, 0x6f, 0x5f, 0x71, 0x63, 0x6f, 0x6e, 0x73, 0x74,
    0x31, 0x00, 0x00, 0x02, 0x00, 0x00, 0x00, 0x0a, 0x00, 0x00, 0x00, 0x60, 0x03,
    0x00, 0x00, 0xa2, 0xff, 0xff, 0xff, 0x00, 0x00, 0x00, 0x01, 0x14, 0x00, 0x00,
    0x00, 0x30, 0x00, 0x00, 0x00, 0x03, 0x00, 0x00, 0x00, 0x00, 0x00, 0x00, 0x02,
    0x3c, 0x00, 0x00, 0x00, 0x1c, 0xff, 0xff, 0xff, 0x08, 0x00, 0x00, 0x00, 0x10,
    0x00, 0x00, 0x00, 0x01, 0x00, 0x00, 0x00, 0x00, 0x00, 0x00, 0x00, 0x00, 0x00,
    0x00, 0x00, 0x01, 0x00, 0x00, 0x00, 0x77, 0x9e, 0xaa, 0x37, 0x11, 0x00, 0x00,
    0x00, 0x74, 0x66, 0x6c, 0x2e, 0x70, 0x73, 0x65, 0x75, 0x64, 0x6f, 0x5f, 0x71,
    0x63, 0x6f, 0x6e, 0x73, 0x74, 0x00, 0x00, 0x00, 0x01, 0x00, 0x00, 0x00, 0x0a,
    0x00, 0x00, 0x00, 0x00, 0x00, 0x16, 0x00, 0x1c, 0x00, 0x18, 0x00, 0x17, 0x00,
    0x10, 0x00, 0x0c, 0x00, 0x08, 0x00, 0x00, 0x00, 0x00, 0x00, 0x00, 0x00, 0x07,
    0x00, 0x16, 0x00, 0x00, 0x00, 0x00, 0x00, 0x00, 0x01, 0x18, 0x00, 0x00, 0x00,
    0x18, 0x00, 0x00, 0x00, 0x02, 0x00, 0x00, 0x00, 0x00, 0x00, 0x00, 0x02, 0x20,
    0x00, 0x00, 0x00, 0x04, 0x00, 0x04, 0x00, 0x04, 0x00, 0x00, 0x00, 0x0e, 0x00,
    0x00, 0x00, 0x61, 0x72, 0x69, 0x74, 0x68, 0x2e, 0x63, 0x6f, 0x6e, 0x73, 0x74,
    0x61, 0x6e, 0x74, 0x00, 0x00, 0x01, 0x00, 0x00, 0x00, 0x02, 0x00, 0x00, 0x00,
    0x00, 0x00, 0x16, 0x00, 0x20, 0x00, 0x1c, 0x00, 0x1b, 0x00, 0x14, 0x00, 0x10,
    0x00, 0x0c, 0x00, 0x00, 0x00, 0x00, 0x00, 0x08, 0x00, 0x07, 0x00, 0x16, 0x00,
    0x00, 0x00, 0x00, 0x00, 0x00, 0x01, 0x18, 0x00, 0x00, 0x00, 0x34, 0x00, 0x00,
    0x00, 0x50, 0x00, 0x00, 0x00, 0x01, 0x00, 0x00, 0x00, 0x00, 0x00, 0x00, 0x09,
    0x64, 0x00, 0x00, 0x00, 0x04, 0x00, 0x00, 0x00, 0xff, 0xff, 0xff, 0xff, 0x14,
    0x00, 0x00, 0x00, 0x03, 0x00, 0x00, 0x00, 0x01, 0x00, 0x00, 0x00, 0x0c, 0x00,
    0x0c, 0x00, 0x00, 0x00, 0x00, 0x00, 0x08, 0x00, 0x04, 0x00, 0x0c, 0x00, 0x00,
    0x00, 0x08, 0x00, 0x00, 0x00, 0x10, 0x00, 0x00, 0x00, 0x01, 0x00, 0x00, 0x00,
    0x00, 0x00, 0x00, 0x00, 0x00, 0x00, 0x00, 0x00, 0x01, 0x00, 0x00, 0x00, 0x52,
    0x96, 0x80, 0x3c, 0x1a, 0x00, 0x00, 0x00, 0x73, 0x65, 0x72, 0x76, 0x69, 0x6e,
    0x67, 0x5f, 0x64, 0x65, 0x66, 0x61, 0x75, 0x6c, 0x74, 0x5f, 0x69, 0x6e, 0x70,
    0x75, 0x74, 0x5f, 0x31, 0x30, 0x3a, 0x30, 0x00, 0x00, 0x04, 0x00, 0x00, 0x00,
    0x01, 0x00, 0x00, 0x00, 0x14, 0x00, 0x00, 0x00, 0x03, 0x00, 0x00, 0x00, 0x01,
    0x00, 0x00, 0x00, 0x05, 0x00, 0x00, 0x00, 0x68, 0x00, 0x00, 0x00, 0x48, 0x00,
    0x00, 0x00, 0x38, 0x00, 0x00, 0x00, 0x18, 0x00, 0x00, 0x00, 0x04, 0x00, 0x00,
    0x00, 0xb8, 0xff, 0xff, 0xff, 0x19, 0x00, 0x00, 0x00, 0x02, 0x00, 0x00, 0x00,
    0x00, 0x00, 0x00, 0x19, 0xc8, 0xff, 0xff, 0xff, 0x09, 0x00, 0x00, 0x00, 0x04,
    0x00, 0x00, 0x00, 0x00, 0x00, 0x00, 0x09, 0x0c, 0x00, 0x0c, 0x00, 0x0b, 0x00,
    0x00, 0x00, 0x00, 0x00, 0x04, 0x00, 0x0c, 0x00, 0x00, 0x00, 0x16, 0x00, 0x00,
    0x00, 0x00, 0x00, 0x00, 0x16, 0xf0, 0xff, 0xff, 0xff, 0x11, 0x00, 0x00, 0x00,
    0x02, 0x00, 0x00, 0x00, 0x00, 0x00, 0x00, 0x11, 0x0c, 0x00, 0x10, 0x00, 0x0f,
    0x00, 0x00, 0x00, 0x08, 0x00, 0x04, 0x00, 0x0c, 0x00, 0x00, 0x00, 0x03, 0x00,
    0x00, 0x00, 0x03, 0x00, 0x00, 0x00, 0x00, 0x00, 0x00, 0x03,
};
const int cnn_some_quantized_model_len = 12984;
