
// This is a TensorFlow Lite model file that has been converted into a C data
// array using the tensorflow.lite.util.convert_bytes_to_c_source() function.
// This form is useful for compiling into a binary for devices that don't have a
// file system.

#include "cnn_model.h"

// We need to keep the data array aligned on some architectures.
#ifdef __has_attribute
#define HAVE_ATTRIBUTE(x) __has_attribute(x)
#else
#define HAVE_ATTRIBUTE(x) 0
#endif
#if HAVE_ATTRIBUTE(aligned) || (defined(__GNUC__) && !defined(__clang__))
#define DATA_ALIGN_ATTRIBUTE __attribute__((aligned(4)))
#else
#define DATA_ALIGN_ATTRIBUTE
#endif

const unsigned char cnn_model[] DATA_ALIGN_ATTRIBUTE = {
    0x1c, 0x00, 0x00, 0x00, 0x54, 0x46, 0x4c, 0x33, 0x14, 0x00, 0x20, 0x00, 0x1c,
    0x00, 0x18, 0x00, 0x14, 0x00, 0x10, 0x00, 0x0c, 0x00, 0x00, 0x00, 0x08, 0x00,
    0x04, 0x00, 0x14, 0x00, 0x00, 0x00, 0x1c, 0x00, 0x00, 0x00, 0x84, 0x00, 0x00,
    0x00, 0xdc, 0x00, 0x00, 0x00, 0x84, 0x26, 0x00, 0x00, 0x94, 0x26, 0x00, 0x00,
    0x8c, 0x2d, 0x00, 0x00, 0x03, 0x00, 0x00, 0x00, 0x01, 0x00, 0x00, 0x00, 0x04,
    0x00, 0x00, 0x00, 0x66, 0xd8, 0xff, 0xff, 0x0c, 0x00, 0x00, 0x00, 0x1c, 0x00,
    0x00, 0x00, 0x38, 0x00, 0x00, 0x00, 0x0f, 0x00, 0x00, 0x00, 0x73, 0x65, 0x72,
    0x76, 0x69, 0x6e, 0x67, 0x5f, 0x64, 0x65, 0x66, 0x61, 0x75, 0x6c, 0x74, 0x00,
    0x01, 0x00, 0x00, 0x00, 0x04, 0x00, 0x00, 0x00, 0x98, 0xff, 0xff, 0xff, 0x0b,
    0x00, 0x00, 0x00, 0x04, 0x00, 0x00, 0x00, 0x07, 0x00, 0x00, 0x00, 0x64, 0x65,
    0x6e, 0x73, 0x65, 0x5f, 0x39, 0x00, 0x01, 0x00, 0x00, 0x00, 0x04, 0x00, 0x00,
    0x00, 0x5a, 0xd9, 0xff, 0xff, 0x04, 0x00, 0x00, 0x00, 0x08, 0x00, 0x00, 0x00,
    0x69, 0x6e, 0x70, 0x75, 0x74, 0x5f, 0x31, 0x30, 0x00, 0x00, 0x00, 0x00, 0x02,
    0x00, 0x00, 0x00, 0x34, 0x00, 0x00, 0x00, 0x04, 0x00, 0x00, 0x00, 0xdc, 0xff,
    0xff, 0xff, 0x0e, 0x00, 0x00, 0x00, 0x04, 0x00, 0x00, 0x00, 0x13, 0x00, 0x00,
    0x00, 0x43, 0x4f, 0x4e, 0x56, 0x45, 0x52, 0x53, 0x49, 0x4f, 0x4e, 0x5f, 0x4d,
    0x45, 0x54, 0x41, 0x44, 0x41, 0x54, 0x41, 0x00, 0x08, 0x00, 0x0c, 0x00, 0x08,
    0x00, 0x04, 0x00, 0x08, 0x00, 0x00, 0x00, 0x0d, 0x00, 0x00, 0x00, 0x04, 0x00,
    0x00, 0x00, 0x13, 0x00, 0x00, 0x00, 0x6d, 0x69, 0x6e, 0x5f, 0x72, 0x75, 0x6e,
    0x74, 0x69, 0x6d, 0x65, 0x5f, 0x76, 0x65, 0x72, 0x73, 0x69, 0x6f, 0x6e, 0x00,
    0x0f, 0x00, 0x00, 0x00, 0xa4, 0x25, 0x00, 0x00, 0x9c, 0x25, 0x00, 0x00, 0x0c,
    0x25, 0x00, 0x00, 0x7c, 0x23, 0x00, 0x00, 0x64, 0x23, 0x00, 0x00, 0x8c, 0x22,
    0x00, 0x00, 0xbc, 0x00, 0x00, 0x00, 0xb4, 0x00, 0x00, 0x00, 0xac, 0x00, 0x00,
    0x00, 0xa4, 0x00, 0x00, 0x00, 0x9c, 0x00, 0x00, 0x00, 0x94, 0x00, 0x00, 0x00,
    0x8c, 0x00, 0x00, 0x00, 0x6c, 0x00, 0x00, 0x00, 0x04, 0x00, 0x00, 0x00, 0x0e,
    0xda, 0xff, 0xff, 0x04, 0x00, 0x00, 0x00, 0x58, 0x00, 0x00, 0x00, 0x0c, 0x00,
    0x00, 0x00, 0x08, 0x00, 0x0e, 0x00, 0x08, 0x00, 0x04, 0x00, 0x08, 0x00, 0x00,
    0x00, 0x10, 0x00, 0x00, 0x00, 0x28, 0x00, 0x00, 0x00, 0x00, 0x00, 0x06, 0x00,
    0x08, 0x00, 0x04, 0x00, 0x06, 0x00, 0x00, 0x00, 0x04, 0x00, 0x00, 0x00, 0x01,
    0x00, 0x00, 0x00, 0xea, 0x03, 0x00, 0x00, 0x00, 0x00, 0x0a, 0x00, 0x10, 0x00,
    0x0c, 0x00, 0x08, 0x00, 0x04, 0x00, 0x0a, 0x00, 0x00, 0x00, 0x02, 0x00, 0x00,
    0x00, 0x02, 0x00, 0x00, 0x00, 0x04, 0x00, 0x00, 0x00, 0x06, 0x00, 0x00, 0x00,
    0x32, 0x2e, 0x31, 0x36, 0x2e, 0x31, 0x00, 0x00, 0x72, 0xda, 0xff, 0xff, 0x04,
    0x00, 0x00, 0x00, 0x10, 0x00, 0x00, 0x00, 0x32, 0x2e, 0x33, 0x2e, 0x30, 0x00,
    0x00, 0x00, 0x00, 0x00, 0x00, 0x00, 0x00, 0x00, 0x00, 0x00, 0x40, 0xd4, 0xff,
    0xff, 0x44, 0xd4, 0xff, 0xff, 0x48, 0xd4, 0xff, 0xff, 0x4c, 0xd4, 0xff, 0xff,
    0x50, 0xd4, 0xff, 0xff, 0x54, 0xd4, 0xff, 0xff, 0xa6, 0xda, 0xff, 0xff, 0x04,
    0x00, 0x00, 0x00, 0xc0, 0x21, 0x00, 0x00, 0xf6, 0x64, 0x6d, 0x6e, 0x44, 0x56,
    0xf9, 0xeb, 0x9c, 0x85, 0x34, 0x2f, 0xa7, 0x64, 0x8c, 0xde, 0xe6, 0x7e, 0x03,
    0xe1, 0x6e, 0xae, 0x46, 0x3f, 0x6d, 0xec, 0x49, 0x9a, 0xa2, 0x15, 0xe9, 0xdd,
    0x1a, 0x86, 0x46, 0x68, 0xfd, 0x0f, 0xdc, 0x30, 0x79, 0xe6, 0x31, 0xf2, 0xb5,
    0xa6, 0x2e, 0xfa, 0x5f, 0x46, 0xc8, 0xc7, 0xbf, 0x5d, 0x94, 0xfb, 0xbd, 0x8b,
    0x8f, 0xfc, 0x0a, 0x7b, 0x94, 0xba, 0x1c, 0xde, 0xd5, 0x69, 0x70, 0xf9, 0xc5,
    0x7a, 0xb1, 0xb5, 0x10, 0x75, 0xc5, 0x84, 0x6e, 0xc3, 0x76, 0x41, 0xb7, 0xc1,
    0xc1, 0x34, 0x8f, 0xdf, 0x1f, 0x63, 0x78, 0x67, 0x3d, 0xaa, 0xdf, 0x90, 0x22,
    0xf6, 0x5c, 0x1c, 0x26, 0x02, 0x83, 0x8d, 0x02, 0x68, 0x91, 0x2f, 0xd7, 0xa9,
    0xa4, 0x0e, 0xd0, 0xf0, 0xc0, 0x3b, 0x83, 0xc3, 0xce, 0x85, 0x49, 0x07, 0xef,
    0x26, 0x88, 0xab, 0x4c, 0x7c, 0x20, 0xa9, 0x8c, 0xbb, 0x39, 0x1d, 0xa3, 0x86,
    0xfb, 0xfc, 0xd3, 0x49, 0x60, 0xc8, 0x9e, 0x7f, 0x09, 0xd0, 0xd9, 0xaf, 0xe1,
    0xb2, 0x6d, 0xd5, 0x6c, 0x22, 0x79, 0x00, 0x9f, 0xc6, 0xf4, 0x73, 0xbd, 0xd4,
    0x89, 0x64, 0x2a, 0x98, 0xbe, 0x5b, 0xd6, 0x76, 0xbe, 0x42, 0xc5, 0xa7, 0xc6,
    0x32, 0x00, 0xda, 0x4c, 0xad, 0x0d, 0x0c, 0xbe, 0x7b, 0x66, 0xd8, 0x6e, 0x55,
    0xd9, 0xf9, 0x9e, 0x89, 0x83, 0x1a, 0x70, 0x63, 0x36, 0xd1, 0x0b, 0xf8, 0x5d,
    0x85, 0x2f, 0xae, 0x3c, 0x5b, 0x49, 0x6a, 0x17, 0x83, 0xfb, 0xc5, 0xff, 0x7b,
    0xc9, 0x87, 0x68, 0x8c, 0x35, 0x42, 0xb1, 0x7a, 0x5e, 0x47, 0x46, 0xfa, 0xc9,
    0x74, 0x54, 0xf9, 0x33, 0x33, 0xcb, 0xbd, 0x58, 0xc9, 0xbb, 0x58, 0x14, 0x94,
    0x9d, 0xd4, 0x37, 0x33, 0x46, 0x64, 0x9f, 0x63, 0x11, 0x40, 0x78, 0x54, 0x12,
    0x64, 0x6e, 0xe6, 0x6a, 0xab, 0x54, 0xda, 0xbf, 0x40, 0x2b, 0x63, 0x68, 0xbc,
    0x3c, 0x9c, 0x34, 0x20, 0x9b, 0x3e, 0xe1, 0xca, 0x3b, 0x4e, 0xe4, 0x2d, 0x22,
    0x66, 0xa5, 0x16, 0xcb, 0x59, 0xad, 0xe9, 0xe7, 0xe9, 0xba, 0xf7, 0x8a, 0x79,
    0xcb, 0x2a, 0x32, 0x0e, 0x49, 0x91, 0xd6, 0xea, 0x69, 0x21, 0xef, 0x8e, 0x3d,
    0x2b, 0x68, 0x19, 0xec, 0x91, 0x38, 0x50, 0x9a, 0x6d, 0x30, 0x45, 0xdd, 0xce,
    0x86, 0xdf, 0x20, 0x8a, 0x46, 0x20, 0x12, 0xcb, 0x89, 0xe5, 0x17, 0x52, 0x20,
    0x18, 0xd7, 0xe1, 0xa7, 0x92, 0x5c, 0x4d, 0xd3, 0x38, 0xaa, 0xf4, 0xc9, 0x5a,
    0x55, 0x83, 0x0e, 0xfd, 0xf5, 0x8d, 0xe4, 0xa3, 0xa4, 0x6f, 0xfb, 0xa7, 0x8f,
    0x67, 0xef, 0x0b, 0xe5, 0x0a, 0x27, 0x07, 0xb8, 0x66, 0xf5, 0x6b, 0x88, 0x6c,
    0x36, 0x41, 0x48, 0x1a, 0x16, 0xde, 0x6b, 0x52, 0xd8, 0xdb, 0xce, 0x2a, 0x97,
    0x0f, 0x6d, 0x2b, 0xd2, 0xd7, 0xc7, 0x47, 0x68, 0x14, 0xdb, 0xcc, 0x71, 0x65,
    0x5e, 0xe3, 0xc4, 0x2f, 0xc9, 0x4e, 0x15, 0x66, 0xb3, 0xbb, 0x9d, 0xac, 0x09,
    0x6f, 0x34, 0x75, 0x0b, 0xbc, 0xf9, 0x68, 0x2f, 0xc3, 0xc2, 0x31, 0xc5, 0x13,
    0x79, 0xf2, 0x68, 0x98, 0xe5, 0xbe, 0x77, 0x04, 0xb8, 0xad, 0xef, 0x60, 0x1a,
    0xc1, 0x6d, 0x8a, 0x2e, 0xca, 0xd1, 0xb7, 0x73, 0x29, 0xf8, 0x16, 0xe1, 0xdd,
    0x49, 0x0b, 0xc8, 0x1a, 0x1e, 0xfd, 0xe3, 0xc8, 0xd7, 0x08, 0xd8, 0xd3, 0x98,
    0x8a, 0xcf, 0xd7, 0x0b, 0xf6, 0xdc, 0x48, 0x48, 0x10, 0xf0, 0xd1, 0x7e, 0x41,
    0xde, 0x10, 0x22, 0x7f, 0x8a, 0x00, 0x34, 0xab, 0x43, 0x5f, 0xa9, 0xde, 0x94,
    0xb7, 0xbc, 0x77, 0x4b, 0x5c, 0x0b, 0xb5, 0xa8, 0x79, 0xe7, 0x49, 0x02, 0x66,
    0x7b, 0xe4, 0x9a, 0xdd, 0xe0, 0x30, 0xa3, 0xee, 0x88, 0x32, 0x34, 0x46, 0x52,
    0xa9, 0xca, 0x43, 0xff, 0xdb, 0x4e, 0xcb, 0x18, 0x5c, 0x2f, 0xac, 0xb5, 0x60,
    0x61, 0xfb, 0x29, 0x6f, 0x25, 0xa9, 0xe5, 0xa3, 0x96, 0x74, 0xb4, 0x85, 0xd1,
    0x82, 0x84, 0x0d, 0x09, 0xe7, 0x2c, 0xcf, 0xca, 0x5b, 0x3b, 0x70, 0x98, 0xad,
    0x00, 0x73, 0xa0, 0x99, 0x54, 0xcf, 0x88, 0x05, 0x5d, 0xf0, 0x4b, 0xa6, 0xd2,
    0xb2, 0xff, 0x4c, 0x5b, 0x29, 0xbc, 0x53, 0xc1, 0x30, 0xc5, 0x2c, 0xd7, 0x3c,
    0x54, 0x9f, 0xfe, 0xdd, 0xfb, 0x4d, 0xc4, 0x27, 0xfd, 0x63, 0x89, 0x9e, 0x00,
    0x3b, 0x3b, 0x7f, 0x48, 0xf6, 0xd7, 0xa8, 0x31, 0x54, 0xc2, 0xcb, 0x97, 0xa9,
    0x2d, 0x7d, 0xd4, 0x47, 0xae, 0x6b, 0x85, 0x92, 0x85, 0x98, 0x70, 0xd9, 0xb2,
    0x31, 0x97, 0x51, 0xd2, 0x26, 0x68, 0x62, 0x34, 0x48, 0x17, 0xf8, 0xe5, 0xa6,
    0xac, 0x16, 0x79, 0x6e, 0x43, 0xee, 0x88, 0x7c, 0xee, 0xea, 0xab, 0x9f, 0xac,
    0x65, 0x18, 0x71, 0x46, 0xd5, 0x6e, 0xe6, 0x6a, 0x94, 0x2f, 0x48, 0x38, 0xf4,
    0x38, 0x34, 0xae, 0x6f, 0xf4, 0x18, 0x8c, 0x57, 0x82, 0xf4, 0xd7, 0xea, 0x7e,
    0xf7, 0xa9, 0x29, 0xe3, 0x60, 0x76, 0x70, 0xaa, 0xa3, 0xcf, 0x4a, 0x62, 0xe5,
    0x68, 0x9e, 0x3b, 0x40, 0x3d, 0xad, 0x3c, 0x22, 0xe4, 0x7c, 0x9f, 0x73, 0x19,
    0x6b, 0x67, 0xea, 0x8a, 0x66, 0xe0, 0xb2, 0x94, 0xb6, 0x0e, 0x7f, 0x2c, 0xd9,
    0x23, 0x6b, 0xf4, 0x2e, 0x9d, 0x45, 0xd5, 0x22, 0x24, 0xda, 0x5c, 0xc3, 0x35,
    0x3a, 0x56, 0xd3, 0xd9, 0x8f, 0xeb, 0xa8, 0x70, 0x46, 0x79, 0xd2, 0xfb, 0x71,
    0xd3, 0x2e, 0xdb, 0xc5, 0x98, 0x85, 0x18, 0x79, 0xb6, 0xa2, 0x29, 0x57, 0x89,
    0xa6, 0x00, 0xd2, 0xfd, 0xf8, 0x4b, 0x51, 0x12, 0xd1, 0x25, 0x6b, 0xbf, 0x33,
    0x58, 0xd2, 0x44, 0x91, 0x4f, 0x38, 0xfb, 0xe8, 0x9b, 0x7b, 0xad, 0x10, 0x4e,
    0x33, 0x20, 0x42, 0x82, 0x5e, 0x4d, 0xf8, 0x8a, 0x29, 0x90, 0xf6, 0xb8, 0xa3,
    0x85, 0x1f, 0x93, 0xac, 0x89, 0xef, 0xfc, 0x3d, 0xf8, 0xb9, 0xb2, 0xf8, 0x2a,
    0xf4, 0x2a, 0x31, 0x76, 0xfe, 0x10, 0xe4, 0x86, 0x9d, 0xf0, 0xd3, 0x55, 0x65,
    0x1b, 0x70, 0x2b, 0xee, 0x87, 0xfd, 0xd3, 0x1c, 0x48, 0xd3, 0x13, 0x7a, 0x36,
    0x64, 0x26, 0x9f, 0x11, 0x70, 0xbf, 0xc4, 0x67, 0xbc, 0x8e, 0x1d, 0x7a, 0x6b,
    0x9d, 0x94, 0x39, 0xb8, 0x82, 0x7e, 0x64, 0x30, 0xe7, 0x2b, 0x77, 0x46, 0xdc,
    0x1d, 0xb3, 0xbf, 0x27, 0x14, 0x73, 0x14, 0x85, 0x16, 0xf6, 0x9d, 0x1b, 0xde,
    0x82, 0x2d, 0xaf, 0x11, 0x9b, 0x7d, 0xd6, 0x0e, 0xdb, 0x2d, 0x42, 0x0e, 0xae,
    0xbf, 0x0f, 0x79, 0x73, 0xa2, 0x1c, 0x9d, 0x98, 0x8b, 0x4d, 0x6a, 0x3a, 0xc5,
    0xfc, 0x45, 0x31, 0x50, 0x55, 0x4f, 0x9f, 0x7b, 0xb2, 0xbc, 0x95, 0x7a, 0x19,
    0xdc, 0x79, 0x32, 0x9d, 0xb8, 0xc6, 0x2c, 0xca, 0xf7, 0x2a, 0x88, 0xe4, 0xf2,
    0xdf, 0xe9, 0xc7, 0x32, 0x03, 0x23, 0x8c, 0x1d, 0x79, 0x9a, 0x51, 0x96, 0x08,
    0xc5, 0x1f, 0x34, 0x66, 0xc6, 0x3b, 0xfb, 0xb0, 0x45, 0x0f, 0xd3, 0x14, 0x71,
    0x83, 0xc3, 0x35, 0xe7, 0xcc, 0x12, 0x00, 0x11, 0xed, 0x3e, 0x42, 0x1b, 0xc2,
    0xdd, 0x8b, 0xaa, 0x22, 0x91, 0x4b, 0x19, 0x04, 0xff, 0x27, 0xc9, 0xba, 0x9d,
    0x9b, 0xb1, 0xdc, 0xe0, 0x86, 0xf2, 0x69, 0x54, 0x0a, 0x2d, 0x7a, 0x12, 0x41,
    0x2e, 0x65, 0x96, 0x86, 0x3e, 0x1b, 0x9b, 0x45, 0xc5, 0xec, 0x65, 0x77, 0x00,
    0x5e, 0xbc, 0xe6, 0x4d, 0x88, 0xdf, 0x07, 0xd8, 0xb0, 0x52, 0xa7, 0xa5, 0x18,
    0x92, 0x59, 0x49, 0x54, 0xa5, 0xdd, 0xb5, 0x46, 0xb0, 0xa8, 0xc4, 0xb5, 0x9c,
    0x3d, 0x6f, 0x5a, 0xdb, 0x00, 0x50, 0xfa, 0xb5, 0xe7, 0xda, 0x9b, 0x7b, 0xb2,
    0xa6, 0xa6, 0x88, 0xba, 0x0a, 0x3e, 0x1e, 0x48, 0xee, 0x4f, 0xea, 0x06, 0x09,
    0x31, 0x91, 0x32, 0x76, 0x48, 0x8a, 0xff, 0x08, 0x4d, 0x07, 0xce, 0xf9, 0xe8,
    0xfe, 0x25, 0x6b, 0x4b, 0xbf, 0x63, 0xb5, 0xe8, 0x63, 0x49, 0x8b, 0xb4, 0xa1,
    0x2c, 0xcf, 0xd3, 0x2c, 0x3d, 0xa0, 0x83, 0x23, 0x43, 0x5a, 0x4b, 0x6c, 0x00,
    0x8d, 0x7f, 0xd5, 0x47, 0x62, 0x52, 0x32, 0xdd, 0x7f, 0xe3, 0x1f, 0x1c, 0x96,
    0xb1, 0xb9, 0x79, 0x22, 0xe2, 0x0f, 0x34, 0x2f, 0xd6, 0x30, 0xbf, 0x1e, 0x43,
    0x23, 0xed, 0x2e, 0x97, 0x53, 0x1e, 0xd9, 0x02, 0xcb, 0xfa, 0x2e, 0x0a, 0x48,
    0xa0, 0x38, 0x21, 0x9c, 0xe1, 0x9f, 0xc5, 0x86, 0x6a, 0xeb, 0xad, 0x11, 0x9e,
    0x78, 0x02, 0xa3, 0xde, 0x82, 0x2c, 0x2e, 0x3b, 0x7b, 0x57, 0x07, 0x4d, 0x67,
    0xf1, 0xdb, 0xb5, 0xf3, 0xf4, 0xb4, 0xae, 0x6d, 0xc6, 0x10, 0x42, 0x35, 0xb5,
    0xb2, 0xe2, 0x9e, 0xa0, 0x31, 0x90, 0x25, 0x17, 0x5b, 0x8c, 0x78, 0x24, 0xe0,
    0xc5, 0x78, 0x87, 0x8c, 0x1f, 0xd2, 0xcf, 0xa9, 0x4c, 0x38, 0xa6, 0x8a, 0xfc,
    0xc9, 0xfb, 0xd3, 0x55, 0xe7, 0x45, 0xc6, 0x47, 0x4e, 0x89, 0xd4, 0xf2, 0xf4,
    0x3c, 0x60, 0xfa, 0x3c, 0x95, 0x88, 0x67, 0x26, 0x00, 0xd8, 0xc7, 0x05, 0xc9,
    0x5e, 0x26, 0x94, 0xc7, 0xeb, 0xc2, 0x4f, 0xc1, 0xd2, 0xdd, 0xaf, 0x58, 0x02,
    0x2e, 0x74, 0x41, 0x0d, 0xe8, 0x2a, 0x0e, 0x1a, 0xc2, 0xc6, 0x2e, 0xf2, 0x5d,
    0x2a, 0x0a, 0x14, 0xd1, 0xd5, 0x97, 0x9b, 0xda, 0xce, 0x4f, 0x79, 0x9a, 0xc0,
    0xee, 0x74, 0x06, 0x2c, 0x3d, 0x85, 0xb1, 0x62, 0x00, 0x1d, 0xda, 0xa7, 0x9b,
    0xfc, 0xe8, 0xb6, 0xbe, 0x95, 0x05, 0x45, 0x00, 0x31, 0xf6, 0x1b, 0x7b, 0x8b,
    0x36, 0xc5, 0xf5, 0xd3, 0x0b, 0xb5, 0xde, 0xb6, 0x9b, 0xef, 0xfb, 0xd5, 0xf9,
    0x9d, 0x2b, 0x48, 0x7d, 0x40, 0x46, 0x89, 0x11, 0xa9, 0x2e, 0x2a, 0x68, 0x54,
    0xe2, 0x8b, 0x65, 0xaf, 0x9d, 0x8b, 0x58, 0x76, 0xf4, 0x8b, 0x2b, 0xf8, 0xf0,
    0xae, 0xce, 0xd7, 0x7f, 0x2a, 0x29, 0x61, 0x1e, 0xca, 0xd0, 0x8d, 0xf7, 0xb9,
    0x75, 0x10, 0xe4, 0xe1, 0xe1, 0xb8, 0x46, 0x75, 0x37, 0xa5, 0x04, 0x8c, 0x99,
    0xb4, 0x33, 0xb8, 0x95, 0x35, 0xe8, 0x84, 0xd7, 0x6c, 0x59, 0xe7, 0x07, 0xa8,
    0x00, 0x53, 0x4b, 0xe7, 0x2a, 0x4d, 0xfd, 0x69, 0x27, 0xb3, 0x18, 0x70, 0x63,
    0xa1, 0x06, 0xee, 0xfa, 0x35, 0x8e, 0x4e, 0x1b, 0x2c, 0xba, 0x70, 0x15, 0x19,
    0xaf, 0xa4, 0xf0, 0xf9, 0x3b, 0x18, 0xa1, 0xa8, 0xc6, 0x00, 0xf7, 0x9e, 0xcb,
    0xb7, 0x53, 0x2b, 0x01, 0x47, 0xc8, 0x3a, 0x93, 0x50, 0x38, 0xe2, 0xe1, 0x39,
    0xa1, 0xbb, 0xc7, 0x9d, 0x93, 0x38, 0x43, 0x9f, 0xbe, 0x09, 0x8e, 0xfb, 0xa5,
    0xc6, 0x05, 0x02, 0xa9, 0xed, 0x54, 0x3b, 0x97, 0xed, 0xa1, 0x77, 0x66, 0x2e,
    0x44, 0xfb, 0xfc, 0x1d, 0x1e, 0x21, 0x1f, 0xad, 0xe5, 0xb1, 0x23, 0xd4, 0x4e,
    0x95, 0xf3, 0x40, 0xaf, 0xc6, 0xe4, 0x9d, 0x2f, 0x42, 0xdb, 0xeb, 0x94, 0xce,
    0x99, 0x94, 0x59, 0xff, 0x66, 0x63, 0xf8, 0x27, 0x86, 0x01, 0x1a, 0xb1, 0xed,
    0x86, 0x31, 0xbe, 0x87, 0x76, 0x8b, 0x92, 0x82, 0xc3, 0x78, 0xb1, 0x55, 0xa0,
    0x12, 0x62, 0xe4, 0xda, 0xd9, 0xf2, 0x9f, 0x74, 0x0f, 0x15, 0xb3, 0x68, 0x12,
    0x93, 0x92, 0x27, 0xd6, 0xcf, 0xf1, 0xf6, 0xa9, 0x97, 0x31, 0x65, 0x9c, 0x66,
    0xce, 0xf1, 0x0f, 0x8d, 0x05, 0x9b, 0x7d, 0xb6, 0xff, 0x05, 0x2d, 0x78, 0x83,
    0x07, 0x2e, 0xd8, 0x21, 0x07, 0x27, 0x0d, 0xb5, 0xf3, 0xf3, 0x92, 0x01, 0x6a,
    0xee, 0x26, 0x30, 0xd7, 0x44, 0x93, 0x0e, 0xd8, 0x7f, 0xfb, 0xa3, 0x6a, 0x4b,
    0x78, 0x1f, 0x0c, 0xed, 0x60, 0x39, 0x28, 0xc7, 0xd2, 0xb1, 0xd3, 0x7e, 0x11,
    0xe1, 0x79, 0x4b, 0x33, 0xfa, 0x3a, 0xff, 0x1f, 0xea, 0x1c, 0x84, 0xfe, 0x2c,
    0x59, 0x03, 0xa6, 0x22, 0xf9, 0xda, 0x71, 0x18, 0x45, 0xe5, 0x48, 0x3d, 0x6d,
    0xfa, 0x09, 0xc4, 0x44, 0x8a, 0x2a, 0x47, 0x79, 0xd8, 0x57, 0x90, 0x11, 0x03,
    0xd0, 0x39, 0x36, 0x76, 0xbf, 0xda, 0xed, 0x4e, 0xac, 0x76, 0xd1, 0x04, 0x07,
    0x87, 0x23, 0xaa, 0x9c, 0x54, 0x65, 0xc3, 0x7d, 0x89, 0x9f, 0x02, 0xf3, 0xc1,
    0x8d, 0xb9, 0x54, 0x38, 0xab, 0xf9, 0x32, 0x37, 0x45, 0x67, 0xb5, 0xce, 0xd6,
    0x65, 0x58, 0x25, 0xa7, 0x6e, 0xdc, 0x78, 0x3f, 0x03, 0xe7, 0x92, 0xd3, 0xc8,
    0x11, 0x5b, 0xd1, 0x18, 0x64, 0xb4, 0xa6, 0x06, 0x71, 0xde, 0xd5, 0xba, 0x58,
    0xeb, 0x50, 0x1d, 0x8f, 0xda, 0x22, 0x91, 0xb0, 0xdf, 0x3f, 0x9b, 0xe3, 0xb2,
    0xcb, 0xb6, 0x2b, 0x1b, 0x54, 0x7e, 0xce, 0xbb, 0xaa, 0x5d, 0x3f, 0x65, 0xcf,
    0x18, 0x76, 0x10, 0xe7, 0xed, 0x9e, 0x85, 0x92, 0x17, 0x1f, 0x14, 0xe0, 0x5c,
    0x5d, 0xc0, 0x6c, 0xa7, 0x3a, 0xfd, 0x44, 0x9c, 0x31, 0x11, 0xa2, 0x39, 0xed,
    0x34, 0xcd, 0x9c, 0xca, 0x7c, 0xe6, 0x6d, 0x60, 0x1c, 0x28, 0x6f, 0x70, 0x1d,
    0x60, 0x47, 0x39, 0x99, 0x67, 0xa7, 0xd2, 0x75, 0x7a, 0x18, 0x3b, 0xc4, 0x4a,
    0xbd, 0x75, 0xe8, 0x65, 0xd9, 0x24, 0x5f, 0x12, 0x1a, 0xa3, 0x04, 0xe3, 0x6e,
    0x02, 0x94, 0xb8, 0xb8, 0xa4, 0xe1, 0xe5, 0x25, 0x86, 0x0a, 0xb9, 0x5f, 0xd8,
    0xed, 0x5f, 0x13, 0x24, 0xd1, 0x79, 0xa4, 0x46, 0xb5, 0x4e, 0xb3, 0xcb, 0x56,
    0x60, 0x21, 0xf9, 0x59, 0x25, 0x96, 0x0c, 0xf7, 0x15, 0x62, 0xd6, 0xd7, 0xd0,
    0x28, 0x9d, 0xb5, 0xd1, 0x25, 0xd4, 0xd7, 0xd5, 0xf6, 0x31, 0x85, 0xf9, 0x66,
    0x49, 0x70, 0xfd, 0xaa, 0x37, 0xff, 0x1d, 0x1f, 0x4d, 0x12, 0x93, 0xb3, 0xe0,
    0xdd, 0x36, 0x7d, 0xbf, 0x14, 0xf9, 0x8f, 0xd7, 0xa0, 0x5f, 0xc6, 0x5f, 0xcc,
    0xa9, 0x54, 0xf6, 0xfd, 0xe2, 0xbf, 0xe6, 0x9c, 0x1c, 0xf4, 0xda, 0x1b, 0xe2,
    0x48, 0x6b, 0x4c, 0x10, 0x68, 0x00, 0xcd, 0xdb, 0xc9, 0x60, 0x8a, 0x1d, 0xeb,
    0xb1, 0x8c, 0x5e, 0x7e, 0xa4, 0xec, 0x30, 0xff, 0x11, 0xd0, 0x85, 0xaf, 0xdd,
    0x40, 0x4e, 0x76, 0xe6, 0x59, 0xed, 0xe3, 0x60, 0x9a, 0xec, 0x61, 0xb9, 0xa5,
    0xf1, 0xb3, 0x6a, 0x59, 0xdb, 0x32, 0xca, 0xa3, 0x95, 0x22, 0x3c, 0xbc, 0x30,
    0x24, 0xe3, 0x3f, 0xbc, 0x96, 0x73, 0x9f, 0x60, 0x9e, 0xdf, 0x79, 0x17, 0x19,
    0xe1, 0xa7, 0x16, 0x6a, 0x22, 0x8b, 0xc2, 0xbd, 0xd0, 0x02, 0x5b, 0x34, 0x1f,
    0xd6, 0xfa, 0xd3, 0xde, 0xd2, 0xc0, 0x2d, 0xfe, 0xb4, 0xd7, 0xea, 0x5a, 0x00,
    0x06, 0x2e, 0xb0, 0xf9, 0x7d, 0x99, 0xa2, 0xba, 0xbb, 0xc2, 0x29, 0x2b, 0xf2,
    0xf9, 0x87, 0xc5, 0x61, 0x6a, 0xc8, 0xe7, 0x94, 0x85, 0x97, 0x6c, 0xbd, 0x54,
    0xc3, 0x24, 0xd3, 0x12, 0x60, 0x3c, 0x9e, 0xda, 0xa4, 0x45, 0xc2, 0x67, 0x0a,
    0x82, 0x7c, 0x4e, 0xa9, 0x2d, 0x2f, 0x63, 0xcf, 0x11, 0xd7, 0x68, 0x6c, 0x1d,
    0xff, 0xd1, 0x10, 0xc7, 0xd3, 0xc8, 0x8b, 0x06, 0x56, 0xf3, 0x24, 0x39, 0xd2,
    0x46, 0x3b, 0x9a, 0x94, 0x63, 0x22, 0xff, 0x69, 0xd8, 0x82, 0x59, 0x17, 0x0c,
    0xf0, 0x8e, 0xd3, 0x26, 0xde, 0xc0, 0xa8, 0xd5, 0xf5, 0xf9, 0x26, 0x1d, 0x61,
    0x50, 0xc1, 0x78, 0xc0, 0x34, 0x05, 0x0a, 0xfd, 0x09, 0x94, 0x5a, 0x92, 0xe9,
    0x34, 0xc5, 0x65, 0xbd, 0xb3, 0x6c, 0x27, 0x8f, 0xd0, 0x8c, 0x9a, 0x6b, 0x8f,
    0xa2, 0x3e, 0xd9, 0xbc, 0xf3, 0xd8, 0xf3, 0x4b, 0x9c, 0xa9, 0x6b, 0xe9, 0x25,
    0x86, 0xfe, 0x9d, 0xe6, 0x5f, 0x77, 0x57, 0x5c, 0x02, 0x4a, 0x14, 0x12, 0xc8,
    0x85, 0x12, 0xcc, 0xda, 0x8c, 0xda, 0xb6, 0x59, 0x68, 0x14, 0xc0, 0x24, 0x12,
    0xae, 0x2b, 0xb7, 0xd9, 0x63, 0x4e, 0x9e, 0x20, 0xc9, 0x7c, 0xbd, 0xb3, 0x33,
    0x2e, 0x2b, 0x11, 0xdb, 0x82, 0xc8, 0x1e, 0xb3, 0x86, 0xf2, 0x65, 0x7d, 0x97,
    0x07, 0xc5, 0x8a, 0xd0, 0xd8, 0xb6, 0x8a, 0xff, 0xae, 0xe1, 0x51, 0xfe, 0x8d,
    0x45, 0x17, 0x1e, 0x38, 0x49, 0xe4, 0x3e, 0xc0, 0x5c, 0x84, 0xc3, 0xa3, 0xb6,
    0x95, 0xa6, 0x96, 0xaf, 0x85, 0x72, 0x0a, 0x7d, 0x04, 0x85, 0xb4, 0x1a, 0xb9,
    0x40, 0x86, 0x67, 0x58, 0x13, 0x03, 0xf8, 0x27, 0x68, 0x9b, 0xf9, 0x89, 0xa7,
    0xd7, 0x5d, 0x53, 0x33, 0x1b, 0x82, 0x62, 0x31, 0x66, 0x25, 0x3a, 0x27, 0x2d,
    0x12, 0xf8, 0xf8, 0xce, 0x1f, 0x8c, 0x91, 0x08, 0x3f, 0xea, 0x17, 0xb0, 0xd2,
    0x1d, 0x10, 0x6d, 0x9e, 0xf2, 0x1a, 0xd1, 0x49, 0x41, 0xeb, 0xe5, 0xe7, 0xb2,
    0xf4, 0x2c, 0xd9, 0x32, 0xc3, 0x0a, 0xf9, 0xb9, 0x1b, 0x27, 0xd1, 0xb2, 0xe6,
    0xde, 0x0f, 0x87, 0x6c, 0xd1, 0x7c, 0x20, 0x52, 0xee, 0xf4, 0x64, 0x97, 0x24,
    0xbb, 0xdb, 0x85, 0x5c, 0x72, 0x9e, 0xf2, 0x41, 0xc0, 0x43, 0xa2, 0xef, 0x17,
    0x46, 0x4f, 0x09, 0xcf, 0x24, 0xff, 0xb6, 0xd7, 0x14, 0xd7, 0xf6, 0xd1, 0x75,
    0x2d, 0xef, 0x0b, 0xc3, 0x88, 0x0f, 0x19, 0x93, 0x3c, 0x40, 0x68, 0x6b, 0x91,
    0x68, 0x7a, 0x57, 0x5b, 0x1c, 0x3b, 0xc7, 0x54, 0x3d, 0x3d, 0x89, 0x82, 0xed,
    0x2c, 0x9c, 0x08, 0xed, 0xf6, 0xf2, 0x72, 0x70, 0x1d, 0x9c, 0x6a, 0x5f, 0xfc,
    0x59, 0xcd, 0x21, 0x9d, 0x60, 0x21, 0x6f, 0xa4, 0x13, 0xe5, 0x2b, 0x7d, 0x7e,
    0x1c, 0xbe, 0x50, 0x5f, 0x16, 0xc4, 0x06, 0xc7, 0xf1, 0x5b, 0x4f, 0xc8, 0x24,
    0xbb, 0x70, 0x90, 0x84, 0x74, 0xb6, 0xc6, 0xbc, 0xdc, 0xbd, 0x0e, 0x4a, 0x3b,
    0x03, 0x1f, 0x28, 0x4d, 0x41, 0x7b, 0x65, 0x63, 0x7a, 0xf3, 0x6a, 0x74, 0x2a,
    0xdf, 0x93, 0xf3, 0xfb, 0x91, 0xb1, 0x0c, 0xd5, 0x39, 0xa4, 0xdb, 0x5c, 0x4d,
    0xa0, 0x01, 0xe5, 0x68, 0xc1, 0xb8, 0x89, 0xbb, 0x85, 0x32, 0x10, 0x6c, 0x8a,
    0x79, 0x13, 0x6a, 0x28, 0x25, 0xfa, 0xc8, 0xb8, 0xb2, 0xc8, 0x85, 0x88, 0x69,
    0xe0, 0x6e, 0xc4, 0x3d, 0x16, 0x7e, 0x17, 0x21, 0x5a, 0x42, 0x91, 0xdc, 0x62,
    0x34, 0x38, 0xed, 0x61, 0x04, 0x13, 0xf8, 0x06, 0x83, 0x16, 0xf4, 0x54, 0xf7,
    0x02, 0x07, 0x51, 0x95, 0x04, 0x2d, 0x0a, 0x20, 0x01, 0xee, 0xed, 0xb2, 0x70,
    0xbc, 0x03, 0xeb, 0x2f, 0xfe, 0x08, 0xe6, 0x2d, 0x67, 0xcb, 0xca, 0x16, 0x2f,
    0x82, 0x6d, 0x28, 0xd0, 0x86, 0x30, 0xe5, 0xf6, 0xf2, 0x28, 0x1a, 0xbb, 0x99,
    0xa3, 0x8b, 0x96, 0xff, 0x46, 0x85, 0x8c, 0x56, 0x12, 0xba, 0xd1, 0x79, 0x93,
    0xc9, 0x60, 0x06, 0xbd, 0x2c, 0x9f, 0xe9, 0x86, 0xbf, 0xef, 0x0d, 0xe0, 0x32,
    0xcb, 0x37, 0xdf, 0xca, 0xe2, 0x7e, 0x4a, 0x8c, 0x5d, 0x34, 0xcc, 0xa3, 0x3d,
    0x98, 0xb6, 0x2c, 0x8e, 0xdf, 0xdc, 0x2e, 0x98, 0xd6, 0x3e, 0x6a, 0x32, 0xd5,
    0xda, 0xc7, 0x62, 0x70, 0xd2, 0x2b, 0x5c, 0xa0, 0xd1, 0x8c, 0x10, 0x72, 0x82,
    0x5e, 0xe9, 0x17, 0xfd, 0xd9, 0xe3, 0xef, 0xde, 0xf0, 0x64, 0x0a, 0xcd, 0xae,
    0x72, 0xdb, 0xdd, 0x66, 0x76, 0x77, 0xfe, 0x13, 0x13, 0xaa, 0x82, 0x4d, 0x9d,
    0x43, 0x40, 0xac, 0xfe, 0x14, 0xab, 0x4f, 0x18, 0xb2, 0xf6, 0x9a, 0x95, 0xdc,
    0x57, 0xf8, 0xa9, 0xcd, 0xde, 0x4c, 0xcf, 0xc3, 0x90, 0xc7, 0x8f, 0x12, 0x8c,
    0x27, 0x7c, 0x01, 0x06, 0xa6, 0x6f, 0x71, 0xef, 0xea, 0x78, 0x2c, 0x27, 0x67,
    0x33, 0x56, 0x8a, 0xa2, 0x56, 0xac, 0xa5, 0x13, 0x07, 0xd2, 0xbe, 0x64, 0x47,
    0x9e, 0xe3, 0x4b, 0x4d, 0xb0, 0xd3, 0xde, 0x53, 0x46, 0xe6, 0xd3, 0xc6, 0xff,
    0x2b, 0xf1, 0x9a, 0x05, 0x78, 0xb7, 0x8d, 0x25, 0x93, 0x5a, 0xbd, 0x4d, 0xf8,
    0xf8, 0xda, 0xd5, 0x72, 0xd8, 0xe7, 0x34, 0xd2, 0x6a, 0x38, 0xb4, 0x0c, 0xdd,
    0x68, 0xe1, 0x77, 0xd6, 0x01, 0x66, 0x6b, 0xe9, 0x2e, 0xe1, 0x4a, 0x65, 0x64,
    0x0a, 0x78, 0xf6, 0x49, 0x59, 0xa5, 0x1c, 0x67, 0xbc, 0x38, 0x9f, 0x68, 0x54,
    0x91, 0xea, 0xc2, 0x2b, 0x6d, 0x19, 0xd3, 0x12, 0x97, 0x4c, 0xd1, 0x9e, 0x26,
    0x87, 0x01, 0xd8, 0xd8, 0x55, 0x90, 0x33, 0xdd, 0x23, 0xc0, 0x83, 0x58, 0x5c,
    0x08, 0xde, 0x3a, 0xc2, 0x6c, 0xae, 0x48, 0x5e, 0xb4, 0xe4, 0x96, 0xe9, 0xd0,
    0xff, 0xd3, 0x1b, 0xfe, 0x09, 0xae, 0xa3, 0xaa, 0xcb, 0xec, 0xc6, 0xcc, 0x0d,
    0xd4, 0x37, 0x11, 0xb3, 0xa3, 0xde, 0x4a, 0xf9, 0xd8, 0xa6, 0x95, 0x98, 0x67,
    0xad, 0x7c, 0xea, 0x96, 0x10, 0x82, 0x74, 0x05, 0x22, 0x97, 0xe6, 0x2e, 0x2b,
    0xff, 0x44, 0xf9, 0x53, 0x53, 0xa7, 0xa4, 0x4f, 0xf1, 0x82, 0x33, 0x82, 0x24,
    0x9d, 0xc5, 0xc8, 0x98, 0xfd, 0xfb, 0x77, 0xb1, 0x01, 0xd3, 0x58, 0x49, 0x09,
    0x70, 0x21, 0x5e, 0xfa, 0xe9, 0x6e, 0xed, 0xa1, 0x0d, 0xfa, 0xe2, 0xcb, 0xf7,
    0x20, 0x6e, 0x23, 0x9c, 0xe2, 0x10, 0x61, 0xf9, 0x2d, 0x42, 0xfb, 0xc9, 0x24,
    0x0d, 0x54, 0x5d, 0x81, 0xf1, 0x82, 0x24, 0xba, 0x4b, 0x77, 0xb7, 0xda, 0x7d,
    0x30, 0xbd, 0x1c, 0x20, 0x48, 0x50, 0x21, 0xf3, 0xda, 0x91, 0x72, 0x24, 0x09,
    0xac, 0x52, 0xf7, 0x98, 0xed, 0xb6, 0xe6, 0x0d, 0xb9, 0x41, 0xc6, 0xad, 0x50,
    0xbb, 0x86, 0x3d, 0xbc, 0x57, 0x34, 0x75, 0xca, 0x9e, 0x06, 0x26, 0x17, 0x70,
    0x89, 0x7a, 0x31, 0x99, 0x20, 0x6f, 0x21, 0x24, 0xdf, 0x38, 0x9c, 0xff, 0x54,
    0x4b, 0x57, 0x96, 0xec, 0x12, 0xac, 0xc7, 0x9d, 0x16, 0x18, 0x05, 0xd8, 0x4e,
    0xef, 0xf5, 0x85, 0xbb, 0x02, 0xd9, 0x20, 0x50, 0xd2, 0xaf, 0x42, 0xa7, 0xb7,
    0x59, 0x08, 0xb1, 0x37, 0xd3, 0x8a, 0x2a, 0xac, 0x44, 0x76, 0x8b, 0x8d, 0xd1,
    0xaf, 0x02, 0xe8, 0x83, 0x41, 0xe7, 0x5c, 0x1c, 0xf6, 0x48, 0x26, 0xde, 0x78,
    0x93, 0x7d, 0x13, 0xd0, 0x3c, 0xb8, 0x13, 0x6a, 0xd2, 0xec, 0xf0, 0xcb, 0xc0,
    0x0d, 0x24, 0x7b, 0x43, 0xef, 0x48, 0x50, 0x85, 0x21, 0x28, 0xb7, 0x9a, 0x46,
    0x99, 0x62, 0x21, 0x55, 0x66, 0xe2, 0xc2, 0x42, 0x92, 0x5a, 0x7b, 0xc7, 0xe5,
    0x24, 0xed, 0x34, 0x49, 0x8e, 0x01, 0x2b, 0x28, 0x93, 0xe9, 0xa3, 0x23, 0x44,
    0x4f, 0xa0, 0x1d, 0x98, 0x99, 0xa0, 0x60, 0x51, 0xaf, 0x34, 0xc1, 0x4a, 0x42,
    0x4b, 0x6e, 0x74, 0xb6, 0xd9, 0xc8, 0x4a, 0x83, 0x7b, 0xe4, 0x1d, 0x5e, 0x85,
    0x8c, 0x12, 0xe3, 0x4c, 0x15, 0x61, 0xed, 0x83, 0xd1, 0x85, 0xa9, 0x5f, 0x5e,
    0xf3, 0x2d, 0x0e, 0xbd, 0x89, 0xf4, 0x50, 0x53, 0xab, 0xc5, 0x25, 0xba, 0xda,
    0x9b, 0xe2, 0x41, 0x00, 0xd1, 0xdf, 0xbf, 0x05, 0x23, 0xc3, 0xd6, 0xe8, 0x5f,
    0x8c, 0x8c, 0xb3, 0x66, 0xbc, 0x45, 0xc8, 0x0e, 0x5d, 0x7c, 0xe0, 0x97, 0x96,
    0xbe, 0xda, 0xc1, 0x09, 0x26, 0x31, 0xd9, 0x9b, 0xe5, 0x3b, 0x93, 0xc2, 0xa5,
    0xfa, 0x42, 0xc4, 0x88, 0x3f, 0x52, 0x05, 0x31, 0x84, 0xff, 0x71, 0x54, 0x77,
    0x81, 0x29, 0xda, 0xba, 0xcf, 0x20, 0x7b, 0xe6, 0x11, 0x1e, 0x11, 0xe3, 0x6d,
    0x00, 0x6f, 0xf9, 0x8d, 0x5e, 0x7e, 0xb2, 0x30, 0xca, 0x51, 0xf3, 0x21, 0xa4,
    0x78, 0x96, 0xa8, 0xa6, 0x3a, 0x2e, 0x2c, 0xac, 0x24, 0x14, 0x36, 0xc8, 0x2e,
    0x0e, 0xad, 0xa2, 0x59, 0xeb, 0x8e, 0x82, 0x02, 0x8f, 0x12, 0xda, 0x75, 0xb9,
    0xec, 0x1e, 0x93, 0x5a, 0xb3, 0xe1, 0xf7, 0xae, 0x30, 0xfb, 0x8c, 0xa0, 0x5b,
    0xf1, 0x76, 0x26, 0x9d, 0x2f, 0xdf, 0x60, 0x02, 0x3a, 0x0f, 0x9e, 0xc5, 0xc7,
    0xd5, 0xc8, 0x8f, 0xd2, 0x85, 0xc4, 0x9a, 0x2c, 0x08, 0x7b, 0x21, 0x89, 0xb0,
    0x78, 0xa9, 0x85, 0x41, 0x42, 0x2e, 0xcd, 0xce, 0x25, 0xd4, 0xb7, 0x6d, 0x6d,
    0xac, 0x0e, 0x90, 0x0d, 0xa5, 0x64, 0xcc, 0x98, 0x8c, 0x68, 0x57, 0x07, 0xe5,
    0x31, 0x9e, 0xaf, 0x3b, 0x7e, 0xc1, 0xd9, 0xaa, 0xcf, 0x97, 0x17, 0xb0, 0xb4,
    0x31, 0xbe, 0x25, 0x59, 0xf7, 0x1f, 0x30, 0x25, 0xe3, 0xd1, 0xa6, 0x0e, 0x6e,
    0x4f, 0xb9, 0xc1, 0x85, 0xb9, 0x37, 0xe0, 0xc4, 0x57, 0xca, 0xd3, 0x33, 0x83,
    0xd6, 0x79, 0x95, 0x12, 0x37, 0xb5, 0x90, 0xa7, 0xa7, 0x9d, 0xa5, 0x10, 0xbd,
    0x35, 0xe3, 0xb3, 0xc9, 0xd4, 0x93, 0x3a, 0x0b, 0xda, 0x5a, 0xe4, 0xf4, 0x59,
    0x3f, 0x4f, 0x12, 0x0d, 0x23, 0x2a, 0x9e, 0xf1, 0x9d, 0x7e, 0x04, 0x65, 0xe0,
    0x91, 0x86, 0xf5, 0x32, 0x53, 0x24, 0xab, 0x72, 0x23, 0x50, 0x5e, 0x3f, 0xde,
    0x72, 0x47, 0x5d, 0x04, 0xa2, 0xcb, 0x85, 0xbe, 0xff, 0x76, 0x23, 0x21, 0xab,
    0x83, 0x01, 0xb9, 0xcf, 0x8b, 0xf8, 0xf5, 0x64, 0xc6, 0x4e, 0xd8, 0xb7, 0x29,
    0x2b, 0xc7, 0x3e, 0xc4, 0x37, 0xcf, 0xe9, 0x54, 0x01, 0x36, 0xa5, 0x22, 0x7c,
    0xc4, 0xfc, 0x61, 0x2e, 0x7e, 0x5f, 0x00, 0x71, 0x05, 0x62, 0x7a, 0x5e, 0x9a,
    0xf8, 0x36, 0x7f, 0x75, 0xe0, 0x84, 0x00, 0x1f, 0x41, 0xa7, 0xb1, 0xe8, 0xda,
    0x06, 0x5f, 0x20, 0x26, 0x64, 0x98, 0x3d, 0x2e, 0xff, 0x5d, 0x10, 0x76, 0x9d,
    0x43, 0x83, 0x50, 0x39, 0x9c, 0xde, 0xd4, 0x03, 0x0c, 0x2f, 0x52, 0x33, 0xfc,
    0xa3, 0xe9, 0x86, 0x70, 0x8e, 0x74, 0x68, 0x1a, 0x33, 0x92, 0xd0, 0xef, 0x7d,
    0x17, 0xb8, 0x70, 0x4c, 0x7f, 0x61, 0x98, 0xb5, 0x91, 0x4c, 0x96, 0xf4, 0xb9,
    0xe9, 0x77, 0x74, 0x06, 0x47, 0x6a, 0xfe, 0x7d, 0x39, 0x78, 0x4c, 0x42, 0xf7,
    0xc3, 0xd6, 0x25, 0x31, 0xe4, 0x58, 0xa3, 0x54, 0x05, 0xc3, 0x74, 0x81, 0x61,
    0x12, 0x8a, 0xf9, 0xe1, 0x88, 0xeb, 0x06, 0x34, 0x26, 0xe6, 0xe3, 0xdf, 0xfe,
    0x2c, 0x31, 0xae, 0x89, 0x9f, 0x0b, 0x11, 0x04, 0x2a, 0x96, 0x66, 0x1d, 0x29,
    0x42, 0x0d, 0x11, 0xbd, 0xd0, 0x55, 0x96, 0xaf, 0x35, 0xa6, 0x7e, 0x12, 0xff,
    0x7c, 0x1b, 0x61, 0x7b, 0xc4, 0xa3, 0x1d, 0xff, 0x4e, 0x2f, 0xb3, 0x91, 0x8b,
    0xac, 0x40, 0x2e, 0x53, 0x36, 0x8d, 0x56, 0x03, 0xcb, 0x41, 0x9e, 0x71, 0xbd,
    0x20, 0x8e, 0x25, 0xce, 0x21, 0x79, 0x1c, 0x51, 0x92, 0xe7, 0x23, 0xd9, 0x37,
    0x2f, 0x7a, 0x0c, 0x59, 0x76, 0xd5, 0xab, 0x26, 0x3b, 0x52, 0xf0, 0x1d, 0xe4,
    0x15, 0x7e, 0x8a, 0xd7, 0xc7, 0xed, 0xd0, 0x07, 0x13, 0x42, 0x18, 0x29, 0x62,
    0x56, 0x5d, 0x36, 0x84, 0x7c, 0x45, 0xb6, 0xe4, 0x55, 0xbc, 0xfe, 0xa0, 0x60,
    0xf6, 0x14, 0x91, 0x96, 0x06, 0x3f, 0xd4, 0xa3, 0x50, 0x27, 0xeb, 0xa7, 0x9f,
    0x65, 0xc0, 0xb5, 0x63, 0x23, 0xe3, 0xde, 0x8f, 0x4d, 0x5b, 0x12, 0x46, 0x94,
    0xc4, 0xec, 0x19, 0x50, 0xd8, 0x98, 0xb7, 0x0b, 0x65, 0x10, 0x8c, 0x5c, 0xb6,
    0xe1, 0x56, 0xe3, 0xbd, 0xcc, 0x9d, 0xe7, 0x0d, 0xd3, 0x20, 0x39, 0xbf, 0x3d,
    0xb7, 0x60, 0xb3, 0x60, 0x3e, 0x3a, 0x7e, 0xef, 0xee, 0xc6, 0xc1, 0x71, 0x20,
    0x59, 0x16, 0x36, 0x61, 0x50, 0x08, 0x19, 0x1a, 0x50, 0xc1, 0x98, 0xda, 0x58,
    0xab, 0xb2, 0x2b, 0x3e, 0x49, 0x3a, 0x17, 0xe5, 0xaa, 0x59, 0x74, 0x35, 0xca,
    0x0a, 0xaf, 0x00, 0xec, 0x58, 0x86, 0x89, 0x86, 0x42, 0x5b, 0xef, 0x8e, 0xcf,
    0xba, 0xae, 0x96, 0xca, 0xea, 0x94, 0x29, 0xb6, 0x76, 0x50, 0x7d, 0xac, 0x93,
    0xf2, 0x03, 0xcd, 0x8f, 0xae, 0xcf, 0x50, 0xa3, 0x13, 0x27, 0x0f, 0x6a, 0x8f,
    0xde, 0x5f, 0xb7, 0xfa, 0xa5, 0x1c, 0xfd, 0xb3, 0xf9, 0x27, 0xff, 0x4d, 0xef,
    0x79, 0xcc, 0xb5, 0x48, 0x8a, 0x95, 0x28, 0x9a, 0xac, 0xc0, 0x78, 0x52, 0xc8,
    0x0b, 0x83, 0x44, 0x1d, 0x07, 0xa7, 0x44, 0x11, 0x10, 0xde, 0x65, 0xcc, 0xc1,
    0x6c, 0xdf, 0xec, 0xda, 0x18, 0xf0, 0x70, 0x70, 0xab, 0x66, 0x87, 0x88, 0x92,
    0x40, 0x49, 0x65, 0x73, 0xdb, 0x16, 0x35, 0xe4, 0xc5, 0x24, 0x98, 0x93, 0xf6,
    0xf8, 0x18, 0xf7, 0x38, 0x76, 0xf6, 0x40, 0xfb, 0x92, 0x0e, 0xd4, 0x40, 0x03,
    0xe1, 0x6d, 0xeb, 0x21, 0x73, 0xf2, 0xab, 0xa3, 0x1c, 0xfb, 0xb4, 0x8f, 0x1f,
    0x4a, 0x21, 0x60, 0x7d, 0xda, 0x65, 0x56, 0x57, 0xc4, 0xff, 0x8e, 0x05, 0xa9,
    0xa9, 0xec, 0x4d, 0xad, 0xd5, 0x0f, 0xd6, 0x27, 0x63, 0x15, 0xc9, 0x4a, 0xac,
    0x2b, 0x95, 0x7c, 0x6a, 0x50, 0x2b, 0x70, 0x75, 0x6f, 0xa8, 0x00, 0x54, 0x57,
    0x69, 0x0b, 0xd5, 0x02, 0x67, 0xe8, 0x29, 0x00, 0xc1, 0x7d, 0xa9, 0x9a, 0x6a,
    0x5c, 0xfc, 0x5c, 0xf2, 0xb1, 0x70, 0xc2, 0xeb, 0xf3, 0x43, 0xcf, 0x5c, 0x7d,
    0x50, 0x65, 0xb0, 0xab, 0xcd, 0xf0, 0xe4, 0xce, 0x1b, 0x82, 0x16, 0x58, 0xf6,
    0x19, 0x5c, 0xf0, 0x0d, 0x7c, 0x48, 0x97, 0x05, 0x41, 0x01, 0x64, 0x9b, 0xc9,
    0xff, 0xa2, 0x7a, 0xe1, 0x51, 0x6c, 0xf3, 0x79, 0xd6, 0xbe, 0x92, 0xff, 0x2f,
    0x96, 0xc6, 0xf2, 0xb2, 0x99, 0x88, 0x21, 0x98, 0x06, 0x97, 0x14, 0x0e, 0x38,
    0x77, 0x4e, 0x44, 0xb8, 0x11, 0x10, 0x0a, 0x02, 0x93, 0xf2, 0x8c, 0xeb, 0x27,
    0x93, 0x8d, 0x63, 0xf8, 0xa3, 0x1f, 0x6e, 0xb5, 0x4d, 0x87, 0x65, 0x8a, 0x85,
    0x4e, 0x76, 0xfa, 0xf1, 0x96, 0x4d, 0xd0, 0xd6, 0xcf, 0x0e, 0x30, 0x16, 0x88,
    0x78, 0x54, 0x5a, 0xbf, 0xa5, 0xc8, 0x9a, 0x93, 0xc7, 0x8a, 0x33, 0x95, 0x61,
    0x1d, 0xc3, 0x69, 0x17, 0x67, 0x8e, 0x6e, 0x7b, 0xaf, 0xa8, 0xe3, 0xf6, 0xfb,
    0xbb, 0xa7, 0xa2, 0x7f, 0x0c, 0xa8, 0xb2, 0xe7, 0x23, 0x73, 0xf6, 0x70, 0xad,
    0x8a, 0xf4, 0x7a, 0xc0, 0x78, 0x1e, 0xad, 0x11, 0x86, 0x1c, 0x5e, 0xba, 0xb2,
    0x87, 0x20, 0x7e, 0xaa, 0x02, 0x8f, 0x9b, 0xa1, 0xe4, 0x37, 0x3a, 0xb1, 0x70,
    0xf7, 0xd0, 0xff, 0x2c, 0x2a, 0x1e, 0xf7, 0x87, 0x4b, 0xba, 0x88, 0x8a, 0xb6,
    0x35, 0xaf, 0x63, 0x4e, 0xb4, 0xc9, 0xe1, 0x56, 0x72, 0xfa, 0x5a, 0xbc, 0x54,
    0xce, 0x76, 0xb2, 0x21, 0xd5, 0x31, 0x9e, 0xcf, 0xb7, 0x7a, 0x8d, 0xbf, 0xb3,
    0xa0, 0x51, 0xed, 0xcb, 0x1f, 0x8a, 0xe3, 0x55, 0xe3, 0xb1, 0x8b, 0x71, 0x5e,
    0x7b, 0x52, 0x4a, 0x94, 0x7d, 0x96, 0x31, 0x1b, 0x38, 0x16, 0xf6, 0xbf, 0x5a,
    0x9e, 0xac, 0x1a, 0x1c, 0x40, 0xcd, 0xb9, 0x88, 0x38, 0x59, 0xcd, 0x18, 0x8d,
    0x41, 0x98, 0x71, 0xdb, 0x83, 0xf0, 0x88, 0xe8, 0x05, 0xf7, 0xb2, 0x0a, 0x1c,
    0xdd, 0x0e, 0x36, 0x30, 0x91, 0x0c, 0x5d, 0xb7, 0xe8, 0x9f, 0x52, 0xa9, 0x14,
    0x6b, 0xa2, 0x97, 0xf8, 0x49, 0x3b, 0xae, 0x44, 0xcd, 0x78, 0x69, 0x90, 0x61,
    0x64, 0x60, 0xe2, 0x87, 0x0e, 0x08, 0xba, 0xd8, 0x78, 0xe4, 0x57, 0x3c, 0x30,
    0x45, 0xfb, 0x25, 0x46, 0xe7, 0xcd, 0xf3, 0x9a, 0x57, 0xf0, 0x6b, 0xc9, 0x90,
    0x54, 0xdb, 0xe9, 0xd6, 0xf8, 0x66, 0x00, 0x7f, 0x57, 0xd9, 0x08, 0x3e, 0x57,
    0x3f, 0x2b, 0x7c, 0x65, 0xe8, 0x7b, 0xe1, 0xc5, 0x8d, 0x37, 0x30, 0x01, 0xb1,
    0xcd, 0x17, 0x58, 0x6c, 0x95, 0x64, 0x0e, 0x70, 0x01, 0x28, 0xfc, 0x69, 0xfd,
    0xea, 0x98, 0x96, 0xc9, 0xd5, 0xf2, 0xaa, 0xea, 0x60, 0x87, 0x1b, 0x5e, 0x2a,
    0x9b, 0xac, 0x99, 0x26, 0x09, 0xfb, 0xf1, 0x5d, 0xa1, 0xd2, 0xc0, 0xf0, 0x47,
    0x1f, 0xf9, 0xcc, 0x55, 0xab, 0x41, 0xc0, 0xe1, 0xb4, 0xdf, 0x3d, 0x90, 0xf0,
    0xaf, 0x6e, 0xd3, 0x03, 0x87, 0x0e, 0x12, 0xdc, 0xf6, 0xb0, 0x4b, 0xbb, 0xe6,
    0x85, 0x86, 0xdf, 0x69, 0xa5, 0x6b, 0xe9, 0xbd, 0xc8, 0x97, 0x62, 0xc5, 0xd1,
    0x4a, 0x6d, 0xea, 0xee, 0xdb, 0x9e, 0x24, 0x29, 0xfa, 0xe6, 0x29, 0x2e, 0x58,
    0x1d, 0x69, 0x6b, 0x5b, 0xe0, 0x2c, 0xe7, 0x01, 0x3f, 0x31, 0x61, 0xb1, 0x67,
    0xe0, 0x92, 0x7e, 0x3a, 0xf8, 0xec, 0x49, 0x11, 0x02, 0xba, 0xd1, 0xd2, 0x4f,
    0xd6, 0x49, 0xba, 0xdd, 0x96, 0x83, 0x92, 0x8b, 0x0c, 0x38, 0x9e, 0xb8, 0x10,
    0x25, 0x4e, 0xb3, 0x41, 0xf3, 0xd9, 0x02, 0x93, 0x24, 0xf8, 0x02, 0x82, 0xcc,
    0x5f, 0x3b, 0x27, 0x36, 0x70, 0xff, 0x4e, 0x9d, 0xc1, 0xab, 0x84, 0x07, 0xbf,
    0x43, 0x63, 0xba, 0xb8, 0x70, 0x1f, 0x73, 0xb0, 0x1d, 0x36, 0x46, 0x3a, 0x84,
    0x32, 0xf3, 0xed, 0x17, 0xb6, 0x94, 0x88, 0x0f, 0xca, 0xd2, 0x4c, 0xaf, 0xa4,
    0x1a, 0xec, 0x4f, 0x67, 0x69, 0xbc, 0xb1, 0x59, 0x43, 0x75, 0xce, 0xf1, 0x85,
    0xf9, 0xbf, 0xd2, 0x21, 0x18, 0x3c, 0x2f, 0xcf, 0xab, 0x52, 0xb1, 0xd6, 0x90,
    0x2e, 0x54, 0x39, 0xca, 0x09, 0x4b, 0xc2, 0xe1, 0x2f, 0x72, 0x5c, 0x75, 0x0a,
    0x1f, 0x94, 0xe8, 0x51, 0x42, 0x5b, 0x97, 0x93, 0x38, 0x33, 0xf5, 0xd0, 0x64,
    0x45, 0x9c, 0x0d, 0x18, 0x35, 0x09, 0x1d, 0x97, 0x64, 0xf2, 0x51, 0x4c, 0xa2,
    0x00, 0x71, 0xa5, 0x3d, 0x56, 0xc0, 0x9f, 0xf4, 0x60, 0xb8, 0x41, 0xeb, 0xa7,
    0x99, 0xf9, 0x47, 0x05, 0x9d, 0x92, 0x5a, 0xe0, 0xcc, 0xa2, 0x18, 0x38, 0x16,
    0x6a, 0x30, 0x7c, 0x40, 0x65, 0x53, 0xd1, 0x52, 0x47, 0x68, 0x27, 0x63, 0x2d,
    0xf2, 0x7d, 0x77, 0x8b, 0x04, 0x2d, 0x4e, 0x09, 0xe3, 0xf0, 0xf2, 0xd4, 0x67,
    0xa3, 0x56, 0x0b, 0x84, 0x5d, 0x8c, 0xb5, 0x85, 0xe4, 0x1b, 0x4e, 0xaf, 0xe8,
    0xa1, 0x12, 0x8e, 0x61, 0x09, 0x0c, 0x8e, 0xb7, 0x8c, 0x76, 0x23, 0x0b, 0x4f,
    0xbc, 0xae, 0x99, 0xf5, 0xd8, 0x01, 0x9d, 0x1c, 0xae, 0x17, 0x74, 0x94, 0xcf,
    0x4a, 0xfc, 0x73, 0x21, 0xfa, 0x9a, 0x88, 0x15, 0x76, 0x35, 0x01, 0xf1, 0xb2,
    0xb9, 0x77, 0x78, 0x5c, 0x21, 0x7f, 0x59, 0x87, 0x51, 0x3a, 0xb2, 0xbf, 0x78,
    0x50, 0x6b, 0x85, 0x04, 0x1a, 0xe2, 0x69, 0xc1, 0x7d, 0x99, 0x24, 0x0d, 0xac,
    0x15, 0xbd, 0xbc, 0xe1, 0xa9, 0x93, 0x70, 0xd4, 0x67, 0xe0, 0xf2, 0xe1, 0x94,
    0x09, 0xd8, 0xfa, 0xd8, 0x41, 0xc7, 0xe5, 0x29, 0xd3, 0x3e, 0x3c, 0x51, 0x63,
    0xde, 0x54, 0xa5, 0x2d, 0xe2, 0xc1, 0x25, 0x0d, 0x70, 0xf6, 0xbf, 0x22, 0x17,
    0x02, 0x11, 0xe0, 0x91, 0xc4, 0x30, 0xc0, 0xd9, 0x12, 0xb7, 0x28, 0xf3, 0xb8,
    0x3f, 0xc3, 0x1d, 0x69, 0xeb, 0xf9, 0x3f, 0xc6, 0x45, 0xb1, 0xed, 0x2c, 0xac,
    0xc8, 0x41, 0x76, 0x3e, 0x25, 0x10, 0xd5, 0xef, 0x35, 0x53, 0xa0, 0x25, 0x75,
    0x96, 0x24, 0x7e, 0x18, 0x99, 0x5c, 0x9d, 0x2d, 0xe4, 0x56, 0x89, 0x0c, 0xfe,
    0xb7, 0x51, 0x69, 0x34, 0x95, 0x2f, 0x05, 0x92, 0x81, 0xf5, 0xd1, 0x9f, 0xbb,
    0x14, 0x14, 0x98, 0x62, 0x9e, 0x47, 0xba, 0xc3, 0x2b, 0xdd, 0xbc, 0x48, 0x8b,
    0xda, 0x69, 0xf2, 0x4c, 0x34, 0xad, 0xc2, 0x7e, 0xe0, 0x96, 0x4d, 0x8a, 0x4c,
    0x94, 0xe3, 0x84, 0x95, 0x7e, 0x30, 0xe1, 0x18, 0x44, 0x69, 0x9a, 0x8f, 0x4e,
    0x06, 0x63, 0xcf, 0x08, 0x54, 0xd3, 0x6b, 0x6d, 0xd6, 0x78, 0x3b, 0xad, 0x2f,
    0x11, 0x74, 0x06, 0x1a, 0x5a, 0x64, 0xe5, 0x09, 0x9a, 0xcb, 0x01, 0x9a, 0xf7,
    0xe2, 0xcf, 0x15, 0x65, 0x0b, 0xfe, 0x41, 0x03, 0x30, 0x77, 0x5e, 0x9b, 0x92,
    0x3f, 0x20, 0x00, 0xea, 0x5a, 0xfb, 0x1d, 0xc8, 0x0a, 0x1a, 0x93, 0x61, 0x12,
    0xfd, 0x07, 0x6c, 0x32, 0x32, 0xe8, 0xfe, 0x29, 0x34, 0x31, 0x3f, 0x8b, 0xf4,
    0x10, 0xfe, 0x33, 0x7c, 0xea, 0xee, 0x9e, 0xb3, 0xcc, 0x2e, 0x95, 0x60, 0x57,
    0x4f, 0xeb, 0x73, 0x18, 0xa2, 0x0f, 0x30, 0xd5, 0x47, 0xef, 0xc2, 0xb2, 0x34,
    0xc9, 0xd4, 0x47, 0x84, 0xbd, 0xb2, 0x6e, 0x9e, 0xcd, 0x62, 0x96, 0x5c, 0x22,
    0xbd, 0x9a, 0x15, 0x5b, 0x9e, 0x22, 0x49, 0xda, 0xab, 0xf3, 0x2c, 0x23, 0xbd,
    0xbd, 0xb8, 0x4a, 0xf2, 0xa4, 0xf3, 0x45, 0xeb, 0xc4, 0x3d, 0x70, 0xef, 0x07,
    0x91, 0xde, 0xd3, 0xb8, 0x89, 0xf9, 0xaa, 0x97, 0x18, 0xf0, 0x1c, 0xa1, 0xa1,
    0x11, 0x55, 0x46, 0xc7, 0xbc, 0xbb, 0xed, 0xe3, 0x89, 0x86, 0x17, 0xa5, 0xde,
    0x6d, 0x11, 0x86, 0xb5, 0x09, 0xc6, 0xc9, 0x2e, 0xf2, 0x74, 0xee, 0xa0, 0x27,
    0xc8, 0x28, 0x06, 0xa5, 0x34, 0x8f, 0xb8, 0x46, 0x35, 0xc9, 0x96, 0xf0, 0xc7,
    0x70, 0x7b, 0xf5, 0xd9, 0x68, 0xf0, 0x98, 0x5b, 0x27, 0x00, 0x9b, 0x79, 0x6e,
    0xbe, 0x1e, 0xc9, 0xce, 0x40, 0x6a, 0x5d, 0x97, 0xb9, 0x3b, 0xc1, 0xcb, 0xe6,
    0xab, 0xdd, 0x22, 0x68, 0xfb, 0x50, 0x65, 0xc5, 0x3f, 0x68, 0x50, 0xc7, 0x1f,
    0xbc, 0x48, 0xa8, 0x97, 0x59, 0xfe, 0x13, 0x82, 0x68, 0xc2, 0x75, 0x4e, 0xb6,
    0x47, 0x39, 0xb9, 0x1d, 0x36, 0x69, 0x5a, 0xcf, 0x63, 0x4d, 0x5c, 0xbc, 0x5b,
    0x81, 0x78, 0x1e, 0x0c, 0xbd, 0xc0, 0xae, 0xa9, 0x40, 0xaf, 0xd6, 0xb3, 0xa3,
    0x85, 0xe7, 0xc2, 0x7c, 0x3b, 0x36, 0x49, 0xc2, 0x7e, 0x57, 0x8d, 0x07, 0xa2,
    0x6e, 0xc9, 0x01, 0xee, 0x22, 0x42, 0x95, 0x78, 0xcc, 0x8f, 0xec, 0xb9, 0xa0,
    0x69, 0x6d, 0xd3, 0xfe, 0x98, 0xbf, 0xf0, 0x08, 0x08, 0x0b, 0x4c, 0x02, 0xa4,
    0xb4, 0xa9, 0x2e, 0xfe, 0x62, 0x79, 0x0f, 0x09, 0x9e, 0xe4, 0x28, 0xdd, 0xc6,
    0xff, 0xee, 0xa5, 0xc4, 0x27, 0x09, 0xdf, 0xdf, 0x3e, 0x46, 0xbb, 0x84, 0x12,
    0x6a, 0xf5, 0xc3, 0x0a, 0x9b, 0x6d, 0x61, 0x7a, 0xad, 0x12, 0x55, 0x34, 0x41,
    0x04, 0x7a, 0x7c, 0xdf, 0xbc, 0x83, 0x77, 0x4b, 0x60, 0x03, 0x42, 0xa8, 0x37,
    0xd1, 0x99, 0x32, 0x48, 0x6c, 0x29, 0x47, 0xca, 0xc2, 0x8b, 0x66, 0xe6, 0x73,
    0x79, 0xf1, 0x04, 0x7c, 0xb2, 0x32, 0xfa, 0xe4, 0x23, 0x65, 0xfd, 0x05, 0x64,
    0x6e, 0xa5, 0x6c, 0xcb, 0x24, 0xed, 0xd6, 0xda, 0xd4, 0xe2, 0x68, 0x98, 0xa1,
    0x5b, 0x9a, 0xc5, 0xc6, 0x26, 0x1e, 0xf1, 0xcc, 0x0f, 0x21, 0x66, 0x6c, 0xbf,
    0x97, 0x18, 0xca, 0x24, 0x4d, 0x4e, 0x9b, 0xf8, 0x48, 0x82, 0xde, 0x5b, 0x2c,
    0xf3, 0x68, 0xd6, 0xf0, 0x87, 0xd6, 0xa3, 0xc4, 0xe2, 0x98, 0x61, 0x8d, 0xbe,
    0xd1, 0x92, 0x00, 0x78, 0xcc, 0x95, 0xf1, 0xa9, 0x43, 0xea, 0xde, 0xa6, 0xff,
    0xed, 0x3f, 0xef, 0x0c, 0xf3, 0xda, 0x56, 0x43, 0x90, 0xb0, 0xce, 0xf5, 0x0a,
    0x84, 0xc5, 0x75, 0x14, 0x0c, 0xa6, 0xac, 0x14, 0xa3, 0x84, 0xac, 0x84, 0x46,
    0xbf, 0x1d, 0x6e, 0x15, 0xc1, 0x4b, 0x00, 0x34, 0x50, 0xb4, 0x04, 0x12, 0xf8,
    0x7c, 0x29, 0x57, 0x20, 0x37, 0xa3, 0xc9, 0x21, 0xc3, 0x91, 0x55, 0xd1, 0x0d,
    0x98, 0xfb, 0xff, 0xa0, 0x2f, 0x21, 0x5f, 0x64, 0x20, 0x58, 0x1d, 0xc5, 0xc3,
    0xbd, 0xcb, 0xbc, 0x32, 0x29, 0x3a, 0xb8, 0x4f, 0x62, 0x2d, 0x09, 0xe0, 0xd8,
    0x9c, 0x59, 0x10, 0x71, 0x90, 0xe7, 0x6a, 0x68, 0x1b, 0x76, 0xf1, 0x6e, 0x44,
    0x2a, 0x08, 0xbb, 0xcd, 0x5c, 0xfb, 0xf7, 0xd3, 0x85, 0xc7, 0xca, 0xd2, 0x8b,
    0xd0, 0x70, 0x70, 0x54, 0xfe, 0x68, 0x5e, 0xf7, 0x0d, 0x57, 0x0d, 0x28, 0x50,
    0x79, 0x7c, 0xc6, 0xcd, 0x07, 0xd7, 0xb0, 0xa0, 0x5b, 0x7e, 0xad, 0xe3, 0x4c,
    0x35, 0x4a, 0x4e, 0x4b, 0x03, 0xbf, 0xa0, 0x2a, 0xca, 0x47, 0x01, 0x0f, 0xa1,
    0x41, 0xba, 0xfd, 0x68, 0x1e, 0x69, 0xfd, 0x87, 0xc6, 0xf2, 0xfb, 0xd6, 0x1a,
    0x50, 0xc0, 0xe6, 0xcb, 0x32, 0x7f, 0xa3, 0x64, 0x85, 0x5c, 0xe5, 0x02, 0xce,
    0xc8, 0x8e, 0xa2, 0xb9, 0x4a, 0x23, 0x8f, 0xf8, 0x32, 0x82, 0x83, 0xb0, 0x73,
    0x59, 0xb8, 0x5d, 0x35, 0x51, 0xc2, 0xed, 0x1a, 0x43, 0x38, 0x06, 0x51, 0x06,
    0x39, 0xbb, 0xe6, 0xc2, 0x90, 0xa9, 0x25, 0x6f, 0xa4, 0x6d, 0xa0, 0x17, 0xc7,
    0x33, 0x82, 0x27, 0xff, 0xa6, 0x18, 0x68, 0x4a, 0xca, 0xf7, 0x43, 0x45, 0x40,
    0x25, 0x06, 0x58, 0x95, 0x7b, 0x17, 0xb8, 0x92, 0xb7, 0xa6, 0xbc, 0x47, 0x19,
    0x32, 0x07, 0x5f, 0x3d, 0xc8, 0x3f, 0x7c, 0xf4, 0x0f, 0x84, 0x73, 0x1a, 0x56,
    0x44, 0x47, 0xb0, 0x71, 0x60, 0xf7, 0x77, 0x08, 0x49, 0xe9, 0x61, 0x34, 0xfd,
    0x36, 0x09, 0x54, 0x20, 0x5a, 0x2c, 0xa7, 0x51, 0x5b, 0xa3, 0xea, 0xfa, 0xcd,
    0xff, 0x3c, 0x43, 0x3e, 0x10, 0xf5, 0xd8, 0xdb, 0x36, 0x41, 0x30, 0xee, 0xe2,
    0x1e, 0xcb, 0xbd, 0x4c, 0xdf, 0x32, 0xaa, 0xb3, 0xc8, 0x60, 0x8d, 0x14, 0x48,
    0x5f, 0x16, 0x1f, 0x17, 0x2c, 0x2d, 0x2a, 0xd4, 0x35, 0xb8, 0xb9, 0xbe, 0x47,
    0xca, 0x55, 0x76, 0x14, 0xed, 0x07, 0x35, 0xc1, 0x9b, 0x88, 0x94, 0x93, 0x97,
    0x6f, 0x0f, 0x88, 0x4d, 0x19, 0x0f, 0xe5, 0x60, 0x70, 0x0e, 0xaf, 0xbc, 0xca,
    0x60, 0x3d, 0xc6, 0xb6, 0xbd, 0x30, 0x55, 0x56, 0x82, 0x08, 0x43, 0x24, 0xb1,
    0x9b, 0x01, 0x13, 0xe9, 0x40, 0xd8, 0x91, 0xe8, 0xda, 0x75, 0x92, 0x58, 0x7a,
    0xd7, 0xa2, 0x79, 0x4c, 0x7c, 0x9d, 0x13, 0xc1, 0xce, 0x90, 0x62, 0x2b, 0x5f,
    0xf9, 0x6a, 0x4e, 0x77, 0x86, 0xbd, 0x35, 0x64, 0x5d, 0xdd, 0xb3, 0x8b, 0x70,
    0xae, 0xa6, 0x9f, 0xa1, 0x49, 0x0e, 0x42, 0xa9, 0x0b, 0x4f, 0xcc, 0x36, 0x36,
    0x64, 0x4b, 0xce, 0x8a, 0xac, 0x9a, 0x63, 0x0f, 0x15, 0xf4, 0xe7, 0x58, 0x5f,
    0x83, 0x64, 0x0b, 0xdd, 0xb8, 0x81, 0xe2, 0x91, 0x48, 0x23, 0x53, 0xf3, 0x6a,
    0x63, 0x58, 0x16, 0x84, 0xf6, 0xea, 0x88, 0xf8, 0x0b, 0x3a, 0x2e, 0xcc, 0xb1,
    0xf0, 0x6a, 0xc7, 0x4a, 0x40, 0x31, 0x59, 0xdf, 0x7b, 0x67, 0x69, 0xa2, 0x6e,
    0x3c, 0xa7, 0x7d, 0x26, 0x95, 0x29, 0xf4, 0x81, 0xee, 0x7c, 0x8f, 0xdb, 0xbc,
    0x7e, 0xad, 0x0a, 0xc3, 0x50, 0x2b, 0x48, 0xf8, 0xd1, 0xf3, 0xd4, 0x30, 0xdb,
    0xe8, 0x79, 0x55, 0x06, 0x24, 0xd9, 0xeb, 0x26, 0x31, 0x05, 0x18, 0x56, 0x46,
    0x09, 0xa9, 0x9f, 0x18, 0xc9, 0xb3, 0xfc, 0x0a, 0x6a, 0x60, 0x37, 0xb8, 0x72,
    0xac, 0xbc, 0x04, 0x09, 0x53, 0x16, 0x56, 0xb1, 0xa4, 0xa8, 0xd1, 0xbe, 0xf8,
    0x4d, 0xa7, 0xc0, 0x06, 0x67, 0xcd, 0xe9, 0x31, 0xa8, 0xe9, 0x1d, 0xe0, 0x6c,
    0xca, 0xd0, 0x25, 0x1f, 0xed, 0xf7, 0xc9, 0xa6, 0x46, 0x69, 0x6d, 0x56, 0x47,
    0xc7, 0xfb, 0xf9, 0x78, 0xd2, 0x5a, 0x90, 0xcf, 0x6d, 0xad, 0xcd, 0x4f, 0x6c,
    0x0a, 0x26, 0x31, 0xfb, 0x66, 0x2c, 0xcf, 0xce, 0x73, 0x73, 0x52, 0xc7, 0x73,
    0x77, 0xdf, 0x7a, 0x9f, 0xe5, 0x31, 0x15, 0x37, 0x00, 0xc8, 0x06, 0x87, 0xfa,
    0xb4, 0xd1, 0x2a, 0x7e, 0xde, 0x9d, 0xee, 0x3f, 0x82, 0x87, 0x35, 0x2f, 0xb8,
    0x9e, 0x27, 0xec, 0xa4, 0xe2, 0x1d, 0xde, 0x2e, 0xef, 0x9e, 0xa5, 0x1b, 0xe7,
    0x75, 0xfe, 0x77, 0x22, 0x10, 0x4c, 0x0c, 0x97, 0x05, 0xc9, 0x7c, 0x02, 0xb7,
    0xbd, 0x69, 0x33, 0x0d, 0xf7, 0x60, 0x2d, 0x95, 0x24, 0xf1, 0x4f, 0xef, 0xbe,
    0x96, 0x28, 0xd6, 0x38, 0xc9, 0x23, 0xc5, 0x77, 0x1d, 0x5e, 0xb7, 0xe2, 0xa5,
    0x46, 0xdb, 0x17, 0xe1, 0x19, 0xe1, 0x2d, 0x6b, 0x43, 0xa5, 0x15, 0x19, 0x32,
    0xc2, 0x97, 0xb3, 0x32, 0x64, 0x56, 0x37, 0x57, 0xa1, 0x6c, 0xc4, 0xa1, 0x54,
    0x29, 0xb7, 0x73, 0x43, 0x21, 0x47, 0x51, 0x98, 0x8b, 0xf0, 0x7d, 0xef, 0x03,
    0xdd, 0x6c, 0xe1, 0xff, 0x39, 0x91, 0xed, 0xf4, 0x9f, 0xb4, 0x12, 0x95, 0x6d,
    0x1c, 0xc1, 0x16, 0xfb, 0x90, 0xb4, 0x0e, 0xcf, 0x28, 0xf6, 0x5c, 0x48, 0xbe,
    0x09, 0x54, 0x73, 0xa8, 0xe4, 0x0e, 0xe0, 0xf5, 0x81, 0xcc, 0xc5, 0x9d, 0x3e,
    0xa3, 0x88, 0x3d, 0x32, 0x47, 0xd9, 0xd6, 0x4b, 0xed, 0x41, 0x73, 0x7e, 0xf8,
    0x61, 0x22, 0xfe, 0x72, 0x68, 0x7a, 0x97, 0x69, 0x95, 0xf2, 0xba, 0x5e, 0xe5,
    0xeb, 0x14, 0xbd, 0x0d, 0xf4, 0xf2, 0x31, 0xb9, 0xce, 0x49, 0x5c, 0x0b, 0xd9,
    0xc9, 0x72, 0x18, 0xc7, 0xd0, 0xe0, 0x62, 0x3e, 0xdb, 0xb0, 0x31, 0x45, 0xe8,
    0xac, 0x0e, 0x61, 0x20, 0xf5, 0xa2, 0xa0, 0xd5, 0x1b, 0x63, 0x66, 0x0a, 0x1f,
    0xb3, 0x7b, 0x5a, 0x92, 0xea, 0x68, 0xf9, 0x76, 0x5c, 0x35, 0x79, 0xfa, 0x92,
    0xb7, 0x6b, 0x84, 0x00, 0x64, 0x79, 0xed, 0xe9, 0xdb, 0xd1, 0x38, 0x57, 0x47,
    0x0c, 0xf1, 0x75, 0xa3, 0xe4, 0x89, 0x12, 0xb8, 0xf9, 0xd7, 0x37, 0x45, 0xbc,
    0x14, 0x82, 0x0f, 0x14, 0x88, 0x9f, 0xb7, 0x77, 0xb4, 0x92, 0x79, 0x38, 0x6f,
    0xf8, 0xf2, 0x69, 0x19, 0x97, 0x72, 0xad, 0x3b, 0x67, 0x81, 0x61, 0x7d, 0xed,
    0xaf, 0x1f, 0xe4, 0x15, 0x34, 0x1c, 0x92, 0xa3, 0x33, 0xcc, 0xe2, 0xd8, 0xc6,
    0x03, 0x9c, 0x10, 0x8f, 0xf0, 0xf9, 0x5b, 0xc6, 0xaf, 0x18, 0x0a, 0x09, 0xf2,
    0x0d, 0xa2, 0xeb, 0xee, 0x36, 0xeb, 0xe4, 0x76, 0xaf, 0xc4, 0x2c, 0x4c, 0x88,
    0xda, 0x57, 0x9f, 0x62, 0xf2, 0xf9, 0x9e, 0xa7, 0xc7, 0x62, 0x37, 0x5d, 0xcb,
    0xc4, 0xc2, 0xb4, 0x7c, 0x4d, 0xf1, 0x4f, 0xa0, 0x71, 0x13, 0x4c, 0xcb, 0x5b,
    0xd1, 0x90, 0x30, 0x47, 0x77, 0x75, 0x86, 0x87, 0xea, 0xc5, 0x0e, 0x49, 0xf8,
    0xd9, 0xbe, 0x1f, 0xe8, 0x6c, 0x65, 0x71, 0x22, 0x78, 0xbc, 0x93, 0xcb, 0xea,
    0x1a, 0x8f, 0xf1, 0xf3, 0x88, 0x0b, 0x0d, 0x52, 0x84, 0x79, 0x47, 0x1e, 0xbe,
    0xd8, 0x1d, 0x92, 0x4e, 0x0f, 0x54, 0xd7, 0xa3, 0xba, 0x3e, 0x42, 0xd8, 0x13,
    0x7a, 0x5e, 0xc1, 0x82, 0x3b, 0x13, 0x97, 0x5d, 0xd3, 0x8f, 0x3b, 0xbf, 0x1f,
    0xed, 0x66, 0x49, 0x2a, 0x6f, 0x9a, 0x0c, 0xe3, 0x37, 0x9c, 0x53, 0xb3, 0xd9,
    0xf1, 0xca, 0xcf, 0xde, 0x49, 0xb9, 0x94, 0x3f, 0xd8, 0x64, 0x75, 0x09, 0x6c,
    0x6b, 0x28, 0x84, 0x72, 0xda, 0x31, 0x5a, 0xc4, 0x4f, 0xb6, 0xea, 0xe4, 0x63,
    0x84, 0xbc, 0x5f, 0x93, 0x06, 0x50, 0x96, 0xb6, 0xa3, 0xaf, 0x10, 0x35, 0x67,
    0xca, 0x0c, 0x15, 0x20, 0x89, 0xd5, 0x06, 0x24, 0xd9, 0xa2, 0xc8, 0xd2, 0x79,
    0xaf, 0xfd, 0xf7, 0x16, 0x42, 0xb4, 0x56, 0x28, 0x92, 0x69, 0x00, 0xdb, 0xe8,
    0x69, 0xa8, 0xab, 0x3f, 0x19, 0xb7, 0x95, 0x5a, 0x11, 0x5e, 0xf5, 0xdb, 0x9c,
    0x03, 0xe7, 0xb8, 0xe1, 0xc7, 0x97, 0xe8, 0xbf, 0x00, 0xf7, 0x69, 0x6c, 0x46,
    0x75, 0x9b, 0x2f, 0x19, 0x89, 0x2e, 0xb1, 0x71, 0xd1, 0x1c, 0x68, 0x64, 0x51,
    0x26, 0x76, 0xb7, 0xe2, 0xed, 0x34, 0x1c, 0xb5, 0xe8, 0x42, 0x5a, 0x5a, 0xb9,
    0xe2, 0xf9, 0xb2, 0x1f, 0xb5, 0xf6, 0x52, 0x3d, 0x00, 0xb6, 0xcf, 0x42, 0x01,
    0xac, 0xa1, 0xc2, 0xb2, 0x35, 0xdb, 0x67, 0xe8, 0xd0, 0x03, 0xc8, 0xf8, 0x4a,
    0x08, 0xe3, 0x98, 0xf6, 0xe0, 0x44, 0xba, 0xb1, 0x44, 0x32, 0x7d, 0x79, 0x7d,
    0x71, 0x70, 0x1a, 0x0c, 0x8b, 0x71, 0x87, 0x23, 0x35, 0xde, 0x56, 0x12, 0xe8,
    0x9e, 0xaf, 0x8e, 0x30, 0xe1, 0xa3, 0xaa, 0xa1, 0xf4, 0xdc, 0x1a, 0xd3, 0x81,
    0xb3, 0xb8, 0x1d, 0xbf, 0x49, 0x01, 0x0a, 0x2d, 0xb5, 0x2c, 0xe5, 0xb2, 0x23,
    0x1a, 0x2d, 0x12, 0xca, 0xb0, 0xe6, 0x0d, 0x50, 0x61, 0x26, 0x4f, 0x50, 0xf2,
    0x2a, 0xd9, 0x70, 0xad, 0x8c, 0x75, 0xa3, 0x89, 0xec, 0xbc, 0x11, 0x1f, 0x33,
    0xff, 0x6f, 0x20, 0xb4, 0xb1, 0x36, 0xbe, 0x4a, 0x29, 0x0e, 0x14, 0x6e, 0x76,
    0x1a, 0xaf, 0xb3, 0x0c, 0x99, 0x13, 0xff, 0x20, 0x46, 0x36, 0x51, 0x70, 0xfe,
    0xa1, 0xfe, 0x01, 0xfc, 0x74, 0xc9, 0xcc, 0xca, 0xc5, 0x57, 0xc7, 0x32, 0xd4,
    0xd8, 0x73, 0xfc, 0x93, 0xa3, 0x15, 0x91, 0xe9, 0xf2, 0xba, 0xdf, 0x95, 0xea,
    0x31, 0x86, 0x7e, 0xff, 0xe3, 0x8c, 0x4e, 0xf7, 0x5f, 0xcb, 0xb0, 0xf7, 0x51,
    0x4a, 0x58, 0x45, 0xdb, 0xff, 0xbb, 0xfd, 0x0b, 0x94, 0x72, 0xaa, 0xdc, 0xd8,
    0x56, 0x77, 0xf4, 0x9c, 0x79, 0xca, 0x65, 0x20, 0x09, 0xfd, 0xb8, 0x2f, 0x5e,
    0x6a, 0x8c, 0x55, 0x61, 0x42, 0xeb, 0x85, 0x34, 0x9f, 0x43, 0x53, 0x81, 0x58,
    0xfc, 0xeb, 0x63, 0x14, 0xb1, 0x15, 0x8b, 0x35, 0x77, 0xd5, 0x72, 0x31, 0x26,
    0x30, 0xf1, 0x84, 0xcc, 0x7a, 0x2a, 0x18, 0x7a, 0xec, 0x8f, 0xd9, 0x31, 0x20,
    0xa5, 0x00, 0xe9, 0x5b, 0x88, 0x7b, 0x86, 0xb0, 0x07, 0x82, 0xbc, 0x31, 0x05,
    0xb5, 0xf3, 0xc3, 0x49, 0xff, 0x4e, 0x49, 0xbf, 0xd6, 0xcf, 0xf7, 0x2b, 0x85,
    0xe6, 0x5d, 0xa6, 0xff, 0x25, 0xe4, 0xd7, 0x99, 0x35, 0xa6, 0x5b, 0x57, 0xb9,
    0xa9, 0x9b, 0x4f, 0x01, 0xdc, 0x5f, 0x16, 0xd6, 0x3f, 0x05, 0xd7, 0x01, 0x1c,
    0xb8, 0xd3, 0xa3, 0xb0, 0x6c, 0x29, 0x94, 0x1a, 0xa4, 0x0b, 0xe3, 0x09, 0x9b,
    0x1c, 0xaf, 0x5e, 0xdc, 0x04, 0xc2, 0x60, 0xd7, 0xbe, 0xb3, 0x40, 0x18, 0xfd,
    0x21, 0xa7, 0xc5, 0x4c, 0xfe, 0x9d, 0xe5, 0x11, 0x79, 0xec, 0x2f, 0x67, 0xbb,
    0x6d, 0xf8, 0x9d, 0x73, 0x26, 0x87, 0xa4, 0xf4, 0x88, 0xda, 0xb6, 0x61, 0xe4,
    0x54, 0x52, 0xe4, 0xf9, 0x15, 0x70, 0xc9, 0xd4, 0x3f, 0x19, 0x76, 0x68, 0xb0,
    0x31, 0x94, 0xc1, 0xb4, 0x87, 0xb1, 0xe2, 0x2f, 0x7d, 0xe2, 0xf2, 0x27, 0xf8,
    0xf1, 0x15, 0xd6, 0xbd, 0x9a, 0xc7, 0xb1, 0xb3, 0xa9, 0xc8, 0x7d, 0x39, 0x4c,
    0xa7, 0xe5, 0x28, 0xa5, 0x79, 0x37, 0xbb, 0xad, 0x85, 0xc2, 0x27, 0x17, 0xc3,
    0xce, 0x79, 0x23, 0x94, 0x62, 0x8a, 0x1b, 0xfe, 0xbf, 0x7a, 0x74, 0x4d, 0xc1,
    0xc6, 0xf6, 0x36, 0xec, 0x73, 0x90, 0x1d, 0xed, 0xaa, 0x3e, 0xd8, 0xae, 0x4c,
    0xd0, 0x34, 0x59, 0x6d, 0x04, 0x44, 0xdb, 0xf4, 0x9e, 0xda, 0x05, 0xa9, 0x24,
    0xb9, 0x38, 0xde, 0x7a, 0x1e, 0x91, 0xdc, 0xa0, 0x35, 0xda, 0x45, 0x39, 0xff,
    0xfb, 0xc2, 0x50, 0x5c, 0x79, 0x2b, 0xd9, 0x89, 0x6f, 0xe4, 0x92, 0xee, 0xbf,
    0xb8, 0x31, 0x4f, 0xe5, 0x3e, 0x9f, 0xec, 0x3a, 0x3a, 0x55, 0xf5, 0x84, 0xd5,
    0x3d, 0xcd, 0xc9, 0xfc, 0x68, 0x39, 0xc5, 0x4f, 0xb0, 0xdc, 0x6b, 0xe9, 0xfa,
    0x38, 0xef, 0xb9, 0xfd, 0x6a, 0xa7, 0x1c, 0xeb, 0x0b, 0x6b, 0x65, 0x9c, 0x18,
    0x9b, 0x4a, 0x17, 0x5f, 0x7e, 0x8a, 0x4b, 0xd2, 0xe4, 0x52, 0x00, 0xa1, 0x72,
    0x2e, 0x3c, 0xc9, 0xda, 0x0b, 0x32, 0x3f, 0xee, 0xd3, 0xfe, 0xd5, 0x26, 0x32,
    0x73, 0x16, 0x25, 0xfb, 0xe1, 0x01, 0xa5, 0x45, 0x14, 0x29, 0x5a, 0x30, 0xe6,
    0xc5, 0x68, 0x42, 0x79, 0x4b, 0x93, 0xb9, 0xe7, 0xe4, 0x19, 0x49, 0xb5, 0x72,
    0x34, 0xaf, 0x2d, 0x69, 0xe4, 0x74, 0x6c, 0x37, 0x0b, 0x67, 0x36, 0x68, 0x46,
    0x03, 0xf2, 0x43, 0xdb, 0xd9, 0x67, 0x64, 0x6a, 0xa5, 0xb6, 0xe2, 0xa0, 0x05,
    0x73, 0xe2, 0x13, 0xdb, 0x50, 0x3d, 0xe5, 0x16, 0xe0, 0x2c, 0xdb, 0xde, 0xd9,
    0xdb, 0x9c, 0x2c, 0x78, 0xea, 0x5f, 0x60, 0x9f, 0xde, 0xb7, 0x6e, 0x34, 0xd8,
    0x6e, 0xd6, 0x3b, 0x47, 0xb0, 0x48, 0x1e, 0x9e, 0xdd, 0xe8, 0x0b, 0xaa, 0xc8,
    0x4b, 0x78, 0x84, 0xab, 0x11, 0xce, 0x1a, 0x95, 0xa5, 0x76, 0xc4, 0x23, 0xa8,
    0x6b, 0x95, 0xeb, 0x11, 0x60, 0x1b, 0x13, 0xb2, 0x54, 0x53, 0xcd, 0x5f, 0x63,
    0x7a, 0x09, 0xef, 0xce, 0x4f, 0x67, 0x99, 0x6d, 0x9d, 0xfa, 0x76, 0x94, 0xfc,
    0x6f, 0x48, 0x99, 0xc6, 0xed, 0xef, 0x64, 0x89, 0xac, 0xb0, 0x3b, 0x36, 0x24,
    0xde, 0x9f, 0xc8, 0xc6, 0xb5, 0x10, 0x58, 0x32, 0xc2, 0x03, 0xee, 0xd4, 0x45,
    0x90, 0x1b, 0x99, 0xd0, 0x0a, 0xa2, 0x20, 0x6c, 0x8d, 0xc2, 0x7f, 0x7e, 0x94,
    0x8d, 0x8c, 0xc3, 0x3e, 0x6c, 0x56, 0xd5, 0x3d, 0x2e, 0xae, 0xd9, 0x84, 0xb9,
    0x17, 0x06, 0x63, 0x44, 0x67, 0x4c, 0x1a, 0xc5, 0x42, 0xaa, 0xf7, 0xcf, 0x84,
    0x60, 0x5d, 0xe1, 0x2f, 0x21, 0x14, 0x6a, 0x52, 0xde, 0xd3, 0x2a, 0xca, 0x54,
    0x9c, 0xa2, 0xf8, 0x56, 0x73, 0x49, 0xbe, 0x8d, 0xa5, 0x48, 0xc8, 0x6f, 0x5e,
    0x20, 0xb9, 0x88, 0x91, 0x68, 0x07, 0x9c, 0x38, 0x2d, 0x4e, 0x00, 0x35, 0xab,
    0x8d, 0x68, 0xe2, 0xf8, 0x33, 0x45, 0xea, 0xb4, 0x73, 0x77, 0x4d, 0x6f, 0x0f,
    0x28, 0xf1, 0xb1, 0x05, 0x51, 0x25, 0x32, 0x93, 0x25, 0xf1, 0x62, 0xe4, 0xe6,
    0xfb, 0xdc, 0x6d, 0x10, 0x1e, 0xdf, 0xcd, 0xcf, 0xb2, 0x62, 0x22, 0xda, 0xfd,
    0x48, 0x4b, 0x23, 0xfd, 0xf1, 0x46, 0xb0, 0xcf, 0x85, 0x01, 0x27, 0x03, 0x73,
    0xcc, 0xbc, 0xb0, 0xde, 0xb9, 0x25, 0xc4, 0xe0, 0x25, 0x60, 0x5e, 0x9f, 0x1a,
    0xed, 0xd4, 0xf2, 0x2c, 0xd4, 0xfb, 0x0c, 0xcb, 0x72, 0x5b, 0x58, 0xe8, 0x38,
    0x11, 0x75, 0xef, 0x49, 0x77, 0x5c, 0xd6, 0xa6, 0xeb, 0x8a, 0xc7, 0x17, 0x19,
    0xc6, 0x09, 0x7b, 0x72, 0x1b, 0xb3, 0xfa, 0x6d, 0xfd, 0x46, 0x02, 0x1d, 0xc2,
    0xe3, 0xcd, 0x3f, 0xe8, 0xf2, 0x03, 0x60, 0x83, 0xc5, 0x3d, 0x68, 0xf8, 0x1d,
    0xce, 0x8b, 0x23, 0x8e, 0x20, 0xd9, 0xbc, 0x09, 0x35, 0x78, 0x2e, 0xf6, 0xc1,
    0x0e, 0xb8, 0x41, 0xf0, 0xc4, 0x17, 0x4c, 0xb0, 0x00, 0xc7, 0xdc, 0x8a, 0xc3,
    0xd6, 0x22, 0x74, 0xb8, 0x0e, 0x1e, 0x2d, 0xd8, 0xa1, 0x9e, 0x82, 0xf0, 0x6a,
    0xeb, 0xc6, 0x1e, 0x22, 0xd3, 0x35, 0x0a, 0xe9, 0x83, 0x72, 0x36, 0xc3, 0x85,
    0x94, 0x3c, 0x7b, 0xc3, 0xa3, 0xc8, 0x00, 0xba, 0xf2, 0x5b, 0x31, 0x4e, 0x58,
    0x59, 0x9f, 0xe9, 0xea, 0x4f, 0x17, 0x27, 0xa7, 0x2f, 0x5e, 0xad, 0xb8, 0x66,
    0x42, 0x32, 0xec, 0xc6, 0xdd, 0x77, 0xc9, 0x9c, 0x71, 0x3d, 0xd5, 0x01, 0xe1,
    0x8c, 0xfc, 0xdc, 0xe9, 0x91, 0xc0, 0xbc, 0xb6, 0x67, 0xab, 0x0c, 0xf7, 0xf2,
    0xa5, 0xc9, 0x7d, 0x16, 0x9d, 0xdd, 0x98, 0x1e, 0x13, 0x0b, 0x06, 0xf4, 0x6a,
    0x1d, 0xa1, 0x3b, 0x04, 0x86, 0x67, 0xc6, 0x1f, 0xed, 0xa1, 0x51, 0xd1, 0x50,
    0xc5, 0x54, 0x2f, 0xd0, 0xeb, 0x89, 0x32, 0xa0, 0x52, 0x75, 0x27, 0xb1, 0xbc,
    0xaa, 0x0f, 0x6a, 0xc2, 0xad, 0x4e, 0xc3, 0x1a, 0x2a, 0xc0, 0x70, 0x9c, 0xfb,
    0xf6, 0xf4, 0xb3, 0x46, 0x5b, 0x4e, 0x35, 0x99, 0x4d, 0x00, 0xe7, 0x47, 0x7b,
    0x4d, 0xd8, 0x1c, 0xaa, 0x71, 0xfd, 0x77, 0xf2, 0xb5, 0xce, 0x8f, 0x29, 0x35,
    0xd8, 0x91, 0xb2, 0x4c, 0xa8, 0x70, 0xd0, 0xe6, 0x5a, 0x43, 0xb8, 0x49, 0xe3,
    0x0f, 0xd3, 0xa1, 0x63, 0x9c, 0xd3, 0x31, 0xe9, 0xc9, 0xdb, 0x1e, 0xe0, 0xa7,
    0x67, 0x56, 0x26, 0x35, 0x27, 0x7a, 0xf1, 0xfa, 0x8d, 0xed, 0xd8, 0xdf, 0xc5,
    0xc6, 0x41, 0x5f, 0x08, 0xd3, 0xcb, 0xfd, 0x17, 0x74, 0xf4, 0x97, 0xc7, 0x13,
    0xd8, 0x3e, 0x26, 0xbd, 0x89, 0x15, 0x87, 0xb8, 0x53, 0x00, 0x99, 0x30, 0xf5,
    0xb4, 0x0c, 0x71, 0xa4, 0xc6, 0xe2, 0x88, 0x49, 0x67, 0x45, 0x66, 0x52, 0x99,
    0x27, 0x0d, 0x1a, 0xaa, 0xb1, 0x1e, 0xe5, 0xc9, 0x48, 0x79, 0x61, 0x96, 0xbe,
    0xbb, 0xfb, 0x17, 0xe3, 0x7d, 0xc5, 0x98, 0xd3, 0x01, 0x00, 0xc8, 0x43, 0x09,
    0x72, 0x77, 0x84, 0x99, 0x9d, 0xbd, 0xdc, 0xbb, 0x05, 0x41, 0x09, 0xf6, 0x0a,
    0x7a, 0xb0, 0x54, 0xa9, 0xc8, 0x5e, 0xdf, 0x3d, 0xbb, 0x8d, 0xc0, 0xbd, 0x07,
    0xa7, 0x46, 0x2f, 0xde, 0x69, 0xb8, 0xd3, 0xb2, 0xdc, 0xe9, 0x20, 0x0b, 0xb3,
    0x59, 0xe0, 0x91, 0x4d, 0x1b, 0xb6, 0xec, 0xb4, 0x2f, 0x1e, 0xe1, 0x5a, 0x6b,
    0x52, 0xe8, 0x5e, 0x2b, 0x9f, 0xbf, 0x8b, 0x76, 0x3a, 0xca, 0x5c, 0x55, 0xf4,
    0x23, 0xd8, 0x0d, 0x31, 0x16, 0xcd, 0x13, 0xcf, 0xb5, 0x4a, 0x03, 0xa2, 0x01,
    0xa3, 0x24, 0x82, 0xfd, 0xaa, 0x37, 0x29, 0x10, 0x7e, 0x18, 0xed, 0xa1, 0x09,
    0x62, 0x9a, 0x07, 0x53, 0x65, 0x5a, 0xb6, 0x6e, 0xc9, 0xca, 0xa4, 0xce, 0x85,
    0x8d, 0x5f, 0x96, 0x5c, 0x09, 0x37, 0x7c, 0x12, 0x7b, 0x39, 0x31, 0xc2, 0x8f,
    0x78, 0x07, 0xf6, 0x83, 0x34, 0xb5, 0xde, 0x90, 0x10, 0x3f, 0x5e, 0x17, 0x13,
    0x11, 0xdb, 0xb3, 0xfd, 0xaf, 0x88, 0x7a, 0x2c, 0xc8, 0x26, 0xe1, 0x10, 0x6c,
    0x2d, 0x17, 0x96, 0x35, 0x26, 0x8a, 0x3b, 0x8d, 0xfa, 0x28, 0x48, 0x8f, 0xe6,
    0x15, 0x7b, 0xa4, 0x65, 0x2d, 0x09, 0xab, 0x00, 0xe6, 0xda, 0xba, 0x73, 0xee,
    0x2e, 0xdc, 0xf7, 0x3c, 0x79, 0x1a, 0xf9, 0x87, 0xb0, 0x6f, 0x77, 0xf2, 0x19,
    0xdd, 0xe7, 0xa6, 0x00, 0x30, 0xe0, 0x8a, 0x88, 0xaa, 0xb6, 0xbc, 0x5e, 0x06,
    0x5d, 0x5c, 0x58, 0xbe, 0x89, 0x41, 0x99, 0xa9, 0x77, 0x7d, 0xf5, 0x7c, 0xa7,
    0xc0, 0xb7, 0x85, 0x79, 0x63, 0x57, 0xdc, 0x74, 0xb3, 0x8a, 0x70, 0xdc, 0x64,
    0x7d, 0xf9, 0x5a, 0xb7, 0x28, 0x0a, 0x78, 0x84, 0x89, 0x15, 0xbe, 0x49, 0x24,
    0xbe, 0x2d, 0x6a, 0x7e, 0xa3, 0x4c, 0xb9, 0xf2, 0x4b, 0xb4, 0x53, 0xb5, 0x5d,
    0x5e, 0x93, 0x43, 0xbd, 0x65, 0xb5, 0xf2, 0x01, 0x3b, 0xb5, 0x38, 0x21, 0xa9,
    0xcc, 0xec, 0x8f, 0x99, 0x08, 0x5c, 0x70, 0x31, 0xd5, 0x4a, 0x09, 0x8b, 0x94,
    0xca, 0x79, 0xae, 0x3d, 0x05, 0x9d, 0x79, 0xf6, 0x98, 0x7c, 0x23, 0xce, 0x69,
    0x78, 0xfe, 0xa3, 0xba, 0x0e, 0xb8, 0x41, 0xbf, 0x05, 0x85, 0x85, 0x83, 0xf5,
    0x35, 0x90, 0x55, 0xf1, 0xa9, 0xe1, 0x27, 0x3d, 0x7b, 0xde, 0x25, 0x4f, 0x3b,
    0x7b, 0xb3, 0x62, 0xc3, 0xa9, 0xda, 0xc3, 0xb4, 0xd2, 0x00, 0x52, 0x25, 0x6b,
    0x63, 0x1d, 0xd2, 0x2b, 0xca, 0x74, 0x15, 0x41, 0x20, 0x12, 0xf9, 0xde, 0xf2,
    0xda, 0xc5, 0x56, 0xcc, 0x78, 0x5e, 0x6e, 0x94, 0x5f, 0x55, 0xea, 0xca, 0x10,
    0x6b, 0xca, 0x71, 0x33, 0x79, 0x96, 0x05, 0xe1, 0x9d, 0xde, 0x7a, 0x6b, 0xb5,
    0xf7, 0x6d, 0xf0, 0x7c, 0xf6, 0x43, 0x33, 0x49, 0x12, 0xaf, 0x8a, 0xf9, 0xa2,
    0x5d, 0x13, 0xfa, 0x74, 0x8a, 0x23, 0xf1, 0x4d, 0x05, 0xd1, 0xf0, 0xec, 0xef,
    0xb1, 0x7e, 0x5b, 0xa5, 0x7b, 0x17, 0x68, 0xdc, 0xea, 0x65, 0x54, 0xe1, 0x5c,
    0x38, 0x49, 0xab, 0xab, 0x57, 0x3e, 0x29, 0x04, 0xb7, 0x15, 0x87, 0xb7, 0x69,
    0x03, 0x3c, 0x1c, 0xf7, 0x3c, 0x47, 0x42, 0xd3, 0xe4, 0x98, 0x6b, 0x16, 0xeb,
    0x6f, 0x86, 0xe8, 0x32, 0x91, 0x47, 0x75, 0x62, 0x8a, 0x9e, 0x73, 0xc4, 0xa7,
    0x7b, 0x92, 0x9f, 0xdd, 0xcc, 0x7d, 0x32, 0x2d, 0x81, 0x09, 0x64, 0x91, 0x0d,
    0x7f, 0x5e, 0xe6, 0xec, 0xdb, 0x16, 0x3b, 0x15, 0xe4, 0x98, 0xb2, 0x16, 0x23,
    0x73, 0xa5, 0x9a, 0xbd, 0x2d, 0x8e, 0x29, 0x51, 0x2a, 0xce, 0xfa, 0xb8, 0xf2,
    0x2f, 0x69, 0xf6, 0x1c, 0x92, 0xc5, 0xb9, 0xe7, 0x83, 0xe8, 0x77, 0xab, 0x9b,
    0xf8, 0xe4, 0x1a, 0x4a, 0xe7, 0x8c, 0x96, 0x35, 0x6e, 0x4c, 0x70, 0x53, 0x38,
    0x9a, 0x4e, 0x9d, 0x02, 0xd4, 0xfc, 0x2f, 0x71, 0xf2, 0x3c, 0xdd, 0xe2, 0x3e,
    0xcb, 0x90, 0x75, 0x1e, 0xff, 0x7c, 0x8d, 0xfa, 0x68, 0xb1, 0xe2, 0x65, 0xb5,
    0xbb, 0x68, 0x1f, 0xcd, 0x1e, 0x66, 0x9c, 0xdf, 0x11, 0x57, 0x94, 0xdc, 0xac,
    0xbc, 0x3d, 0xb3, 0xed, 0xe5, 0xd0, 0x44, 0x50, 0x4f, 0x01, 0x19, 0x66, 0x5f,
    0x6e, 0xae, 0x7a, 0xa3, 0x75, 0x85, 0x1a, 0xc4, 0xca, 0xda, 0x79, 0xe0, 0x9f,
    0xbf, 0x18, 0xbb, 0x6e, 0x67, 0xde, 0xfb, 0xe1, 0x48, 0x08, 0xae, 0xba, 0x53,
    0x5e, 0x18, 0x1d, 0x30, 0xf9, 0x3e, 0xfb, 0xf0, 0xc9, 0x62, 0x30, 0x96, 0xfd,
    0x3d, 0xb5, 0x05, 0xcd, 0x33, 0xfb, 0xd0, 0x91, 0x43, 0x1d, 0x83, 0x8d, 0x87,
    0x92, 0x76, 0x09, 0xa1, 0x12, 0xd8, 0x10, 0x23, 0xb8, 0x1b, 0xf0, 0x2d, 0xfe,
    0x7d, 0x19, 0x54, 0xb6, 0x31, 0xb7, 0x2d, 0x4d, 0xd3, 0x75, 0x67, 0x16, 0x01,
    0x36, 0xdf, 0x0c, 0x8a, 0xe5, 0xd3, 0x58, 0xfb, 0x8a, 0xb6, 0x9e, 0xbf, 0xe8,
    0x1c, 0x77, 0x98, 0x52, 0x1f, 0x96, 0xc1, 0xf1, 0xc0, 0xbf, 0x4d, 0xde, 0x18,
    0xa6, 0x2f, 0xf2, 0x03, 0x49, 0xac, 0x3c, 0xd0, 0x02, 0x16, 0x24, 0xee, 0xc5,
    0x4d, 0x91, 0x62, 0xde, 0xa0, 0xed, 0x1a, 0x86, 0x7e, 0xf5, 0xc1, 0xe2, 0xc1,
    0xa3, 0x39, 0x7c, 0x30, 0x6c, 0xd3, 0xf8, 0x14, 0x0c, 0x52, 0xbe, 0xcf, 0xcb,
    0xc7, 0xea, 0xb6, 0x99, 0x52, 0x01, 0x0c, 0x8d, 0xe4, 0x45, 0x64, 0xc2, 0x65,
    0x0c, 0x1d, 0x1c, 0x97, 0xfa, 0xe8, 0xe8, 0x7b, 0x91, 0xa8, 0x94, 0x2b, 0x07,
    0x1d, 0x53, 0xc2, 0x14, 0x0d, 0x9b, 0xd1, 0xb6, 0x22, 0x19, 0x4e, 0xaf, 0x74,
    0x54, 0x09, 0xff, 0x45, 0x84, 0x20, 0x63, 0xeb, 0x1c, 0x9d, 0x55, 0xc5, 0x5b,
    0xc0, 0x79, 0x4b, 0x8f, 0xa5, 0x79, 0xdf, 0x5e, 0xbf, 0x02, 0x8e, 0x5c, 0xb6,
    0x6c, 0x8d, 0xab, 0xc0, 0x21, 0x70, 0x6c, 0xca, 0x43, 0x8e, 0xd8, 0x8d, 0xf5,
    0x4d, 0x91, 0x4a, 0xa3, 0x2a, 0x7d, 0x92, 0x54, 0x6c, 0x02, 0xb2, 0x7f, 0xa3,
    0x48, 0xd7, 0x27, 0x40, 0x85, 0x0f, 0xb6, 0xee, 0x1a, 0x7f, 0x6d, 0x65, 0x7a,
    0xe4, 0xa3, 0xd7, 0x72, 0x83, 0x56, 0xb8, 0xef, 0xcf, 0x84, 0xec, 0xb0, 0xd2,
    0x3b, 0x8f, 0xd8, 0x87, 0x3a, 0xac, 0x0f, 0xc1, 0x83, 0xdc, 0xa2, 0x17, 0xc7,
    0x54, 0xf6, 0x4e, 0x86, 0x42, 0x47, 0xda, 0x5b, 0x9f, 0xaf, 0x78, 0x63, 0x71,
    0x61, 0xc6, 0x10, 0x48, 0x76, 0x1a, 0xbb, 0x2b, 0xbb, 0xdb, 0xaf, 0x36, 0x92,
    0x03, 0x16, 0xce, 0x58, 0x09, 0x9b, 0x8e, 0xe5, 0xdc, 0x41, 0xb6, 0xdd, 0xfd,
    0xff, 0x8a, 0x06, 0x60, 0xcc, 0x15, 0xb4, 0xe8, 0xe9, 0x72, 0xf0, 0x6d, 0x23,
    0xf0, 0xa1, 0x5b, 0x2e, 0x0d, 0x7a, 0x3c, 0x1f, 0x4c, 0x2c, 0xcc, 0x5c, 0xab,
    0xaa, 0x87, 0x29, 0x9b, 0x5a, 0x7c, 0xa2, 0xba, 0xaa, 0x0c, 0x62, 0x05, 0xea,
    0x48, 0x67, 0xdb, 0x5c, 0xd4, 0xa4, 0x90, 0xe4, 0x89, 0x40, 0x25, 0xe2, 0xcc,
    0x03, 0x8a, 0xb7, 0x49, 0x23, 0xfe, 0xee, 0xcb, 0x4b, 0x31, 0x72, 0xfe, 0x0d,
    0x57, 0xd7, 0x6a, 0x14, 0x9f, 0x94, 0x60, 0x11, 0x7e, 0xf5, 0x65, 0x70, 0x0b,
    0xc7, 0x56, 0x1c, 0xa8, 0x42, 0x53, 0xda, 0x41, 0x25, 0x83, 0x9b, 0xa6, 0xc8,
    0x7b, 0x56, 0xeb, 0x04, 0xd1, 0xc7, 0x13, 0xf0, 0xf0, 0xe9, 0x37, 0xf9, 0x47,
    0xd7, 0x13, 0x0d, 0x13, 0x7a, 0xfc, 0x2d, 0x51, 0x58, 0xda, 0x51, 0x99, 0x90,
    0xc0, 0xf3, 0xd9, 0xc9, 0x81, 0xfe, 0xd4, 0x5f, 0xc1, 0x29, 0x1e, 0xe0, 0x15,
    0x36, 0xf5, 0x3a, 0x47, 0x79, 0x0c, 0xbb, 0x52, 0xbd, 0xa7, 0x93, 0x95, 0x62,
    0xdb, 0x31, 0x15, 0x92, 0x76, 0x83, 0x85, 0x15, 0xa5, 0x41, 0x9a, 0x93, 0x54,
    0x68, 0x62, 0x87, 0x67, 0xde, 0xbd, 0x70, 0x9c, 0xce, 0x56, 0xaf, 0x73, 0x67,
    0xa3, 0xaa, 0x31, 0x56, 0x83, 0xa0, 0xa8, 0x72, 0xae, 0xda, 0x5e, 0x70, 0x39,
    0x42, 0x7e, 0xa9, 0x96, 0x12, 0xa8, 0x24, 0xa6, 0x93, 0x8f, 0x8e, 0xc7, 0xdc,
    0xa4, 0x1f, 0x4c, 0xd5, 0x0f, 0x67, 0x91, 0x82, 0x90, 0xaa, 0x76, 0xf9, 0xe6,
    0xc1, 0x8a, 0x4d, 0xea, 0x40, 0x97, 0xb3, 0xfa, 0x5b, 0x5c, 0xb2, 0x00, 0x58,
    0xa1, 0x7a, 0xd6, 0x1d, 0x5d, 0x19, 0xb4, 0xac, 0x25, 0x07, 0x44, 0x8b, 0x50,
    0x95, 0x8e, 0xb3, 0xe4, 0x9c, 0x95, 0x4a, 0x5e, 0x71, 0x47, 0x4d, 0x44, 0x10,
    0x1e, 0x6e, 0xc4, 0x85, 0x9a, 0xd8, 0x3e, 0x84, 0xae, 0x17, 0x22, 0x23, 0x28,
    0xe9, 0x9d, 0xd7, 0x2d, 0x5f, 0xdf, 0x8d, 0x60, 0xf3, 0x3e, 0xb0, 0x5e, 0xdc,
    0xe0, 0x94, 0xba, 0x3b, 0x03, 0x31, 0xf0, 0x56, 0x13, 0x90, 0xbf, 0xef, 0xa6,
    0xd3, 0x1d, 0x29, 0x8d, 0x5a, 0xcd, 0xd9, 0x8e, 0x2e, 0xcf, 0xc6, 0xdc, 0xfd,
    0x87, 0x43, 0xac, 0x3d, 0x74, 0x65, 0x92, 0xa3, 0x1f, 0x49, 0xee, 0xd4, 0x03,
    0x88, 0xad, 0xf4, 0x3b, 0x69, 0x7a, 0x90, 0x33, 0x8d, 0x92, 0x83, 0x92, 0xfa,
    0x63, 0xef, 0x1d, 0x7d, 0xb5, 0xc1, 0xa9, 0x53, 0x34, 0xb2, 0x05, 0x9a, 0x41,
    0x08, 0x88, 0x7e, 0xea, 0x7a, 0x27, 0x94, 0x98, 0xd1, 0x4c, 0x6d, 0x31, 0x65,
    0xcc, 0x85, 0x6f, 0xfc, 0xd5, 0xea, 0x6a, 0xfd, 0x71, 0x22, 0x4b, 0x55, 0xd7,
    0x05, 0x4c, 0x4d, 0x23, 0xd2, 0x94, 0xab, 0x5b, 0xb6, 0x1b, 0x52, 0x1c, 0x63,
    0xc4, 0xca, 0x72, 0xfc, 0xff, 0xff, 0x04, 0x00, 0x00, 0x00, 0xc8, 0x00, 0x00,
    0x00, 0xae, 0xfd, 0x4c, 0xbe, 0x0c, 0x79, 0x89, 0x3e, 0x57, 0xb6, 0x05, 0x3f,
    0x4a, 0x07, 0xde, 0x3e, 0x78, 0xd3, 0xe4, 0x3d, 0xd0, 0x8a, 0x76, 0xbd, 0xc6,
    0x52, 0x2e, 0xbe, 0xc0, 0x1b, 0xaf, 0xbd, 0xd1, 0x55, 0x09, 0x3f, 0x50, 0x93,
    0x6e, 0x3d, 0x3e, 0xfc, 0x56, 0xbe, 0x21, 0x6c, 0x02, 0xbf, 0xab, 0x18, 0xe8,
    0xbe, 0x60, 0x8d, 0x43, 0xbd, 0x86, 0xb0, 0x92, 0x3e, 0x80, 0xfe, 0x31, 0xbc,
    0xa8, 0x25, 0x03, 0xbf, 0x1f, 0x2d, 0x0d, 0x3f, 0x2a, 0x12, 0xc1, 0x3e, 0x34,
    0xea, 0x71, 0xbe, 0x50, 0x0d, 0x0a, 0xbd, 0x0a, 0x70, 0xd4, 0x3e, 0x48, 0x9b,
    0x83, 0x3e, 0x08, 0x09, 0x8a, 0xbe, 0x99, 0x29, 0x19, 0x3f, 0x44, 0xef, 0xcb,
    0xbe, 0xe3, 0x7d, 0x1c, 0x3f, 0x68, 0xaa, 0x37, 0xbe, 0xb8, 0x28, 0x08, 0x3e,
    0xfc, 0xa8, 0xbe, 0xbe, 0x4c, 0xcf, 0x25, 0x3e, 0x83, 0x7f, 0x04, 0x3f, 0xb2,
    0xf4, 0xf3, 0x3e, 0xbb, 0xe8, 0x05, 0xbf, 0xd4, 0x37, 0x01, 0x3e, 0x29, 0x6b,
    0x21, 0xbf, 0xce, 0x97, 0x6d, 0xbe, 0xfe, 0xa2, 0xf4, 0xbe, 0xec, 0x1b, 0xa0,
    0x3e, 0x1c, 0x85, 0x36, 0x3e, 0x94, 0x6e, 0x1f, 0xbf, 0xd2, 0xd2, 0x9d, 0x3e,
    0x1e, 0x51, 0xfd, 0x3e, 0x60, 0x1e, 0x35, 0x3e, 0xef, 0xd4, 0xa3, 0xbe, 0xce,
    0x33, 0xee, 0x3e, 0xd9, 0x73, 0x1c, 0xbf, 0x1e, 0xf3, 0x1d, 0xbf, 0xb8, 0x66,
    0x2f, 0x3e, 0x00, 0xd8, 0xcb, 0x3d, 0x46, 0xfd, 0xff, 0xff, 0x04, 0x00, 0x00,
    0x00, 0x08, 0x00, 0x00, 0x00, 0xff, 0xff, 0xff, 0xff, 0x60, 0x03, 0x00, 0x00,
    0x5a, 0xfd, 0xff, 0xff, 0x04, 0x00, 0x00, 0x00, 0x80, 0x01, 0x00, 0x00, 0xc2,
    0x16, 0xe8, 0xbd, 0x14, 0xb8, 0x4b, 0xbe, 0x50, 0x69, 0x28, 0xbc, 0xa4, 0xda,
    0xc4, 0xbd, 0xfa, 0xf9, 0x4a, 0x3e, 0x08, 0x5f, 0x0c, 0x3d, 0x76, 0xa2, 0x2f,
    0x3e, 0x90, 0x71, 0x3e, 0xbc, 0xf0, 0xe1, 0x1e, 0xbe, 0xa8, 0xa2, 0x8a, 0x3d,
    0x68, 0xf7, 0x59, 0x3e, 0xd5, 0x23, 0x08, 0xbe, 0x50, 0x8f, 0x8b, 0x3d, 0xe0,
    0x24, 0x7e, 0x3d, 0x82, 0x66, 0x1f, 0xbe, 0x50, 0xd7, 0x82, 0x3c, 0x24, 0x5a,
    0x56, 0xbe, 0xc0, 0xb1, 0xb7, 0xbc, 0x96, 0x47, 0x16, 0x3e, 0xd8, 0x18, 0x6e,
    0xbe, 0xb0, 0xb7, 0xbe, 0xbd, 0xca, 0xdd, 0x10, 0xbe, 0x26, 0xbc, 0x5e, 0x3e,
    0x5c, 0xae, 0x0c, 0xbd, 0x5c, 0x67, 0x2a, 0x3e, 0x10, 0x7e, 0xd3, 0x3d, 0x48,
    0x1a, 0x08, 0xbd, 0xb2, 0xb3, 0x07, 0xbe, 0x38, 0xbe, 0x4f, 0x3d, 0xe0, 0x9e,
    0x2d, 0x3d, 0x8a, 0x78, 0x01, 0xbe, 0x2a, 0xcc, 0xa6, 0xbd, 0x68, 0x4e, 0x41,
    0x3e, 0x4c, 0x52, 0xe7, 0xbd, 0x4e, 0x43, 0x5d, 0xbe, 0xe2, 0x7a, 0x4d, 0x3e,
    0x80, 0x63, 0x8f, 0x3c, 0x1c, 0xaf, 0x25, 0xbe, 0x48, 0x1f, 0x6e, 0xbd, 0x4c,
    0x67, 0xcb, 0x3d, 0xb2, 0xb8, 0x70, 0x3e, 0xc2, 0xd1, 0x30, 0xbe, 0xb0, 0x14,
    0x45, 0x3d, 0xdf, 0xc7, 0x20, 0xbe, 0x62, 0xbe, 0x13, 0xbe, 0x4e, 0x48, 0x9a,
    0xbd, 0x7a, 0x16, 0xe9, 0xbd, 0x38, 0x8c, 0x4c, 0x3d, 0xf0, 0x44, 0x79, 0x3e,
    0x2b, 0x6b, 0x63, 0xbe, 0xbb, 0xe5, 0x4c, 0xbe, 0x6c, 0x13, 0xbb, 0x3d, 0x40,
    0x61, 0x87, 0x3c, 0x14, 0x24, 0x0a, 0xbe, 0x80, 0xf9, 0xed, 0x3b, 0x18, 0x30,
    0x42, 0xbd, 0x00, 0x57, 0xd6, 0x3c, 0xa8, 0x9e, 0x24, 0x3d, 0x62, 0x12, 0x04,
    0x3e, 0x54, 0xa0, 0x20, 0x3e, 0xe6, 0xe9, 0x87, 0xbd, 0x30, 0xb1, 0x6c, 0x3e,
    0xd0, 0xff, 0x6a, 0x3e, 0x37, 0xee, 0x5f, 0xbe, 0x46, 0x1b, 0xf3, 0xbd, 0x49,
    0xcb, 0x23, 0xbe, 0xae, 0xa6, 0x2b, 0x3e, 0x06, 0x0e, 0x53, 0xbe, 0x30, 0x38,
    0x66, 0x3e, 0x56, 0x2a, 0x16, 0x3e, 0x32, 0x02, 0x66, 0x3e, 0x7e, 0x25, 0x33,
    0x3e, 0x8c, 0xe4, 0x0d, 0xbd, 0x28, 0xc4, 0x72, 0xbd, 0x0a, 0xb7, 0x1b, 0xbe,
    0x00, 0xaa, 0x7c, 0x3d, 0xd4, 0x16, 0x52, 0xbe, 0x90, 0xb1, 0xf9, 0x3c, 0xa0,
    0x1c, 0x46, 0x3c, 0xa0, 0x44, 0xb5, 0x3d, 0x9a, 0x8e, 0x1d, 0x3e, 0xb2, 0x93,
    0x05, 0x3e, 0x62, 0x77, 0x1f, 0xbe, 0x70, 0x78, 0x35, 0x3d, 0x42, 0x46, 0x20,
    0x3e, 0xec, 0x28, 0x0e, 0xbd, 0x82, 0x19, 0x6b, 0xbe, 0xe2, 0x67, 0xd3, 0xbd,
    0xd0, 0x4d, 0xcf, 0x3d, 0x96, 0xde, 0x57, 0xbe, 0x28, 0x10, 0x46, 0x3d, 0xf4,
    0x35, 0x7f, 0xbd, 0x84, 0x3e, 0xa9, 0x3d, 0x04, 0x1b, 0x08, 0xbe, 0x90, 0x94,
    0x13, 0xbe, 0x1c, 0x26, 0x2a, 0xbe, 0xe6, 0xfe, 0xff, 0xff, 0x04, 0x00, 0x00,
    0x00, 0x80, 0x00, 0x00, 0x00, 0x00, 0x00, 0x00, 0x00, 0x00, 0x00, 0x00, 0x00,
    0x00, 0x00, 0x00, 0x00, 0x00, 0x00, 0x00, 0x00, 0x00, 0x00, 0x00, 0x00, 0x00,
    0x00, 0x00, 0x00, 0x00, 0x00, 0x00, 0x00, 0x00, 0x00, 0x00, 0x00, 0x00, 0x00,
    0x00, 0x00, 0x00, 0x00, 0x00, 0x00, 0x00, 0x00, 0x00, 0x00, 0x00, 0x00, 0x00,
    0x00, 0x00, 0x00, 0x00, 0x00, 0x00, 0x00, 0x00, 0x00, 0x00, 0x00, 0x00, 0x00,
    0x00, 0x00, 0x00, 0x00, 0x00, 0x00, 0x00, 0x00, 0x00, 0x00, 0x00, 0x00, 0x00,
    0x00, 0x00, 0x00, 0x00, 0x00, 0x00, 0x00, 0x00, 0x00, 0x00, 0x00, 0x00, 0x00,
    0x00, 0x00, 0x00, 0x00, 0x00, 0x00, 0x00, 0x00, 0x00, 0x00, 0x00, 0x00, 0x00,
    0x00, 0x00, 0x00, 0x00, 0x00, 0x00, 0x00, 0x00, 0x00, 0x00, 0x00, 0x00, 0x00,
    0x00, 0x00, 0x00, 0x00, 0x00, 0x00, 0x00, 0x00, 0x00, 0x00, 0x00, 0x00, 0x00,
    0x00, 0x00, 0x00, 0x24, 0xf9, 0xff, 0xff, 0x28, 0xf9, 0xff, 0xff, 0x0f, 0x00,
    0x00, 0x00, 0x4d, 0x4c, 0x49, 0x52, 0x20, 0x43, 0x6f, 0x6e, 0x76, 0x65, 0x72,
    0x74, 0x65, 0x64, 0x2e, 0x00, 0x01, 0x00, 0x00, 0x00, 0x14, 0x00, 0x00, 0x00,
    0x00, 0x00, 0x0e, 0x00, 0x18, 0x00, 0x14, 0x00, 0x10, 0x00, 0x0c, 0x00, 0x08,
    0x00, 0x04, 0x00, 0x0e, 0x00, 0x00, 0x00, 0x14, 0x00, 0x00, 0x00, 0x1c, 0x00,
    0x00, 0x00, 0xe0, 0x01, 0x00, 0x00, 0xe4, 0x01, 0x00, 0x00, 0xe8, 0x01, 0x00,
    0x00, 0x04, 0x00, 0x00, 0x00, 0x6d, 0x61, 0x69, 0x6e, 0x00, 0x00, 0x00, 0x00,
    0x06, 0x00, 0x00, 0x00, 0x78, 0x01, 0x00, 0x00, 0x14, 0x01, 0x00, 0x00, 0xdc,
    0x00, 0x00, 0x00, 0x88, 0x00, 0x00, 0x00, 0x40, 0x00, 0x00, 0x00, 0x04, 0x00,
    0x00, 0x00, 0x0e, 0xff, 0xff, 0xff, 0x1c, 0x00, 0x00, 0x00, 0x00, 0x00, 0x00,
    0x09, 0x1c, 0x00, 0x00, 0x00, 0x20, 0x00, 0x00, 0x00, 0x04, 0x00, 0x00, 0x00,
    0x00, 0x00, 0x06, 0x00, 0x08, 0x00, 0x04, 0x00, 0x06, 0x00, 0x00, 0x00, 0x00,
    0x00, 0x80, 0x3f, 0x01, 0x00, 0x00, 0x00, 0x0b, 0x00, 0x00, 0x00, 0x01, 0x00,
    0x00, 0x00, 0x0a, 0x00, 0x00, 0x00, 0xca, 0xff, 0xff, 0xff, 0x14, 0x00, 0x00,
    0x00, 0x00, 0x00, 0x00, 0x08, 0x10, 0x00, 0x00, 0x00, 0x14, 0x00, 0x00, 0x00,
    0x03, 0x00, 0x00, 0x00, 0xe8, 0xf9, 0xff, 0xff, 0x01, 0x00, 0x00, 0x00, 0x0a,
    0x00, 0x00, 0x00, 0x03, 0x00, 0x00, 0x00, 0x09, 0x00, 0x00, 0x00, 0x04, 0x00,
    0x00, 0x00, 0xff, 0xff, 0xff, 0xff, 0x00, 0x00, 0x0e, 0x00, 0x18, 0x00, 0x14,
    0x00, 0x10, 0x00, 0x0c, 0x00, 0x0b, 0x00, 0x04, 0x00, 0x0e, 0x00, 0x00, 0x00,
    0x20, 0x00, 0x00, 0x00, 0x00, 0x00, 0x00, 0x08, 0x20, 0x00, 0x00, 0x00, 0x24,
    0x00, 0x00, 0x00, 0x03, 0x00, 0x00, 0x00, 0x0c, 0x00, 0x08, 0x00, 0x07, 0x00,
    0x00, 0x00, 0x00, 0x00, 0x06, 0x00, 0x0c, 0x00, 0x00, 0x00, 0x00, 0x00, 0x01,
    0x01, 0x01, 0x00, 0x00, 0x00, 0x09, 0x00, 0x00, 0x00, 0x03, 0x00, 0x00, 0x00,
    0x08, 0x00, 0x00, 0x00, 0x05, 0x00, 0x00, 0x00, 0xff, 0xff, 0xff, 0xff, 0x00,
    0x00, 0x0a, 0x00, 0x10, 0x00, 0x0c, 0x00, 0x08, 0x00, 0x04, 0x00, 0x0a, 0x00,
    0x00, 0x00, 0x0c, 0x00, 0x00, 0x00, 0x10, 0x00, 0x00, 0x00, 0x02, 0x00, 0x00,
    0x00, 0x01, 0x00, 0x00, 0x00, 0x08, 0x00, 0x00, 0x00, 0x02, 0x00, 0x00, 0x00,
    0x07, 0x00, 0x00, 0x00, 0x03, 0x00, 0x00, 0x00, 0x00, 0x00, 0x0e, 0x00, 0x1a,
    0x00, 0x14, 0x00, 0x10, 0x00, 0x0c, 0x00, 0x0b, 0x00, 0x04, 0x00, 0x0e, 0x00,
    0x00, 0x00, 0x24, 0x00, 0x00, 0x00, 0x00, 0x00, 0x00, 0x05, 0x34, 0x00, 0x00,
    0x00, 0x38, 0x00, 0x00, 0x00, 0x01, 0x00, 0x00, 0x00, 0x00, 0x00, 0x0e, 0x00,
    0x18, 0x00, 0x17, 0x00, 0x10, 0x00, 0x0c, 0x00, 0x08, 0x00, 0x04, 0x00, 0x0e,
    0x00, 0x00, 0x00, 0x02, 0x00, 0x00, 0x00, 0x01, 0x00, 0x00, 0x00, 0x02, 0x00,
    0x00, 0x00, 0x01, 0x00, 0x00, 0x00, 0x00, 0x00, 0x00, 0x01, 0x01, 0x00, 0x00,
    0x00, 0x07, 0x00, 0x00, 0x00, 0x01, 0x00, 0x00, 0x00, 0x06, 0x00, 0x00, 0x00,
    0x00, 0x00, 0x0e, 0x00, 0x14, 0x00, 0x00, 0x00, 0x10, 0x00, 0x0c, 0x00, 0x0b,
    0x00, 0x04, 0x00, 0x0e, 0x00, 0x00, 0x00, 0x1c, 0x00, 0x00, 0x00, 0x00, 0x00,
    0x00, 0x01, 0x28, 0x00, 0x00, 0x00, 0x2c, 0x00, 0x00, 0x00, 0x0c, 0x00, 0x14,
    0x00, 0x13, 0x00, 0x0c, 0x00, 0x08, 0x00, 0x07, 0x00, 0x0c, 0x00, 0x00, 0x00,
    0x00, 0x00, 0x00, 0x01, 0x01, 0x00, 0x00, 0x00, 0x01, 0x00, 0x00, 0x00, 0x00,
    0x00, 0x00, 0x01, 0x01, 0x00, 0x00, 0x00, 0x06, 0x00, 0x00, 0x00, 0x03, 0x00,
    0x00, 0x00, 0x00, 0x00, 0x00, 0x00, 0x02, 0x00, 0x00, 0x00, 0x01, 0x00, 0x00,
    0x00, 0x01, 0x00, 0x00, 0x00, 0x0b, 0x00, 0x00, 0x00, 0x01, 0x00, 0x00, 0x00,
    0x00, 0x00, 0x00, 0x00, 0x0c, 0x00, 0x00, 0x00, 0x78, 0x04, 0x00, 0x00, 0x24,
    0x04, 0x00, 0x00, 0xc4, 0x03, 0x00, 0x00, 0x84, 0x03, 0x00, 0x00, 0x2c, 0x03,
    0x00, 0x00, 0xb8, 0x02, 0x00, 0x00, 0x20, 0x02, 0x00, 0x00, 0xb0, 0x01, 0x00,
    0x00, 0x54, 0x01, 0x00, 0x00, 0xd0, 0x00, 0x00, 0x00, 0x60, 0x00, 0x00, 0x00,
    0x04, 0x00, 0x00, 0x00, 0xce, 0xfb, 0xff, 0xff, 0x00, 0x00, 0x00, 0x01, 0x14,
    0x00, 0x00, 0x00, 0x1c, 0x00, 0x00, 0x00, 0x1c, 0x00, 0x00, 0x00, 0x0c, 0x00,
    0x00, 0x00, 0x34, 0x00, 0x00, 0x00, 0x02, 0x00, 0x00, 0x00, 0xff, 0xff, 0xff,
    0xff, 0x05, 0x00, 0x00, 0x00, 0xb0, 0xfb, 0xff, 0xff, 0x19, 0x00, 0x00, 0x00,
    0x53, 0x74, 0x61, 0x74, 0x65, 0x66, 0x75, 0x6c, 0x50, 0x61, 0x72, 0x74, 0x69,
    0x74, 0x69, 0x6f, 0x6e, 0x65, 0x64, 0x43, 0x61, 0x6c, 0x6c, 0x3a, 0x30, 0x00,
    0x00, 0x00, 0x02, 0x00, 0x00, 0x00, 0x01, 0x00, 0x00, 0x00, 0x05, 0x00, 0x00,
    0x00, 0x26, 0xfc, 0xff, 0xff, 0x00, 0x00, 0x00, 0x01, 0x14, 0x00, 0x00, 0x00,
    0x1c, 0x00, 0x00, 0x00, 0x1c, 0x00, 0x00, 0x00, 0x0b, 0x00, 0x00, 0x00, 0x48,
    0x00, 0x00, 0x00, 0x02, 0x00, 0x00, 0x00, 0xff, 0xff, 0xff, 0xff, 0x05, 0x00,
    0x00, 0x00, 0x08, 0xfc, 0xff, 0xff, 0x2e, 0x00, 0x00, 0x00, 0x6d, 0x6f, 0x64,
    0x65, 0x6c, 0x5f, 0x34, 0x2f, 0x64, 0x65, 0x6e, 0x73, 0x65, 0x5f, 0x39, 0x2f,
    0x4d, 0x61, 0x74, 0x4d, 0x75, 0x6c, 0x3b, 0x6d, 0x6f, 0x64, 0x65, 0x6c, 0x5f,
    0x34, 0x2f, 0x64, 0x65, 0x6e, 0x73, 0x65, 0x5f, 0x39, 0x2f, 0x42, 0x69, 0x61,
    0x73, 0x41, 0x64, 0x64, 0x00, 0x00, 0x02, 0x00, 0x00, 0x00, 0x01, 0x00, 0x00,
    0x00, 0x05, 0x00, 0x00, 0x00, 0x92, 0xfc, 0xff, 0xff, 0x00, 0x00, 0x00, 0x01,
    0x14, 0x00, 0x00, 0x00, 0x1c, 0x00, 0x00, 0x00, 0x1c, 0x00, 0x00, 0x00, 0x0a,
    0x00, 0x00, 0x00, 0x5c, 0x00, 0x00, 0x00, 0x02, 0x00, 0x00, 0x00, 0xff, 0xff,
    0xff, 0xff, 0x0a, 0x00, 0x00, 0x00, 0x74, 0xfc, 0xff, 0xff, 0x43, 0x00, 0x00,
    0x00, 0x6d, 0x6f, 0x64, 0x65, 0x6c, 0x5f, 0x34, 0x2f, 0x64, 0x65, 0x6e, 0x73,
    0x65, 0x5f, 0x38, 0x2f, 0x4d, 0x61, 0x74, 0x4d, 0x75, 0x6c, 0x3b, 0x6d, 0x6f,
    0x64, 0x65, 0x6c, 0x5f, 0x34, 0x2f, 0x64, 0x65, 0x6e, 0x73, 0x65, 0x5f, 0x38,
    0x2f, 0x52, 0x65, 0x6c, 0x75, 0x3b, 0x6d, 0x6f, 0x64, 0x65, 0x6c, 0x5f, 0x34,
    0x2f, 0x64, 0x65, 0x6e, 0x73, 0x65, 0x5f, 0x38, 0x2f, 0x42, 0x69, 0x61, 0x73,
    0x41, 0x64, 0x64, 0x00, 0x02, 0x00, 0x00, 0x00, 0x01, 0x00, 0x00, 0x00, 0x0a,
    0x00, 0x00, 0x00, 0x12, 0xfd, 0xff, 0xff, 0x00, 0x00, 0x00, 0x01, 0x14, 0x00,
    0x00, 0x00, 0x1c, 0x00, 0x00, 0x00, 0x1c, 0x00, 0x00, 0x00, 0x09, 0x00, 0x00,
    0x00, 0x34, 0x00, 0x00, 0x00, 0x02, 0x00, 0x00, 0x00, 0xff, 0xff, 0xff, 0xff,
    0x60, 0x03, 0x00, 0x00, 0xf4, 0xfc, 0xff, 0xff, 0x19, 0x00, 0x00, 0x00, 0x6d,
    0x6f, 0x64, 0x65, 0x6c, 0x5f, 0x34, 0x2f, 0x66, 0x6c, 0x61, 0x74, 0x74, 0x65,
    0x6e, 0x5f, 0x34, 0x2f, 0x52, 0x65, 0x73, 0x68, 0x61, 0x70, 0x65, 0x00, 0x00,
    0x00, 0x02, 0x00, 0x00, 0x00, 0x01, 0x00, 0x00, 0x00, 0x60, 0x03, 0x00, 0x00,
    0x6a, 0xfd, 0xff, 0xff, 0x00, 0x00, 0x00, 0x01, 0x14, 0x00, 0x00, 0x00, 0x24,
    0x00, 0x00, 0x00, 0x24, 0x00, 0x00, 0x00, 0x08, 0x00, 0x00, 0x00, 0x40, 0x00,
    0x00, 0x00, 0x04, 0x00, 0x00, 0x00, 0xff, 0xff, 0xff, 0xff, 0x09, 0x00, 0x00,
    0x00, 0x03, 0x00, 0x00, 0x00, 0x20, 0x00, 0x00, 0x00, 0x54, 0xfd, 0xff, 0xff,
    0x1f, 0x00, 0x00, 0x00, 0x6d, 0x6f, 0x64, 0x65, 0x6c, 0x5f, 0x34, 0x2f, 0x6d,
    0x61, 0x78, 0x5f, 0x70, 0x6f, 0x6f, 0x6c, 0x69, 0x6e, 0x67, 0x32, 0x64, 0x5f,
    0x34, 0x2f, 0x4d, 0x61, 0x78, 0x50, 0x6f, 0x6f, 0x6c, 0x00, 0x04, 0x00, 0x00,
    0x00, 0x01, 0x00, 0x00, 0x00, 0x09, 0x00, 0x00, 0x00, 0x03, 0x00, 0x00, 0x00,
    0x20, 0x00, 0x00, 0x00, 0xd6, 0xfd, 0xff, 0xff, 0x00, 0x00, 0x00, 0x01, 0x14,
    0x00, 0x00, 0x00, 0x24, 0x00, 0x00, 0x00, 0x24, 0x00, 0x00, 0x00, 0x07, 0x00,
    0x00, 0x00, 0x68, 0x00, 0x00, 0x00, 0x04, 0x00, 0x00, 0x00, 0xff, 0xff, 0xff,
    0xff, 0x12, 0x00, 0x00, 0x00, 0x03, 0x00, 0x00, 0x00, 0x20, 0x00, 0x00, 0x00,
    0xc0, 0xfd, 0xff, 0xff, 0x46, 0x00, 0x00, 0x00, 0x6d, 0x6f, 0x64, 0x65, 0x6c,
    0x5f, 0x34, 0x2f, 0x63, 0x6f, 0x6e, 0x76, 0x32, 0x64, 0x5f, 0x34, 0x2f, 0x52,
    0x65, 0x6c, 0x75, 0x3b, 0x6d, 0x6f, 0x64, 0x65, 0x6c, 0x5f, 0x34, 0x2f, 0x63,
    0x6f, 0x6e, 0x76, 0x32, 0x64, 0x5f, 0x34, 0x2f, 0x42, 0x69, 0x61, 0x73, 0x41,
    0x64, 0x64, 0x3b, 0x6d, 0x6f, 0x64, 0x65, 0x6c, 0x5f, 0x34, 0x2f, 0x63, 0x6f,
    0x6e, 0x76, 0x32, 0x64, 0x5f, 0x34, 0x2f, 0x43, 0x6f, 0x6e, 0x76, 0x32, 0x44,
    0x00, 0x00, 0x04, 0x00, 0x00, 0x00, 0x01, 0x00, 0x00, 0x00, 0x12, 0x00, 0x00,
    0x00, 0x03, 0x00, 0x00, 0x00, 0x20, 0x00, 0x00, 0x00, 0x52, 0xff, 0xff, 0xff,
    0x00, 0x00, 0x00, 0x01, 0x20, 0x00, 0x00, 0x00, 0x40, 0x00, 0x00, 0x00, 0x06,
    0x00, 0x00, 0x00, 0x00, 0x00, 0x00, 0x09, 0x4c, 0x00, 0x00, 0x00, 0x0c, 0x00,
    0x0c, 0x00, 0x00, 0x00, 0x00, 0x00, 0x08, 0x00, 0x04, 0x00, 0x0c, 0x00, 0x00,
    0x00, 0x08, 0x00, 0x00, 0x00, 0x14, 0x00, 0x00, 0x00, 0x01, 0x00, 0x00, 0x00,
    0x00, 0x00, 0x00, 0x00, 0x00, 0x00, 0x00, 0x00, 0x00, 0x00, 0x00, 0x00, 0x01,
    0x00, 0x00, 0x00, 0xc7, 0x00, 0x2b, 0x3a, 0x11, 0x00, 0x00, 0x00, 0x74, 0x66,
    0x6c, 0x2e, 0x70, 0x73, 0x65, 0x75, 0x64, 0x6f, 0x5f, 0x71, 0x63, 0x6f, 0x6e,
    0x73, 0x74, 0x00, 0x00, 0x00, 0x02, 0x00, 0x00, 0x00, 0x0a, 0x00, 0x00, 0x00,
    0x60, 0x03, 0x00, 0x00, 0x2a, 0xff, 0xff, 0xff, 0x00, 0x00, 0x00, 0x01, 0x10,
    0x00, 0x00, 0x00, 0x10, 0x00, 0x00, 0x00, 0x05, 0x00, 0x00, 0x00, 0x1c, 0x00,
    0x00, 0x00, 0xac, 0xfe, 0xff, 0xff, 0x0f, 0x00, 0x00, 0x00, 0x61, 0x72, 0x69,
    0x74, 0x68, 0x2e, 0x63, 0x6f, 0x6e, 0x73, 0x74, 0x61, 0x6e, 0x74, 0x33, 0x00,
    0x02, 0x00, 0x00, 0x00, 0x05, 0x00, 0x00, 0x00, 0x0a, 0x00, 0x00, 0x00, 0x00,
    0x00, 0x16, 0x00, 0x1c, 0x00, 0x18, 0x00, 0x17, 0x00, 0x10, 0x00, 0x0c, 0x00,
    0x08, 0x00, 0x00, 0x00, 0x00, 0x00, 0x00, 0x00, 0x07, 0x00, 0x16, 0x00, 0x00,
    0x00, 0x00, 0x00, 0x00, 0x01, 0x14, 0x00, 0x00, 0x00, 0x14, 0x00, 0x00, 0x00,
    0x04, 0x00, 0x00, 0x00, 0x00, 0x00, 0x00, 0x02, 0x1c, 0x00, 0x00, 0x00, 0x04,
    0xff, 0xff, 0xff, 0x0f, 0x00, 0x00, 0x00, 0x61, 0x72, 0x69, 0x74, 0x68, 0x2e,
    0x63, 0x6f, 0x6e, 0x73, 0x74, 0x61, 0x6e, 0x74, 0x32, 0x00, 0x01, 0x00, 0x00,
    0x00, 0x02, 0x00, 0x00, 0x00, 0xba, 0xff, 0xff, 0xff, 0x00, 0x00, 0x00, 0x01,
    0x10, 0x00, 0x00, 0x00, 0x10, 0x00, 0x00, 0x00, 0x03, 0x00, 0x00, 0x00, 0x1c,
    0x00, 0x00, 0x00, 0x3c, 0xff, 0xff, 0xff, 0x0f, 0x00, 0x00, 0x00, 0x61, 0x72,
    0x69, 0x74, 0x68, 0x2e, 0x63, 0x6f, 0x6e, 0x73, 0x74, 0x61, 0x6e, 0x74, 0x31,
    0x00, 0x04, 0x00, 0x00, 0x00, 0x20, 0x00, 0x00, 0x00, 0x03, 0x00, 0x00, 0x00,
    0x01, 0x00, 0x00, 0x00, 0x01, 0x00, 0x00, 0x00, 0x00, 0x00, 0x16, 0x00, 0x18,
    0x00, 0x14, 0x00, 0x00, 0x00, 0x10, 0x00, 0x0c, 0x00, 0x08, 0x00, 0x00, 0x00,
    0x00, 0x00, 0x00, 0x00, 0x07, 0x00, 0x16, 0x00, 0x00, 0x00, 0x00, 0x00, 0x00,
    0x01, 0x10, 0x00, 0x00, 0x00, 0x10, 0x00, 0x00, 0x00, 0x02, 0x00, 0x00, 0x00,
    0x1c, 0x00, 0x00, 0x00, 0x98, 0xff, 0xff, 0xff, 0x0e, 0x00, 0x00, 0x00, 0x61,
    0x72, 0x69, 0x74, 0x68, 0x2e, 0x63, 0x6f, 0x6e, 0x73, 0x74, 0x61, 0x6e, 0x74,
    0x00, 0x00, 0x01, 0x00, 0x00, 0x00, 0x20, 0x00, 0x00, 0x00, 0x00, 0x00, 0x16,
    0x00, 0x1c, 0x00, 0x18, 0x00, 0x00, 0x00, 0x14, 0x00, 0x10, 0x00, 0x0c, 0x00,
    0x00, 0x00, 0x00, 0x00, 0x08, 0x00, 0x07, 0x00, 0x16, 0x00, 0x00, 0x00, 0x00,
    0x00, 0x00, 0x01, 0x14, 0x00, 0x00, 0x00, 0x28, 0x00, 0x00, 0x00, 0x28, 0x00,
    0x00, 0x00, 0x01, 0x00, 0x00, 0x00, 0x40, 0x00, 0x00, 0x00, 0x04, 0x00, 0x00,
    0x00, 0xff, 0xff, 0xff, 0xff, 0x14, 0x00, 0x00, 0x00, 0x03, 0x00, 0x00, 0x00,
    0x01, 0x00, 0x00, 0x00, 0x04, 0x00, 0x04, 0x00, 0x04, 0x00, 0x00, 0x00, 0x1a,
    0x00, 0x00, 0x00, 0x73, 0x65, 0x72, 0x76, 0x69, 0x6e, 0x67, 0x5f, 0x64, 0x65,
    0x66, 0x61, 0x75, 0x6c, 0x74, 0x5f, 0x69, 0x6e, 0x70, 0x75, 0x74, 0x5f, 0x31,
    0x30, 0x3a, 0x30, 0x00, 0x00, 0x04, 0x00, 0x00, 0x00, 0x01, 0x00, 0x00, 0x00,
    0x14, 0x00, 0x00, 0x00, 0x03, 0x00, 0x00, 0x00, 0x01, 0x00, 0x00, 0x00, 0x05,
    0x00, 0x00, 0x00, 0x60, 0x00, 0x00, 0x00, 0x44, 0x00, 0x00, 0x00, 0x34, 0x00,
    0x00, 0x00, 0x20, 0x00, 0x00, 0x00, 0x04, 0x00, 0x00, 0x00, 0xc0, 0xff, 0xff,
    0xff, 0x19, 0x00, 0x00, 0x00, 0x00, 0x00, 0x00, 0x19, 0x0c, 0x00, 0x10, 0x00,
    0x0f, 0x00, 0x00, 0x00, 0x08, 0x00, 0x04, 0x00, 0x0c, 0x00, 0x00, 0x00, 0x09,
    0x00, 0x00, 0x00, 0x09, 0x00, 0x00, 0x00, 0x00, 0x00, 0x00, 0x09, 0xe8, 0xff,
    0xff, 0xff, 0x16, 0x00, 0x00, 0x00, 0x00, 0x00, 0x00, 0x16, 0xf4, 0xff, 0xff,
    0xff, 0x11, 0x00, 0x00, 0x00, 0x00, 0x00, 0x00, 0x11, 0x0c, 0x00, 0x0c, 0x00,
    0x0b, 0x00, 0x00, 0x00, 0x00, 0x00, 0x04, 0x00, 0x0c, 0x00, 0x00, 0x00, 0x03,
    0x00, 0x00, 0x00, 0x00, 0x00, 0x00, 0x03,
};
const int cnn_model_len = 11824;
