
// This is a TensorFlow Lite model file that has been converted into a C data
// array using the tensorflow.lite.util.convert_bytes_to_c_source() function.
// This form is useful for compiling into a binary for devices that don't have a
// file system.

#include "dense_model.h"

// We need to keep the data array aligned on some architectures.
#ifdef __has_attribute
#define HAVE_ATTRIBUTE(x) __has_attribute(x)
#else
#define HAVE_ATTRIBUTE(x) 0
#endif
#if HAVE_ATTRIBUTE(aligned) || (defined(__GNUC__) && !defined(__clang__))
#define DATA_ALIGN_ATTRIBUTE __attribute__((aligned(4)))
#else
#define DATA_ALIGN_ATTRIBUTE
#endif

const unsigned char dense_model[] DATA_ALIGN_ATTRIBUTE = {
    0x1c, 0x00, 0x00, 0x00, 0x54, 0x46, 0x4c, 0x33, 0x14, 0x00, 0x20, 0x00, 0x1c,
    0x00, 0x18, 0x00, 0x14, 0x00, 0x10, 0x00, 0x0c, 0x00, 0x00, 0x00, 0x08, 0x00,
    0x04, 0x00, 0x14, 0x00, 0x00, 0x00, 0x1c, 0x00, 0x00, 0x00, 0x94, 0x00, 0x00,
    0x00, 0xec, 0x00, 0x00, 0x00, 0x40, 0x1d, 0x00, 0x00, 0x50, 0x1d, 0x00, 0x00,
    0x74, 0x28, 0x00, 0x00, 0x03, 0x00, 0x00, 0x00, 0x01, 0x00, 0x00, 0x00, 0x10,
    0x00, 0x00, 0x00, 0x00, 0x00, 0x0a, 0x00, 0x10, 0x00, 0x0c, 0x00, 0x08, 0x00,
    0x04, 0x00, 0x0a, 0x00, 0x00, 0x00, 0x0c, 0x00, 0x00, 0x00, 0x1c, 0x00, 0x00,
    0x00, 0x38, 0x00, 0x00, 0x00, 0x0f, 0x00, 0x00, 0x00, 0x73, 0x65, 0x72, 0x76,
    0x69, 0x6e, 0x67, 0x5f, 0x64, 0x65, 0x66, 0x61, 0x75, 0x6c, 0x74, 0x00, 0x01,
    0x00, 0x00, 0x00, 0x04, 0x00, 0x00, 0x00, 0x94, 0xff, 0xff, 0xff, 0x0c, 0x00,
    0x00, 0x00, 0x04, 0x00, 0x00, 0x00, 0x07, 0x00, 0x00, 0x00, 0x64, 0x65, 0x6e,
    0x73, 0x65, 0x5f, 0x38, 0x00, 0x01, 0x00, 0x00, 0x00, 0x04, 0x00, 0x00, 0x00,
    0x9e, 0xe2, 0xff, 0xff, 0x04, 0x00, 0x00, 0x00, 0x0f, 0x00, 0x00, 0x00, 0x66,
    0x6c, 0x61, 0x74, 0x74, 0x65, 0x6e, 0x5f, 0x32, 0x5f, 0x69, 0x6e, 0x70, 0x75,
    0x74, 0x00, 0x02, 0x00, 0x00, 0x00, 0x34, 0x00, 0x00, 0x00, 0x04, 0x00, 0x00,
    0x00, 0xdc, 0xff, 0xff, 0xff, 0x0f, 0x00, 0x00, 0x00, 0x04, 0x00, 0x00, 0x00,
    0x13, 0x00, 0x00, 0x00, 0x43, 0x4f, 0x4e, 0x56, 0x45, 0x52, 0x53, 0x49, 0x4f,
    0x4e, 0x5f, 0x4d, 0x45, 0x54, 0x41, 0x44, 0x41, 0x54, 0x41, 0x00, 0x08, 0x00,
    0x0c, 0x00, 0x08, 0x00, 0x04, 0x00, 0x08, 0x00, 0x00, 0x00, 0x0e, 0x00, 0x00,
    0x00, 0x04, 0x00, 0x00, 0x00, 0x13, 0x00, 0x00, 0x00, 0x6d, 0x69, 0x6e, 0x5f,
    0x72, 0x75, 0x6e, 0x74, 0x69, 0x6d, 0x65, 0x5f, 0x76, 0x65, 0x72, 0x73, 0x69,
    0x6f, 0x6e, 0x00, 0x10, 0x00, 0x00, 0x00, 0x50, 0x1c, 0x00, 0x00, 0x48, 0x1c,
    0x00, 0x00, 0x30, 0x1c, 0x00, 0x00, 0x20, 0x1b, 0x00, 0x00, 0x90, 0x1a, 0x00,
    0x00, 0x6c, 0x1a, 0x00, 0x00, 0xdc, 0x17, 0x00, 0x00, 0xcc, 0x0f, 0x00, 0x00,
    0xbc, 0x00, 0x00, 0x00, 0xb4, 0x00, 0x00, 0x00, 0xac, 0x00, 0x00, 0x00, 0xa4,
    0x00, 0x00, 0x00, 0x9c, 0x00, 0x00, 0x00, 0x94, 0x00, 0x00, 0x00, 0x74, 0x00,
    0x00, 0x00, 0x04, 0x00, 0x00, 0x00, 0x5a, 0xe3, 0xff, 0xff, 0x04, 0x00, 0x00,
    0x00, 0x60, 0x00, 0x00, 0x00, 0x0c, 0x00, 0x00, 0x00, 0x08, 0x00, 0x0e, 0x00,
    0x08, 0x00, 0x04, 0x00, 0x08, 0x00, 0x00, 0x00, 0x10, 0x00, 0x00, 0x00, 0x28,
    0x00, 0x00, 0x00, 0x00, 0x00, 0x06, 0x00, 0x08, 0x00, 0x04, 0x00, 0x06, 0x00,
    0x00, 0x00, 0x04, 0x00, 0x00, 0x00, 0x01, 0x00, 0x00, 0x00, 0xea, 0x03, 0x00,
    0x00, 0x0c, 0x00, 0x18, 0x00, 0x14, 0x00, 0x10, 0x00, 0x0c, 0x00, 0x04, 0x00,
    0x0c, 0x00, 0x00, 0x00, 0x1d, 0x22, 0xab, 0x1b, 0xc2, 0xa1, 0x9e, 0xd1, 0x02,
    0x00, 0x00, 0x00, 0x02, 0x00, 0x00, 0x00, 0x04, 0x00, 0x00, 0x00, 0x06, 0x00,
    0x00, 0x00, 0x32, 0x2e, 0x31, 0x39, 0x2e, 0x30, 0x00, 0x00, 0xc6, 0xe3, 0xff,
    0xff, 0x04, 0x00, 0x00, 0x00, 0x10, 0x00, 0x00, 0x00, 0x32, 0x2e, 0x31, 0x37,
    0x2e, 0x30, 0x00, 0x00, 0x00, 0x00, 0x00, 0x00, 0x00, 0x00, 0x00, 0x00, 0x78,
    0xd9, 0xff, 0xff, 0x7c, 0xd9, 0xff, 0xff, 0x80, 0xd9, 0xff, 0xff, 0x84, 0xd9,
    0xff, 0xff, 0x88, 0xd9, 0xff, 0xff, 0xf6, 0xe3, 0xff, 0xff, 0x04, 0x00, 0x00,
    0x00, 0x00, 0x0f, 0x00, 0x00, 0x29, 0x7f, 0xbb, 0x48, 0x4d, 0x14, 0x06, 0x43,
    0x1a, 0xdd, 0x28, 0x59, 0x37, 0x75, 0xaa, 0xed, 0x72, 0xc7, 0x22, 0x75, 0x2f,
    0xdc, 0x1c, 0x29, 0x66, 0x63, 0x2e, 0xe4, 0xf2, 0x1e, 0xa9, 0x36, 0xff, 0xba,
    0x60, 0x88, 0x10, 0x54, 0x48, 0xbc, 0xdc, 0xdf, 0x4c, 0xbd, 0xb2, 0xa0, 0x5d,
    0xa0, 0x0f, 0x76, 0xd4, 0x3c, 0x45, 0xcf, 0x1b, 0x8a, 0x2d, 0x0f, 0x64, 0x3e,
    0xd6, 0xeb, 0x81, 0xbe, 0x40, 0x31, 0x56, 0x2a, 0x36, 0x2b, 0x02, 0xfd, 0xc0,
    0xe8, 0xc8, 0xfa, 0x4e, 0xee, 0xc2, 0x62, 0xd3, 0xf3, 0x0d, 0x27, 0xc6, 0xae,
    0x0f, 0x44, 0x2a, 0x32, 0xb1, 0x76, 0xe9, 0x60, 0x96, 0x06, 0x42, 0xaa, 0x2b,
    0xeb, 0x09, 0xe7, 0xba, 0x61, 0xc0, 0xa3, 0xff, 0x03, 0x4f, 0xd2, 0xee, 0x53,
    0xe8, 0xba, 0x38, 0xd9, 0x08, 0x28, 0xc3, 0x0d, 0xf4, 0x36, 0x25, 0xd5, 0xd7,
    0xf8, 0xf6, 0x03, 0x45, 0xcb, 0x19, 0x0b, 0x55, 0xfa, 0xe8, 0xb3, 0xed, 0x0f,
    0xf6, 0xff, 0x4c, 0x45, 0xe9, 0xaf, 0x29, 0xfe, 0xcb, 0xb7, 0x14, 0xfe, 0xef,
    0xca, 0x43, 0x17, 0x01, 0xed, 0x00, 0x0a, 0xe1, 0xb5, 0x32, 0xeb, 0x04, 0xf2,
    0x20, 0x2d, 0xf4, 0x19, 0x1d, 0xde, 0x30, 0x1a, 0x58, 0x81, 0x05, 0x02, 0xa2,
    0x2d, 0xe2, 0xe9, 0x0e, 0x53, 0xef, 0xfd, 0xb3, 0xc8, 0xeb, 0xe2, 0x19, 0x1f,
    0xbc, 0xdd, 0x53, 0x19, 0xfe, 0x4c, 0xe4, 0xf5, 0x79, 0x15, 0x10, 0x45, 0x11,
    0x09, 0x0a, 0xbe, 0xaf, 0x7d, 0xcb, 0xb1, 0x71, 0x71, 0x34, 0x8c, 0x44, 0x45,
    0xf8, 0x4a, 0xeb, 0xfe, 0xbc, 0xe3, 0x7f, 0x3c, 0xb5, 0xfe, 0xd4, 0xff, 0xe0,
    0xca, 0xf9, 0x4c, 0xdc, 0x1c, 0xe9, 0x4c, 0x11, 0x23, 0x2f, 0xb5, 0x03, 0xed,
    0x51, 0x52, 0x0b, 0xdc, 0x28, 0x1e, 0x3a, 0x73, 0x18, 0xf3, 0x7f, 0xfd, 0x42,
    0x19, 0x0c, 0x32, 0x13, 0xe8, 0x60, 0x70, 0x33, 0x48, 0x4c, 0x0f, 0xe0, 0xc9,
    0xf5, 0x11, 0x60, 0xcb, 0x4d, 0xf6, 0x42, 0xd4, 0xde, 0x10, 0x4b, 0x1b, 0x01,
    0x4f, 0x2d, 0xd2, 0x48, 0xf2, 0xf6, 0xf8, 0xca, 0xd6, 0x06, 0x15, 0x3a, 0x40,
    0x4c, 0xc9, 0xe2, 0x14, 0xf7, 0x35, 0xc4, 0xf3, 0x67, 0x00, 0x81, 0xbd, 0x46,
    0x98, 0x18, 0xe8, 0x06, 0xfc, 0x29, 0xe3, 0x4a, 0xa4, 0xaa, 0xc1, 0xb0, 0xba,
    0xba, 0x6a, 0xda, 0xfa, 0x54, 0x25, 0xdf, 0xb0, 0x1e, 0x01, 0x2b, 0x25, 0x0a,
    0x30, 0xc1, 0x2e, 0x67, 0x10, 0x44, 0xc6, 0xf5, 0x9a, 0xe3, 0xae, 0x20, 0xfb,
    0x0f, 0x2e, 0x74, 0xdb, 0x16, 0xb3, 0x30, 0x34, 0xd4, 0x54, 0x9b, 0xe4, 0xa1,
    0xc9, 0x2f, 0x04, 0xcc, 0xe2, 0xbb, 0x3d, 0x99, 0x24, 0xd0, 0x9c, 0xed, 0xa8,
    0x2c, 0x2f, 0x3b, 0xba, 0xca, 0x27, 0xd5, 0x33, 0xbd, 0x95, 0xe8, 0xf6, 0x35,
    0xb1, 0xf2, 0xbf, 0xb5, 0x8a, 0x20, 0xfc, 0x1a, 0x28, 0xb6, 0xe7, 0x8c, 0x8a,
    0x3b, 0x8e, 0x85, 0x25, 0xc8, 0xbc, 0xc6, 0xb1, 0x07, 0x2f, 0x14, 0x32, 0x3c,
    0x83, 0x1a, 0xbc, 0x81, 0x98, 0x2a, 0xdb, 0xc2, 0x33, 0x96, 0x22, 0xda, 0xe3,
    0xd4, 0xcf, 0x1d, 0x0d, 0xf2, 0xc6, 0xc4, 0xe9, 0x9e, 0x0c, 0xcf, 0x8d, 0x4f,
    0x11, 0x13, 0xc2, 0x26, 0x26, 0x11, 0xb0, 0xbe, 0x3e, 0xb7, 0xd5, 0xcb, 0x90,
    0xf0, 0xfe, 0xaf, 0x31, 0x4a, 0x3e, 0xc7, 0x32, 0x99, 0xf5, 0xee, 0x0c, 0xfd,
    0x2d, 0xa0, 0xb6, 0xf0, 0xdb, 0x0c, 0xd0, 0xf3, 0x81, 0xdb, 0x8b, 0xa6, 0xfb,
    0xdb, 0x27, 0xe6, 0x20, 0x71, 0xae, 0x61, 0x2c, 0x81, 0xa1, 0xd6, 0x13, 0xbf,
    0xd3, 0xca, 0xc3, 0x0c, 0xdd, 0x7c, 0x39, 0xf3, 0xda, 0x41, 0xb2, 0xc4, 0xf5,
    0xad, 0x0c, 0x32, 0x17, 0x5e, 0x1f, 0xad, 0x00, 0x16, 0x17, 0xd9, 0xe7, 0xb9,
    0x06, 0x4e, 0xb2, 0x33, 0xcb, 0x11, 0x03, 0x9b, 0x98, 0xb4, 0x0f, 0x9e, 0xf8,
    0xec, 0xe7, 0x42, 0x09, 0xed, 0x16, 0x9c, 0xb0, 0xba, 0xa9, 0x19, 0x22, 0x3c,
    0x2d, 0x71, 0xd7, 0x1d, 0x74, 0x62, 0xe9, 0xfc, 0xc3, 0xd5, 0xed, 0x2e, 0x16,
    0x08, 0x29, 0x03, 0x40, 0x3d, 0x61, 0x56, 0xf9, 0xe7, 0x49, 0x1a, 0xd4, 0x7f,
    0xe4, 0x10, 0x0f, 0xfb, 0x10, 0x3f, 0xf5, 0xbb, 0xf0, 0x0c, 0xc4, 0x49, 0x26,
    0xd8, 0x4b, 0x0f, 0x39, 0x48, 0xb8, 0x56, 0x15, 0x0d, 0x3a, 0x4c, 0x37, 0xc0,
    0xec, 0xfa, 0xf4, 0x2c, 0xba, 0xd8, 0x0d, 0xfd, 0x1f, 0xed, 0x0d, 0x29, 0x0f,
    0x2a, 0x23, 0x14, 0xab, 0xb1, 0x50, 0xf1, 0xe4, 0x3b, 0x06, 0x93, 0x3c, 0x94,
    0x9a, 0x55, 0xcc, 0x6d, 0x38, 0x1e, 0xc0, 0xb7, 0xd7, 0x3a, 0x1e, 0x2d, 0x29,
    0x28, 0x8e, 0xc6, 0xb4, 0x93, 0x32, 0x32, 0x4b, 0xeb, 0x3a, 0xf1, 0x7b, 0x74,
    0x15, 0x81, 0x23, 0xe2, 0x55, 0x54, 0x8a, 0x4a, 0x44, 0xdc, 0x9a, 0xc0, 0xcb,
    0xcf, 0x16, 0x81, 0x0e, 0xe9, 0x61, 0xe0, 0x13, 0xc8, 0x5b, 0x5c, 0x08, 0xc7,
    0xcd, 0x96, 0xea, 0xb3, 0x2b, 0xf4, 0x52, 0x94, 0xdc, 0x0c, 0x9d, 0xbb, 0xe6,
    0xb3, 0xa2, 0xe5, 0x9f, 0xbe, 0xb1, 0xe3, 0x9d, 0x35, 0xa8, 0xcb, 0x91, 0xab,
    0xae, 0x4c, 0x8e, 0xc3, 0x19, 0x98, 0xc8, 0x36, 0xe3, 0xc4, 0xd5, 0xea, 0x02,
    0xc1, 0xcc, 0x40, 0x35, 0x34, 0x89, 0xf1, 0xe7, 0x1b, 0x57, 0xe3, 0xab, 0x2c,
    0x0a, 0x09, 0xc8, 0x70, 0x4d, 0x06, 0x7f, 0x3b, 0x07, 0xd0, 0xca, 0x70, 0x2f,
    0x58, 0xff, 0x64, 0x29, 0xf9, 0x73, 0xa6, 0xea, 0x5d, 0xd5, 0x6c, 0x57, 0xdc,
    0x18, 0x14, 0xf4, 0xe2, 0xe5, 0xb4, 0x54, 0xba, 0x21, 0x0d, 0xf2, 0x65, 0x10,
    0x58, 0xae, 0x56, 0x62, 0x33, 0x3d, 0xdc, 0xf2, 0x41, 0xb2, 0x45, 0x5b, 0x2d,
    0xce, 0x46, 0x29, 0x61, 0xe3, 0x34, 0x9d, 0x81, 0xeb, 0xcd, 0xfa, 0x21, 0xff,
    0xce, 0xdc, 0xd4, 0x28, 0xad, 0xd4, 0xd4, 0x29, 0x9b, 0x2c, 0xe6, 0x8c, 0xc9,
    0xd7, 0x35, 0x4b, 0x19, 0x9d, 0x38, 0x1d, 0x0f, 0xb0, 0x41, 0x1d, 0xcb, 0x45,
    0xe7, 0xbf, 0xa1, 0x82, 0xd0, 0x43, 0x0c, 0x25, 0x58, 0xea, 0xda, 0x22, 0xf6,
    0x24, 0xed, 0x0a, 0x23, 0x16, 0x8a, 0x0e, 0x40, 0xdd, 0x31, 0xf0, 0xb9, 0x18,
    0xd6, 0xf6, 0xbc, 0xf1, 0xf5, 0x25, 0x83, 0xa2, 0xfa, 0x27, 0x81, 0xf8, 0xbc,
    0xc3, 0x0e, 0xb7, 0x49, 0x0d, 0x53, 0xc9, 0xd5, 0xc6, 0xdd, 0xac, 0xb7, 0xd6,
    0x01, 0xb0, 0xb8, 0x2e, 0x6a, 0x0b, 0x09, 0x36, 0x5a, 0xcd, 0x41, 0xf3, 0xc8,
    0x61, 0x99, 0x3e, 0xdd, 0x2d, 0x51, 0x31, 0xff, 0xec, 0xf5, 0xfd, 0x32, 0x78,
    0xdc, 0xbc, 0x72, 0xa9, 0x00, 0xca, 0x21, 0xca, 0xfe, 0x01, 0x54, 0x2d, 0xdf,
    0x2f, 0xc3, 0xb9, 0x4c, 0xcf, 0x45, 0x1b, 0x2a, 0x00, 0xf6, 0x2e, 0xb2, 0xd5,
    0xec, 0x19, 0x1f, 0xee, 0xc8, 0xaf, 0x29, 0xe2, 0x62, 0xd4, 0x2a, 0x11, 0xb1,
    0xbc, 0x53, 0x07, 0x49, 0xe1, 0x34, 0x20, 0x49, 0xde, 0xe9, 0x66, 0x51, 0x03,
    0x49, 0x23, 0xd9, 0x15, 0x0f, 0xe4, 0xd2, 0xf2, 0x7f, 0xe8, 0x01, 0x73, 0xcb,
    0xeb, 0xd3, 0x69, 0xa7, 0x05, 0x36, 0x19, 0x23, 0xe8, 0xf8, 0x30, 0x24, 0xee,
    0x10, 0x34, 0xa5, 0x62, 0x03, 0x0c, 0xbb, 0xa6, 0x33, 0xc9, 0x02, 0x03, 0x3f,
    0x9b, 0x0c, 0x53, 0xe8, 0xd5, 0x18, 0xb5, 0xe7, 0xe8, 0xe6, 0xc5, 0xe2, 0xf4,
    0xe7, 0xf9, 0x9b, 0xec, 0x0d, 0xf3, 0xc4, 0x04, 0xc6, 0xf5, 0x27, 0xae, 0x15,
    0xd9, 0x1d, 0xc5, 0xd5, 0xd7, 0x1f, 0xf1, 0x81, 0xc1, 0x13, 0x2e, 0xef, 0x17,
    0xc7, 0x74, 0x91, 0x03, 0x96, 0xb3, 0xc5, 0x34, 0x65, 0xe7, 0x90, 0x8c, 0xfa,
    0xee, 0xae, 0x4c, 0x2d, 0x9a, 0x0d, 0x3f, 0xef, 0x17, 0x94, 0xf0, 0x1f, 0x11,
    0x81, 0x63, 0x62, 0x0f, 0x0f, 0xbd, 0xa6, 0xaf, 0xbc, 0x8b, 0xb8, 0x07, 0xc0,
    0x09, 0x56, 0x08, 0x2b, 0xfe, 0xda, 0x2a, 0x46, 0x25, 0x2a, 0x97, 0x10, 0xa4,
    0xe1, 0xac, 0x04, 0x5e, 0xf2, 0xbd, 0xe3, 0xe5, 0x20, 0xdd, 0x37, 0x4d, 0xf9,
    0xe6, 0x1f, 0xb2, 0x17, 0x6c, 0x0b, 0xcb, 0x5c, 0x3a, 0xb7, 0x31, 0x29, 0xba,
    0xce, 0x21, 0x45, 0xeb, 0xf6, 0x2b, 0x60, 0xb7, 0xb5, 0x20, 0x33, 0xd0, 0x57,
    0xb3, 0xb4, 0xe7, 0x08, 0x4b, 0x52, 0x5d, 0x38, 0x7f, 0xcc, 0xe2, 0x1f, 0xbe,
    0xdf, 0x69, 0x08, 0xea, 0x00, 0x12, 0x4e, 0xfb, 0x4b, 0x51, 0xda, 0x24, 0x40,
    0x25, 0x44, 0xe9, 0xf0, 0xef, 0x9e, 0xee, 0xca, 0xf8, 0xbc, 0x0a, 0xcc, 0xca,
    0xf6, 0x19, 0xad, 0x9f, 0x2a, 0xc6, 0xa9, 0x4d, 0x46, 0xf3, 0xd0, 0xfa, 0xcd,
    0x22, 0x36, 0xf9, 0x14, 0x76, 0xde, 0x9c, 0x46, 0xdb, 0x5b, 0xbb, 0x59, 0x4e,
    0x1a, 0x0b, 0xf2, 0x4f, 0x24, 0xc2, 0xdc, 0x3b, 0x59, 0xa2, 0x5a, 0xdc, 0x1b,
    0xd6, 0xd0, 0xfe, 0x7f, 0x1a, 0x04, 0xdd, 0x29, 0x12, 0x08, 0x28, 0xda, 0xf0,
    0x35, 0x43, 0xc3, 0x0a, 0xee, 0xb4, 0x2f, 0xbd, 0x15, 0x2f, 0xaa, 0xe5, 0x4f,
    0x1e, 0xd6, 0xf8, 0x5e, 0x0c, 0xe4, 0x27, 0x88, 0x3f, 0xcb, 0xc6, 0xdf, 0x61,
    0xfa, 0x68, 0xbd, 0xf5, 0xe5, 0xc6, 0x0b, 0x08, 0x15, 0xe5, 0x4d, 0xf8, 0xc3,
    0x16, 0x05, 0x81, 0xbf, 0x0f, 0x98, 0xdc, 0x22, 0x8f, 0x43, 0xfa, 0x9e, 0xb4,
    0xbb, 0xba, 0xfe, 0xfe, 0x20, 0xf7, 0x09, 0x66, 0x24, 0x1a, 0x23, 0xaa, 0x6b,
    0x59, 0xaa, 0x49, 0x02, 0x2a, 0xca, 0x5a, 0x7f, 0xed, 0x42, 0x19, 0x1b, 0xfa,
    0xab, 0x7f, 0x17, 0xf4, 0x16, 0x39, 0x2d, 0xf1, 0xd8, 0xcb, 0x5c, 0x49, 0x27,
    0xe2, 0xf5, 0xf2, 0xcd, 0x16, 0xeb, 0x67, 0x48, 0x1d, 0xf8, 0x79, 0xc7, 0x15,
    0xd0, 0x5e, 0xce, 0xc3, 0xe0, 0x7f, 0x63, 0x56, 0x5a, 0x09, 0xdb, 0xff, 0xfa,
    0x3d, 0x07, 0x52, 0xd2, 0xa5, 0xb4, 0xed, 0x4b, 0xd2, 0xb7, 0xbd, 0x26, 0x11,
    0xf9, 0x2c, 0x3a, 0x1d, 0x21, 0x2e, 0x1c, 0xca, 0x99, 0x81, 0xdc, 0xbb, 0xe8,
    0x44, 0x63, 0xde, 0x1d, 0x19, 0x3b, 0x39, 0xcf, 0x0d, 0x2f, 0x02, 0xd9, 0x8e,
    0x28, 0xc1, 0xc8, 0x3d, 0x42, 0x0d, 0x13, 0x1d, 0xf9, 0xde, 0xfe, 0x49, 0x0b,
    0xb0, 0xfa, 0xff, 0x5b, 0xd3, 0xee, 0x64, 0x9b, 0xb8, 0xad, 0x92, 0xa6, 0xe6,
    0xf5, 0xbe, 0xbb, 0xa6, 0xb5, 0x94, 0xea, 0xd6, 0xbf, 0x23, 0xe2, 0xf1, 0x04,
    0xd7, 0xec, 0xf6, 0xe5, 0xd8, 0x10, 0xf4, 0xf7, 0x92, 0xf1, 0xa8, 0xf8, 0xfa,
    0x2f, 0xc1, 0xc3, 0xda, 0x99, 0xa2, 0xda, 0x0a, 0xdb, 0x82, 0x9e, 0x2e, 0xc9,
    0xef, 0x23, 0x06, 0x92, 0xfa, 0x25, 0x24, 0x03, 0x36, 0xe7, 0x02, 0xf3, 0xd2,
    0xf4, 0x81, 0xb3, 0x1c, 0x0c, 0x89, 0xbf, 0xc3, 0x49, 0xc2, 0x1d, 0x95, 0xde,
    0x11, 0xe2, 0xba, 0x12, 0x4a, 0xb0, 0x3d, 0xe8, 0x1b, 0x48, 0xa4, 0x86, 0xca,
    0xd8, 0xf7, 0xad, 0xca, 0xe9, 0xc1, 0x21, 0x9b, 0x28, 0xaf, 0x51, 0x81, 0xb6,
    0xf0, 0xad, 0xad, 0x81, 0x2e, 0xf1, 0x2e, 0xcc, 0x91, 0xa9, 0xf1, 0xd7, 0xab,
    0x43, 0xa9, 0x22, 0x4f, 0xcc, 0xbf, 0xab, 0xbd, 0x9a, 0x20, 0xa6, 0x3a, 0x51,
    0xf4, 0x10, 0x2f, 0xde, 0x1e, 0xba, 0xc0, 0x2c, 0xe1, 0xd2, 0x22, 0xec, 0xb6,
    0x2d, 0x1f, 0x31, 0x4a, 0x3d, 0x21, 0x0d, 0xd7, 0xbc, 0x42, 0x0a, 0xdb, 0x6d,
    0xca, 0x1f, 0x30, 0x18, 0x0f, 0x33, 0x49, 0x26, 0xcd, 0xcf, 0xba, 0x7c, 0xa9,
    0x9b, 0x7b, 0x0d, 0x9c, 0xf2, 0x1d, 0x81, 0x2f, 0xb8, 0x1f, 0xc8, 0xdc, 0xb1,
    0x3c, 0x24, 0xf1, 0xf6, 0x26, 0x05, 0xaf, 0xe8, 0x51, 0xc8, 0xda, 0x4b, 0xba,
    0x32, 0x7c, 0xd6, 0xe1, 0xf5, 0xa4, 0x7c, 0x7f, 0xac, 0x5f, 0xc4, 0xb0, 0x16,
    0x01, 0xdd, 0x3b, 0xe9, 0xba, 0x67, 0x11, 0xe4, 0xb2, 0x6d, 0xce, 0x48, 0x14,
    0xfc, 0x17, 0xf1, 0x07, 0x33, 0x2b, 0xa9, 0x31, 0xb4, 0x25, 0x2b, 0x6f, 0x1f,
    0xfb, 0x58, 0x28, 0x10, 0x1a, 0x32, 0xe1, 0x34, 0x23, 0x11, 0x52, 0xc3, 0xf6,
    0xcd, 0xf1, 0x1e, 0x58, 0x40, 0xc6, 0x3c, 0xe3, 0x59, 0xe5, 0x27, 0x45, 0x76,
    0x4d, 0x05, 0xbc, 0x91, 0xb7, 0xc2, 0xd9, 0x53, 0x1d, 0xe7, 0x29, 0x16, 0xc5,
    0xa2, 0x1a, 0xd0, 0xd5, 0xa3, 0x2e, 0x7f, 0x57, 0x45, 0x33, 0xc0, 0x69, 0x21,
    0x3a, 0xf3, 0xe2, 0xd4, 0x2a, 0x78, 0xc3, 0xd0, 0x2c, 0x2d, 0x8e, 0x64, 0x09,
    0x42, 0x46, 0xd8, 0x62, 0x2d, 0x06, 0xa5, 0xec, 0xab, 0x22, 0x90, 0xdb, 0xb9,
    0xef, 0xb9, 0xed, 0x9f, 0x35, 0x12, 0x07, 0x9d, 0xf4, 0xf1, 0xe7, 0x35, 0xbd,
    0xc9, 0x25, 0xc3, 0xbf, 0xf1, 0xbc, 0xe2, 0xb6, 0xac, 0xff, 0xdf, 0xb0, 0xf2,
    0xe0, 0x18, 0x21, 0xa1, 0x1d, 0x24, 0xa4, 0x05, 0xd5, 0xd1, 0xdd, 0x9e, 0xe6,
    0xbd, 0xe9, 0xdc, 0xe0, 0x81, 0x1f, 0xc9, 0x18, 0xc1, 0xe7, 0x9f, 0xf0, 0x02,
    0xde, 0xd2, 0xfc, 0xe2, 0xf5, 0x07, 0x67, 0xa6, 0x26, 0xb3, 0x0b, 0x25, 0x30,
    0xa9, 0xba, 0x1a, 0x38, 0xac, 0x11, 0xa3, 0xf9, 0x42, 0xa3, 0xe0, 0xc4, 0x2b,
    0x1f, 0xbd, 0x3f, 0xc0, 0x25, 0xf1, 0x51, 0x0f, 0xa6, 0xda, 0xf3, 0xdd, 0x1a,
    0xbb, 0xa4, 0xba, 0xb1, 0xd5, 0x9f, 0xcc, 0xbc, 0xf3, 0xc0, 0xfb, 0x40, 0xf0,
    0x44, 0x2d, 0x7f, 0x1e, 0xe8, 0x46, 0x17, 0xd9, 0x1a, 0xeb, 0x33, 0x0d, 0x4c,
    0x31, 0x01, 0x37, 0x30, 0x0a, 0xec, 0x5a, 0xc0, 0xce, 0xbc, 0xc9, 0x03, 0x70,
    0x5e, 0xdf, 0x79, 0x3e, 0x52, 0x32, 0xdb, 0x0f, 0x1b, 0x9c, 0xf1, 0xfb, 0x11,
    0x12, 0x69, 0xd3, 0x28, 0xf5, 0x36, 0x81, 0x16, 0xfd, 0x22, 0x7c, 0x2f, 0x08,
    0x3e, 0x8f, 0xfe, 0x4b, 0xcf, 0xd4, 0x14, 0x70, 0xde, 0xda, 0xbc, 0x1b, 0x03,
    0x2d, 0x02, 0x13, 0x72, 0x02, 0x2f, 0x5f, 0xa5, 0x2a, 0xf8, 0x5f, 0xfd, 0xaf,
    0x9a, 0xfe, 0x10, 0xb0, 0x52, 0xc3, 0x68, 0xba, 0x49, 0x7f, 0xb5, 0x15, 0xf5,
    0xe5, 0xe2, 0xb5, 0x7a, 0x25, 0xfe, 0x0e, 0xab, 0xf3, 0xa9, 0xe7, 0xc6, 0x70,
    0x3b, 0x22, 0x64, 0xe5, 0xfb, 0x27, 0xf7, 0x10, 0x0f, 0xa7, 0xcf, 0x40, 0xda,
    0x16, 0x0e, 0x20, 0x6d, 0x2a, 0x19, 0xd0, 0x02, 0x30, 0xc4, 0x4d, 0x60, 0xd7,
    0x51, 0xdf, 0x3b, 0xf3, 0x27, 0x3c, 0x8d, 0xf5, 0x17, 0xcf, 0x33, 0xac, 0xfb,
    0xb4, 0xa9, 0x1b, 0xeb, 0xd0, 0x81, 0x16, 0xd2, 0xca, 0x32, 0xc8, 0x02, 0xb0,
    0xe1, 0x3f, 0x14, 0x54, 0x0b, 0x95, 0x01, 0x14, 0xf4, 0x31, 0xd0, 0xd2, 0x68,
    0x9c, 0x95, 0x2a, 0xed, 0x00, 0xac, 0xc9, 0x9d, 0x34, 0x14, 0x2c, 0xd3, 0xb0,
    0x01, 0x2a, 0x10, 0xb6, 0xef, 0x05, 0x97, 0x5f, 0x91, 0xda, 0x53, 0x53, 0x16,
    0xc5, 0x03, 0x3a, 0xc8, 0xdf, 0x7f, 0x1d, 0x39, 0xc6, 0xbf, 0x7a, 0x3c, 0xf5,
    0x7b, 0x36, 0xfe, 0x49, 0xbe, 0xa6, 0x6f, 0xe3, 0x52, 0x36, 0xd9, 0x4c, 0xe7,
    0xe8, 0xcd, 0xe3, 0x0e, 0xba, 0x1e, 0xd4, 0x05, 0x1b, 0x78, 0x49, 0x36, 0x32,
    0xfb, 0x3c, 0xb8, 0xd5, 0x33, 0xd3, 0x33, 0x5d, 0xfa, 0xb1, 0xf1, 0x4e, 0x2c,
    0xdf, 0xd3, 0x66, 0xf0, 0xc7, 0xf0, 0x1a, 0xcf, 0xdc, 0xef, 0xff, 0xf8, 0xdd,
    0x40, 0x1f, 0x1e, 0xba, 0xcc, 0xd1, 0xfd, 0x2b, 0x0b, 0xb0, 0x55, 0xf1, 0xcb,
    0xb1, 0x0c, 0x2e, 0x13, 0x05, 0x46, 0x53, 0xf5, 0x35, 0xc9, 0x97, 0xb8, 0x2e,
    0xca, 0x06, 0x19, 0xb9, 0x4f, 0xe1, 0x3c, 0xe6, 0xc9, 0xcd, 0x9d, 0x4d, 0xf6,
    0xef, 0x59, 0x3b, 0xd8, 0xdd, 0x81, 0xc9, 0xca, 0xc1, 0x09, 0xc8, 0x04, 0x12,
    0xfa, 0x24, 0x58, 0xc4, 0xc0, 0x17, 0xf2, 0x3b, 0xfd, 0x0b, 0xf0, 0xff, 0xa5,
    0xd8, 0xf2, 0x32, 0xd9, 0xb4, 0xc4, 0xed, 0x4b, 0x81, 0xde, 0xc4, 0x0a, 0x4c,
    0xd2, 0x09, 0x23, 0xea, 0xcd, 0xd5, 0xb2, 0xf7, 0xc2, 0x50, 0x99, 0x3d, 0x19,
    0x94, 0x4a, 0x0e, 0x8a, 0xf1, 0xb6, 0xfa, 0xc8, 0xff, 0xd9, 0x4f, 0x4b, 0xf8,
    0x1a, 0x01, 0x8c, 0x1a, 0xfc, 0xce, 0xb3, 0x42, 0x6a, 0x0d, 0xdd, 0x03, 0x15,
    0x1c, 0x4d, 0x1a, 0xcb, 0x7f, 0xfc, 0xd5, 0xf0, 0xff, 0x21, 0xed, 0xe3, 0x5c,
    0x50, 0x1f, 0xbf, 0x10, 0xed, 0xa9, 0x07, 0xfa, 0xfb, 0x38, 0x1f, 0x31, 0xe1,
    0x32, 0x0b, 0x33, 0x21, 0xd3, 0x57, 0xd0, 0xc9, 0xef, 0x11, 0x34, 0x1e, 0xe8,
    0x32, 0x1e, 0xc3, 0x34, 0x62, 0xb7, 0x16, 0x25, 0xed, 0xea, 0x1a, 0x22, 0x02,
    0xfc, 0xbf, 0xc3, 0xda, 0x51, 0xe5, 0x55, 0xd5, 0xd7, 0xd8, 0x1a, 0xcf, 0xd5,
    0xb9, 0x9c, 0x48, 0xa2, 0xee, 0xad, 0x27, 0xf5, 0xc3, 0x32, 0x9a, 0x45, 0xe9,
    0xe8, 0xdf, 0xfe, 0xa2, 0x28, 0xc3, 0xbd, 0xe1, 0x1a, 0xd0, 0x07, 0xcb, 0xc7,
    0xb3, 0xb3, 0xaf, 0x1c, 0x1e, 0x9a, 0x5d, 0x01, 0xf4, 0x32, 0x52, 0x81, 0xbe,
    0x07, 0x8f, 0x34, 0xd5, 0xf6, 0xc3, 0x60, 0xfa, 0x1f, 0x1d, 0x02, 0x0d, 0x30,
    0xe7, 0x0e, 0x0e, 0x7f, 0xdc, 0x22, 0x0d, 0x19, 0x56, 0x76, 0xf5, 0x38, 0x35,
    0xd1, 0x4b, 0x00, 0x0d, 0x1f, 0x35, 0x2a, 0xf6, 0x5c, 0xd4, 0x23, 0x02, 0xec,
    0x24, 0x4f, 0x38, 0xd5, 0x35, 0x2c, 0x49, 0x34, 0x12, 0xfd, 0x04, 0xe6, 0x60,
    0x4b, 0x13, 0xfc, 0x30, 0x0b, 0x3c, 0x0a, 0x09, 0x1b, 0x3f, 0xb0, 0x2c, 0xfb,
    0x0f, 0x03, 0x48, 0xed, 0x55, 0xd9, 0xef, 0xf9, 0xca, 0x5a, 0xb0, 0xab, 0xf6,
    0x81, 0xe8, 0xb4, 0xf1, 0x19, 0x21, 0x37, 0xfb, 0xc7, 0xf9, 0xf0, 0x4f, 0xbc,
    0xcb, 0xfa, 0xf5, 0x02, 0xfb, 0xf2, 0x27, 0x18, 0x8b, 0xd5, 0x50, 0x2f, 0x52,
    0x14, 0x29, 0x4c, 0x0c, 0xe0, 0xd9, 0x26, 0x1b, 0xfe, 0xde, 0xf4, 0xd4, 0x72,
    0x26, 0x4b, 0x02, 0x20, 0xc1, 0xe6, 0xf3, 0xf8, 0x11, 0x2c, 0x07, 0x49, 0xbb,
    0x15, 0x2d, 0xd9, 0x61, 0x26, 0x47, 0x43, 0xfa, 0x5e, 0x79, 0xf6, 0x3d, 0x0b,
    0x47, 0x62, 0xfb, 0x2f, 0x30, 0x71, 0xe2, 0x02, 0x7f, 0x30, 0x35, 0xea, 0x2b,
    0xf3, 0xfd, 0x02, 0xf5, 0x4c, 0xfd, 0x66, 0x24, 0xfe, 0x15, 0x21, 0x4a, 0xf6,
    0x28, 0x8e, 0x00, 0x1f, 0xc7, 0x0e, 0x14, 0xe0, 0x16, 0x5c, 0xbf, 0x7f, 0x6c,
    0xd7, 0x28, 0xb3, 0xbc, 0x10, 0xf4, 0x56, 0x61, 0xab, 0x32, 0x26, 0x17, 0xd3,
    0x29, 0xa6, 0x38, 0xc1, 0x46, 0x56, 0xaf, 0xf5, 0xcd, 0x35, 0x27, 0x42, 0xa7,
    0xed, 0xd3, 0x3b, 0x46, 0xd9, 0xf8, 0xe3, 0xdc, 0x2d, 0xb8, 0xd2, 0x81, 0x03,
    0x16, 0xc1, 0x01, 0xda, 0x47, 0xec, 0xc5, 0xa4, 0x00, 0xd7, 0xe5, 0xfc, 0xf5,
    0xd4, 0x9a, 0xec, 0xb5, 0xbf, 0xf4, 0xb2, 0xf7, 0x25, 0xc1, 0x9e, 0x28, 0xbb,
    0xa7, 0x73, 0x2e, 0xac, 0xe0, 0x02, 0xe0, 0x2e, 0xd1, 0xbb, 0xc8, 0x0e, 0x81,
    0xd9, 0xab, 0xdd, 0xfb, 0x2d, 0xc1, 0x3d, 0x2d, 0xd4, 0xf6, 0x56, 0xb8, 0x19,
    0x8b, 0x84, 0xd4, 0xb3, 0x14, 0x2e, 0xee, 0xd1, 0xb3, 0x4b, 0xab, 0x37, 0xc0,
    0x1a, 0x0e, 0x4c, 0xfd, 0xd8, 0x2a, 0xb5, 0x1c, 0xfd, 0xb2, 0x23, 0xdb, 0x92,
    0xd6, 0x52, 0xab, 0xdb, 0xc2, 0xe1, 0x51, 0x06, 0xb1, 0x10, 0xdf, 0x24, 0x95,
    0x3e, 0x2c, 0xda, 0xb6, 0xc7, 0xaf, 0x38, 0xe3, 0xf9, 0x10, 0xab, 0xc3, 0xd9,
    0x4b, 0x1d, 0xf7, 0x38, 0x91, 0x51, 0xea, 0xda, 0xc2, 0x07, 0xa0, 0x35, 0xe6,
    0x04, 0xe0, 0xdf, 0x81, 0x2f, 0xf8, 0xa0, 0x44, 0x16, 0x9a, 0x0f, 0xff, 0x03,
    0xe7, 0xc4, 0x9e, 0xe6, 0xe5, 0x0f, 0xdb, 0x34, 0x3a, 0xeb, 0x1a, 0xb5, 0x15,
    0xe9, 0xa0, 0xfd, 0x3a, 0xe1, 0xd6, 0x61, 0x20, 0xe5, 0x75, 0x4b, 0xf0, 0x2e,
    0xe9, 0xce, 0x14, 0xde, 0xc6, 0x19, 0xfb, 0x3b, 0x72, 0x13, 0x96, 0xb9, 0x7c,
    0xac, 0xcf, 0xaf, 0x81, 0xaf, 0xde, 0x67, 0xf3, 0x36, 0x75, 0x11, 0x64, 0xa7,
    0xb8, 0xaf, 0xb5, 0x28, 0xdd, 0x69, 0x38, 0x48, 0x6d, 0x10, 0xd0, 0xee, 0xd6,
    0xcf, 0xc1, 0x9d, 0x08, 0x2e, 0xf7, 0xfc, 0x0a, 0xa5, 0xa8, 0xf6, 0x2c, 0x1e,
    0x4e, 0xd7, 0x1b, 0x58, 0x1e, 0x0a, 0xaf, 0xe9, 0xd4, 0xb5, 0x98, 0x5e, 0x09,
    0x9c, 0x5d, 0x57, 0x2a, 0xd2, 0x53, 0x22, 0x39, 0xf8, 0x53, 0x4a, 0x89, 0x2d,
    0x59, 0xdc, 0x0d, 0x2f, 0x17, 0x05, 0xf9, 0x3d, 0x22, 0x25, 0xd8, 0x0f, 0x7d,
    0xc9, 0xf4, 0x78, 0xd6, 0xfb, 0x22, 0xc3, 0x20, 0x7b, 0x14, 0x10, 0x00, 0xe0,
    0xf0, 0x10, 0x18, 0xeb, 0x18, 0xf5, 0xfd, 0x7f, 0x1a, 0x38, 0x3b, 0x9d, 0xef,
    0x62, 0xa2, 0x2f, 0x3d, 0x37, 0xcf, 0x28, 0xb0, 0x3b, 0xfa, 0xc2, 0xce, 0x7c,
    0xe2, 0xfd, 0x66, 0x5e, 0xbc, 0xb6, 0xca, 0x1b, 0xfc, 0x35, 0x3c, 0x2c, 0xf8,
    0xad, 0x4d, 0x25, 0x1b, 0xe1, 0x6e, 0x4b, 0x5c, 0xb3, 0x3b, 0x7f, 0xbb, 0xf4,
    0x56, 0x49, 0xa4, 0x0c, 0xcb, 0x4c, 0x47, 0x29, 0xd4, 0xe0, 0xc2, 0xdf, 0xc3,
    0x31, 0x37, 0x0d, 0xde, 0x35, 0xe9, 0x24, 0xc0, 0x2c, 0xed, 0x02, 0xea, 0x03,
    0xce, 0xdc, 0x39, 0x2b, 0x0e, 0xda, 0x03, 0xfc, 0xba, 0xae, 0xc6, 0xf5, 0xa8,
    0x06, 0xc2, 0xc8, 0xe3, 0xd9, 0x16, 0x1b, 0x05, 0x32, 0xb6, 0x2d, 0x1e, 0x21,
    0x32, 0xd7, 0x30, 0xe2, 0x10, 0xb1, 0x2a, 0x1f, 0x2b, 0x3b, 0x16, 0x43, 0xca,
    0x42, 0x7f, 0xa7, 0xb0, 0x27, 0x02, 0x45, 0xe3, 0xf5, 0x5d, 0xe9, 0xfc, 0x04,
    0x0a, 0xcd, 0xf1, 0x20, 0x68, 0x11, 0x78, 0x41, 0x81, 0x31, 0xc9, 0xab, 0xf5,
    0xe3, 0xa0, 0xca, 0x3d, 0xb9, 0xff, 0xfb, 0x9a, 0xf0, 0xbb, 0xa5, 0xd5, 0x26,
    0x21, 0x10, 0x0d, 0x3c, 0x4d, 0xf0, 0xf7, 0xeb, 0xbf, 0xa9, 0xc4, 0xe5, 0xfc,
    0xf5, 0x3a, 0x22, 0xf2, 0x07, 0x03, 0xf0, 0x16, 0xb9, 0xc1, 0xdb, 0xea, 0xec,
    0x16, 0xe9, 0x2d, 0x21, 0xbe, 0xe9, 0xf0, 0xfe, 0x73, 0xcb, 0xf5, 0x7c, 0xdc,
    0xb0, 0xda, 0xdb, 0x2c, 0xea, 0x1d, 0x04, 0xcb, 0x05, 0xb2, 0x6c, 0x01, 0x41,
    0x41, 0xf6, 0x00, 0x18, 0x4c, 0x39, 0xbb, 0x31, 0xff, 0xc1, 0x06, 0xce, 0xb2,
    0x12, 0xf2, 0x89, 0xf2, 0x3c, 0xf3, 0xad, 0x1c, 0x2c, 0xc5, 0x16, 0x0b, 0x1a,
    0xad, 0xe3, 0xfc, 0xce, 0xce, 0x8c, 0x1e, 0x7f, 0xe9, 0x50, 0x2c, 0xe2, 0x0d,
    0xa7, 0x65, 0x51, 0xee, 0xb2, 0x14, 0x0f, 0x2e, 0xed, 0x63, 0x0c, 0xd3, 0x4f,
    0x99, 0xd6, 0xe3, 0x9a, 0x23, 0x45, 0x1e, 0xff, 0x20, 0x05, 0x66, 0x7f, 0x09,
    0xe6, 0x55, 0xb7, 0x2d, 0xec, 0x19, 0xf0, 0x29, 0x2f, 0xf0, 0x57, 0x4c, 0x01,
    0x69, 0xbb, 0xcd, 0x2a, 0xd1, 0x57, 0xee, 0x41, 0x1d, 0x2e, 0x1f, 0xce, 0x1d,
    0x1a, 0xf5, 0x23, 0xf0, 0xdb, 0x4a, 0x45, 0xc1, 0x6d, 0xf7, 0xef, 0x01, 0x0c,
    0xb6, 0x1e, 0x3d, 0xd4, 0x3b, 0xd0, 0xd8, 0xd3, 0xe8, 0x0b, 0x14, 0xef, 0x2e,
    0x05, 0x09, 0x45, 0x0c, 0xb1, 0xfc, 0x0c, 0xbe, 0x02, 0x3f, 0x61, 0x4d, 0xe1,
    0x09, 0xff, 0x36, 0xd2, 0x51, 0x46, 0xfa, 0x14, 0xcd, 0x3c, 0x37, 0x1d, 0xde,
    0x18, 0x12, 0x1d, 0x7f, 0x24, 0x09, 0x4a, 0x45, 0x8f, 0xd5, 0x20, 0x03, 0x52,
    0x1c, 0xb3, 0x49, 0x0d, 0xaa, 0xdc, 0x42, 0x28, 0x04, 0xba, 0x13, 0x3c, 0xbe,
    0xdd, 0xdb, 0x81, 0x05, 0xf6, 0x29, 0xf3, 0x4b, 0xff, 0xda, 0x5e, 0xb7, 0xe9,
    0xd1, 0x96, 0x3d, 0xeb, 0x08, 0x08, 0xa2, 0x65, 0x21, 0xa2, 0xca, 0x33, 0xe6,
    0xdf, 0x71, 0x31, 0x67, 0x82, 0xcf, 0x70, 0xf0, 0x0c, 0x43, 0xcf, 0xda, 0xb2,
    0x38, 0x6d, 0x30, 0xaa, 0x30, 0x5e, 0x81, 0x39, 0x3e, 0xd2, 0x0e, 0x37, 0x28,
    0x63, 0xd8, 0x4f, 0xee, 0xa2, 0xcd, 0x3a, 0xea, 0xb8, 0xfe, 0x0a, 0xd2, 0x28,
    0x81, 0x2d, 0x63, 0xe4, 0x32, 0x08, 0xb3, 0xab, 0x40, 0xef, 0x48, 0x24, 0x92,
    0xf9, 0x2b, 0x07, 0xe6, 0xc3, 0xc4, 0xe1, 0xf9, 0x9a, 0xea, 0x22, 0x9b, 0xc5,
    0xd3, 0xee, 0x0f, 0xfc, 0xf2, 0x07, 0xb7, 0xb4, 0xe4, 0xf3, 0xf0, 0xd0, 0xaf,
    0x9b, 0x31, 0xa0, 0xe4, 0x41, 0xc4, 0x2a, 0x15, 0x1e, 0x11, 0x2f, 0xd9, 0x09,
    0x68, 0x91, 0xc8, 0x48, 0x82, 0xdc, 0xb8, 0xc7, 0x41, 0xa5, 0x8f, 0xc3, 0xb4,
    0xe2, 0x06, 0x16, 0xeb, 0xee, 0xa8, 0x32, 0xf3, 0x20, 0x81, 0x2f, 0xdc, 0x3c,
    0x04, 0x25, 0xab, 0x96, 0x2c, 0x13, 0xe9, 0x43, 0x89, 0x51, 0x29, 0x20, 0x36,
    0xac, 0x1c, 0xc9, 0x4d, 0xb0, 0x2d, 0xe2, 0xfc, 0x0f, 0x4b, 0x94, 0x64, 0x34,
    0xf0, 0xc6, 0xcc, 0xbe, 0xd3, 0x51, 0x04, 0xcf, 0xbf, 0xd3, 0x4c, 0x27, 0xf8,
    0xf9, 0x36, 0x43, 0xce, 0x20, 0xa1, 0x18, 0x52, 0x67, 0xa9, 0x57, 0xc8, 0x8c,
    0xd6, 0xd7, 0x1f, 0xae, 0x07, 0xe8, 0x6a, 0x0d, 0xa8, 0xe4, 0xf7, 0xf9, 0xed,
    0xe7, 0x60, 0xaa, 0xab, 0x4f, 0xb7, 0xef, 0x1b, 0xd1, 0x50, 0x1e, 0x31, 0x64,
    0x58, 0xc9, 0xd1, 0x36, 0xde, 0x55, 0x7f, 0x97, 0xf9, 0xa8, 0xfd, 0x45, 0xfd,
    0x38, 0xe2, 0xcb, 0xf8, 0xf7, 0xf5, 0xf9, 0x35, 0x0d, 0x54, 0x39, 0x00, 0x68,
    0xce, 0xfa, 0x65, 0x0e, 0xeb, 0xd5, 0x0d, 0xff, 0x54, 0x4b, 0x55, 0x02, 0xf5,
    0xef, 0x43, 0x10, 0x16, 0x72, 0xa7, 0x8e, 0x1b, 0x37, 0x54, 0x09, 0xff, 0x67,
    0xfe, 0xb7, 0x1a, 0x0d, 0x2e, 0xd6, 0x40, 0x17, 0x81, 0x35, 0xb0, 0x28, 0x10,
    0x30, 0x09, 0x00, 0x01, 0x36, 0x52, 0xda, 0xac, 0xfc, 0xf7, 0xcf, 0x81, 0x3b,
    0x5c, 0x9c, 0x07, 0xed, 0xd9, 0x97, 0x3d, 0x22, 0xa8, 0xe1, 0x86, 0x28, 0x36,
    0x96, 0xf7, 0x60, 0x20, 0x20, 0xec, 0x13, 0xb0, 0xe8, 0xe0, 0x87, 0x11, 0xbf,
    0xbc, 0x29, 0xda, 0x24, 0xd8, 0x33, 0x20, 0xe3, 0xd2, 0xf4, 0x2c, 0xd1, 0xab,
    0xdf, 0x38, 0xc6, 0x38, 0xc0, 0x92, 0xd2, 0xfd, 0xf0, 0xb7, 0xb3, 0xf4, 0x13,
    0xe9, 0x42, 0xfb, 0x1c, 0xf3, 0xe2, 0x52, 0x4e, 0x13, 0x01, 0x5c, 0xbb, 0x65,
    0xd7, 0xb9, 0x12, 0x3d, 0xde, 0x4c, 0xce, 0x08, 0xf6, 0x29, 0x17, 0x7c, 0xbe,
    0xb5, 0xd6, 0xb5, 0xa2, 0xbe, 0xf8, 0xd0, 0x5e, 0xa7, 0x81, 0x7c, 0xd9, 0x37,
    0xf7, 0x1e, 0xec, 0x5d, 0x3b, 0xe3, 0xc1, 0x55, 0xdb, 0x2d, 0x18, 0xc8, 0x63,
    0x15, 0xf6, 0x7b, 0xac, 0xc4, 0x24, 0xc8, 0xdf, 0x29, 0xdd, 0x35, 0xd6, 0xcd,
    0xe5, 0x2d, 0x4e, 0x22, 0x0c, 0xac, 0x52, 0x28, 0x08, 0x1d, 0x35, 0xa7, 0x5b,
    0xc4, 0x9a, 0x3b, 0xc6, 0xb0, 0x68, 0x01, 0xe9, 0xe6, 0x13, 0xd7, 0x08, 0x66,
    0xc4, 0xee, 0x34, 0xa4, 0xd8, 0x54, 0x12, 0x09, 0xbd, 0xf2, 0x2a, 0xc2, 0xa6,
    0x76, 0x58, 0x98, 0xaf, 0x70, 0x81, 0xdf, 0x46, 0x01, 0xf8, 0x79, 0xe1, 0x04,
    0xda, 0xe8, 0x5f, 0x0c, 0xac, 0xdd, 0xf9, 0x9c, 0x48, 0x0d, 0x94, 0xd9, 0xbd,
    0x0b, 0x0c, 0xbe, 0x19, 0x17, 0x21, 0x8b, 0xfa, 0xc2, 0xbf, 0x35, 0xf8, 0xc8,
    0xdf, 0x34, 0x0a, 0xfb, 0xbe, 0xed, 0xb2, 0xcb, 0xe8, 0x04, 0x12, 0x00, 0x55,
    0xa1, 0x81, 0x03, 0x57, 0xad, 0xc3, 0x49, 0xa6, 0xc2, 0xe4, 0xfd, 0xe9, 0x3d,
    0xb5, 0x2b, 0x2b, 0x1a, 0x30, 0x65, 0x9e, 0xb5, 0x31, 0x02, 0x17, 0xf6, 0x33,
    0xff, 0x15, 0xa0, 0xd6, 0x18, 0xc4, 0x21, 0x2e, 0xf7, 0xbd, 0x2b, 0x3f, 0x5a,
    0x2d, 0xc5, 0xa0, 0xd0, 0xac, 0x22, 0x7f, 0x26, 0xe4, 0xb9, 0x0e, 0x48, 0x5c,
    0xde, 0x0b, 0x21, 0xd1, 0x91, 0x30, 0xad, 0x4a, 0x3a, 0xaa, 0xdd, 0x68, 0xe8,
    0xe0, 0x71, 0xe6, 0x41, 0x4c, 0xa9, 0x45, 0xe7, 0xed, 0xf3, 0xfb, 0x40, 0x3b,
    0x7d, 0xab, 0xe6, 0x50, 0x23, 0xec, 0x7c, 0xb3, 0xb3, 0xe3, 0x93, 0xc3, 0xe2,
    0x48, 0xc5, 0x3b, 0x14, 0x3d, 0x49, 0x3b, 0x9b, 0xf6, 0xe6, 0xdd, 0xb1, 0xe2,
    0x55, 0xa5, 0xdd, 0x30, 0x50, 0x7b, 0xa4, 0x5b, 0xd4, 0x03, 0xfd, 0xf0, 0x79,
    0x92, 0xd6, 0x26, 0x24, 0x14, 0x2d, 0x52, 0x05, 0x73, 0x0c, 0x10, 0x34, 0xb1,
    0x01, 0x2c, 0x45, 0x69, 0x87, 0x27, 0xb7, 0xdb, 0x81, 0x20, 0x56, 0x11, 0x31,
    0xfa, 0xa7, 0x16, 0xac, 0x26, 0x30, 0x0a, 0x17, 0x33, 0xb9, 0x38, 0x64, 0xd9,
    0xfd, 0xe4, 0x00, 0x48, 0x7f, 0x0d, 0xd7, 0xff, 0xe0, 0x38, 0x39, 0x2e, 0x1f,
    0x7e, 0xe8, 0xf5, 0xd9, 0xa9, 0x12, 0x1f, 0xf1, 0x3d, 0xf9, 0xb1, 0x1f, 0x04,
    0xd9, 0x03, 0x34, 0xd7, 0x1c, 0x2d, 0x9d, 0x31, 0xff, 0x2c, 0x56, 0x12, 0xc1,
    0x2a, 0x27, 0xbe, 0x10, 0x14, 0xaf, 0x25, 0x58, 0xdf, 0x00, 0x02, 0xf3, 0xff,
    0xff, 0x04, 0x00, 0x00, 0x00, 0x00, 0x08, 0x00, 0x00, 0x9f, 0x07, 0x8b, 0xc2,
    0xcf, 0xc3, 0xff, 0x98, 0xc3, 0x2c, 0xe2, 0x15, 0xdb, 0xa6, 0xc4, 0x40, 0xb1,
    0xdd, 0x26, 0xe1, 0xf2, 0xcf, 0x0a, 0xf7, 0xff, 0x15, 0xfa, 0x24, 0xac, 0xd5,
    0x22, 0x4b, 0xb0, 0x42, 0xa2, 0xd1, 0x8e, 0x23, 0xfb, 0xa9, 0xec, 0x81, 0x1a,
    0xbe, 0xc5, 0xa6, 0xba, 0xa0, 0x3c, 0xdd, 0x09, 0xd4, 0xaa, 0x94, 0x0a, 0xde,
    0x52, 0xab, 0x23, 0xf6, 0xe9, 0x2c, 0xf3, 0x51, 0xd7, 0xa8, 0xc0, 0xf7, 0xba,
    0xe9, 0x18, 0x08, 0xe5, 0xe3, 0xe4, 0x45, 0x81, 0x32, 0x3b, 0xe2, 0xcd, 0x02,
    0xfa, 0xfc, 0x0c, 0xb2, 0xed, 0xf3, 0xfe, 0x30, 0x2a, 0xda, 0x12, 0x10, 0x16,
    0xee, 0xe7, 0xed, 0xee, 0xeb, 0xb2, 0x14, 0xf3, 0xad, 0x9e, 0x26, 0x05, 0x16,
    0xa6, 0xfc, 0xf4, 0xd6, 0x20, 0x8d, 0x2b, 0xd9, 0xa4, 0x24, 0x0d, 0x88, 0xef,
    0xaf, 0x1d, 0x3c, 0x08, 0x36, 0x99, 0x04, 0x81, 0xed, 0xc0, 0x12, 0xd7, 0x95,
    0xfd, 0x3f, 0xb0, 0xdc, 0x61, 0x15, 0x99, 0xbc, 0xab, 0xf6, 0x37, 0xcb, 0x0c,
    0x9e, 0x01, 0xf6, 0xe0, 0x4b, 0x06, 0xf7, 0xa7, 0xaa, 0x1e, 0xd9, 0x13, 0xa3,
    0x0d, 0x26, 0x31, 0x01, 0xdf, 0x3c, 0xb5, 0x48, 0xf4, 0xf7, 0x29, 0x94, 0x16,
    0x0a, 0xd7, 0x0e, 0xf5, 0xf7, 0x2b, 0xa5, 0xe4, 0x8f, 0x65, 0x0f, 0xe6, 0x31,
    0xde, 0x0f, 0xe9, 0x56, 0xac, 0xdb, 0x45, 0xf9, 0x0b, 0x4d, 0x26, 0x0d, 0xc7,
    0xfc, 0x3a, 0x6d, 0xec, 0xd9, 0x60, 0xf6, 0x0e, 0x73, 0xce, 0x08, 0x7f, 0x68,
    0x19, 0x29, 0x20, 0x00, 0xd6, 0x3e, 0xf6, 0x2d, 0xcb, 0xed, 0x3a, 0x27, 0xdb,
    0x4a, 0x18, 0x45, 0x2d, 0x30, 0x50, 0x0e, 0x08, 0xad, 0x20, 0x04, 0x2f, 0x52,
    0x3b, 0x7f, 0xff, 0x31, 0x50, 0xd9, 0x10, 0xc5, 0xfe, 0xec, 0x5c, 0xda, 0x35,
    0x0f, 0x3f, 0x54, 0xf3, 0x0e, 0x3e, 0x48, 0x53, 0xfc, 0x0c, 0x09, 0xe4, 0x4d,
    0xe9, 0xd0, 0xd0, 0x4a, 0xe4, 0x56, 0x43, 0x28, 0x63, 0x4e, 0x0e, 0x2e, 0xf7,
    0xed, 0x7e, 0x4b, 0x3b, 0x48, 0x40, 0xdd, 0x1b, 0x16, 0x14, 0xbe, 0x31, 0xdd,
    0x79, 0x1b, 0x10, 0x1d, 0xfa, 0x2f, 0xf0, 0x0a, 0xe4, 0x0d, 0x12, 0x7f, 0x67,
    0x38, 0x02, 0x2d, 0x20, 0x64, 0x44, 0x66, 0x06, 0x3a, 0xe2, 0x11, 0xd8, 0x1d,
    0x1c, 0x0a, 0x60, 0xf5, 0x98, 0x0e, 0x17, 0xda, 0x02, 0xc9, 0x42, 0xed, 0xdc,
    0x36, 0x4c, 0x42, 0x9c, 0x08, 0xb3, 0x13, 0x83, 0x16, 0x3a, 0x03, 0x0c, 0xf1,
    0xde, 0xb3, 0xf6, 0x41, 0x36, 0x4f, 0x8f, 0xdd, 0x4f, 0x0d, 0xcf, 0x54, 0x1a,
    0x2f, 0xc6, 0xdc, 0x1b, 0xb9, 0xf0, 0xc5, 0xf5, 0x0f, 0xea, 0x81, 0xe5, 0xf4,
    0x42, 0xad, 0x13, 0xe2, 0xae, 0xe7, 0x35, 0x30, 0x47, 0xd1, 0x35, 0xe4, 0x3d,
    0x04, 0xc7, 0xd0, 0x4a, 0x10, 0x4e, 0x3e, 0x10, 0x5f, 0xcd, 0x39, 0x0f, 0x2e,
    0xe0, 0xc9, 0xf6, 0xf7, 0x26, 0xe8, 0x1d, 0xee, 0x15, 0x08, 0x10, 0x15, 0x12,
    0x09, 0xc8, 0xdd, 0xde, 0xfd, 0x18, 0xe8, 0x48, 0x08, 0x22, 0x1d, 0x52, 0xff,
    0x2d, 0xe7, 0xfa, 0x56, 0x54, 0x49, 0x04, 0x2b, 0x04, 0x0e, 0x5e, 0x61, 0xf3,
    0x6e, 0x5b, 0x1b, 0x7f, 0x0e, 0xfa, 0x40, 0x4a, 0x33, 0x21, 0xee, 0xcf, 0xff,
    0x3d, 0xd7, 0x3f, 0xf8, 0x54, 0x02, 0xd4, 0x62, 0xd6, 0xf5, 0x00, 0xf6, 0x07,
    0x1e, 0xc9, 0x55, 0x68, 0x2c, 0x44, 0x4d, 0xf3, 0x1c, 0x15, 0xef, 0x62, 0xf2,
    0x08, 0x3a, 0x2d, 0xdb, 0x38, 0x07, 0x34, 0x41, 0xe0, 0x3d, 0x17, 0x6c, 0x56,
    0x03, 0xfa, 0x24, 0xc7, 0x1b, 0x02, 0x3c, 0x69, 0x2b, 0x59, 0x09, 0xd5, 0x77,
    0xf2, 0xf1, 0x76, 0x7f, 0xda, 0x5a, 0xdf, 0xd6, 0xfa, 0xff, 0xe6, 0xd9, 0x68,
    0x11, 0x67, 0x7e, 0x73, 0x17, 0x1f, 0xf0, 0x09, 0x57, 0xee, 0xee, 0xfd, 0x0b,
    0x21, 0x14, 0x4a, 0xe5, 0x30, 0x1f, 0x18, 0x63, 0xd8, 0x17, 0x69, 0xe9, 0x20,
    0x02, 0xd2, 0xe1, 0xec, 0x3e, 0x18, 0xc5, 0x32, 0xf5, 0x5c, 0xf1, 0x6d, 0x18,
    0x1c, 0x6f, 0x11, 0x23, 0x1c, 0x0d, 0x4d, 0x2f, 0x08, 0x0f, 0x20, 0x19, 0x15,
    0x02, 0x09, 0x07, 0x38, 0x7f, 0xd7, 0x48, 0x04, 0xdc, 0xf6, 0x14, 0x3f, 0xdb,
    0x99, 0x96, 0xba, 0x15, 0xf3, 0xd8, 0xe7, 0x2f, 0xc1, 0xfe, 0x45, 0x0f, 0xf5,
    0xd3, 0xb2, 0x28, 0xfd, 0xd6, 0x15, 0xa9, 0x28, 0x03, 0x14, 0x09, 0x06, 0xf0,
    0x17, 0x1f, 0xf9, 0xd7, 0x37, 0xfe, 0x2f, 0xf7, 0xfa, 0xd1, 0x81, 0x21, 0x2c,
    0xd6, 0x36, 0x08, 0x27, 0xdc, 0xb2, 0x9e, 0xd9, 0x0a, 0x08, 0xfe, 0xdb, 0x06,
    0xe6, 0xfc, 0x30, 0xec, 0xfc, 0xeb, 0x2d, 0x0e, 0x0a, 0x19, 0x1f, 0x3e, 0xda,
    0xf9, 0x27, 0xd1, 0xcc, 0xc6, 0x0a, 0x16, 0x22, 0xd9, 0x49, 0x06, 0xbf, 0x67,
    0xdc, 0x64, 0xed, 0x78, 0x4d, 0xf1, 0xf1, 0x9a, 0x68, 0xd9, 0x41, 0x1b, 0x20,
    0x54, 0xe1, 0x33, 0x07, 0x56, 0xa5, 0x59, 0x82, 0x2b, 0x44, 0x21, 0x8a, 0x84,
    0x81, 0xa5, 0x4a, 0x53, 0xde, 0x39, 0xba, 0x48, 0x5a, 0x1f, 0x0e, 0x32, 0xfe,
    0x2c, 0x1b, 0xec, 0x1f, 0x87, 0x13, 0x1b, 0x25, 0xff, 0xa6, 0xc5, 0x14, 0xc8,
    0xd7, 0xe0, 0x31, 0xec, 0xe1, 0x56, 0xa6, 0xbe, 0x24, 0xdd, 0xbe, 0xd7, 0x21,
    0xde, 0x37, 0xba, 0x11, 0x1e, 0x2c, 0xed, 0x0f, 0x29, 0xf2, 0x3e, 0x24, 0x81,
    0x47, 0x18, 0x8e, 0xe7, 0x03, 0xe8, 0x16, 0x1c, 0xff, 0xe3, 0x37, 0xf1, 0xb6,
    0x2f, 0x1f, 0xcc, 0xa4, 0xd7, 0x8d, 0xe3, 0x26, 0xea, 0xde, 0xd0, 0xcc, 0xa6,
    0x42, 0xff, 0xce, 0x4f, 0xbf, 0xf1, 0x35, 0xf8, 0x09, 0x28, 0x13, 0x17, 0xe2,
    0xdc, 0xfb, 0x32, 0xf9, 0x05, 0x5e, 0xdd, 0x05, 0x07, 0x3d, 0x4f, 0x10, 0x23,
    0x02, 0x40, 0xec, 0x07, 0xd1, 0x30, 0xff, 0x23, 0x2b, 0xed, 0x28, 0xec, 0xff,
    0x41, 0xd2, 0x36, 0xf3, 0x2d, 0x0b, 0x57, 0x3e, 0xe7, 0x04, 0x19, 0xe1, 0xd5,
    0xec, 0x1a, 0x0f, 0x7c, 0x56, 0xf8, 0xee, 0xf8, 0xdc, 0x1e, 0x7f, 0x3b, 0x17,
    0x02, 0xfa, 0xfe, 0x48, 0xd6, 0x31, 0x35, 0x1f, 0x3a, 0xbd, 0x07, 0x00, 0xcc,
    0x29, 0x17, 0x0c, 0x56, 0x89, 0x34, 0x42, 0xc3, 0x4e, 0xbb, 0xa0, 0x26, 0x01,
    0xbc, 0x3a, 0xfa, 0xd8, 0x3e, 0xdf, 0x4c, 0xed, 0xd3, 0x49, 0xd1, 0x36, 0xf3,
    0x17, 0xc2, 0x34, 0x22, 0x43, 0xcc, 0x81, 0x03, 0x65, 0x2c, 0xe1, 0x0b, 0x19,
    0xf5, 0x12, 0xd1, 0xc2, 0xdd, 0xf5, 0xb8, 0x0c, 0xcd, 0xdf, 0xed, 0x27, 0xdc,
    0xc4, 0xfa, 0xf4, 0x45, 0x16, 0x3b, 0xb1, 0x11, 0x1f, 0x35, 0x2e, 0x0a, 0x60,
    0x2d, 0xed, 0x20, 0xdb, 0x17, 0xf7, 0x01, 0x4b, 0xe8, 0x00, 0x55, 0x47, 0x13,
    0x41, 0x47, 0x01, 0x7f, 0x56, 0xfd, 0x13, 0xbe, 0x30, 0x2d, 0xf4, 0xe2, 0x26,
    0x2c, 0x4a, 0x33, 0x0b, 0xf9, 0x32, 0x27, 0x1e, 0x49, 0x21, 0x2e, 0x1f, 0xfd,
    0x42, 0xfd, 0x51, 0xfa, 0xe7, 0x3b, 0xd5, 0xe5, 0x41, 0x09, 0x09, 0x0f, 0x03,
    0x2e, 0x10, 0xfc, 0xd6, 0x4e, 0x54, 0xe5, 0x13, 0xd8, 0xf3, 0xc8, 0x46, 0x55,
    0x20, 0x05, 0x24, 0xfa, 0xf4, 0x09, 0x27, 0x33, 0x1c, 0xda, 0x9d, 0x05, 0x00,
    0xb6, 0xa4, 0x55, 0xd8, 0x34, 0x24, 0xa6, 0x5a, 0xde, 0x39, 0xd9, 0x4a, 0x05,
    0x86, 0x11, 0xd8, 0x03, 0x88, 0x81, 0x36, 0x99, 0x2f, 0xc7, 0x89, 0x26, 0xa8,
    0xf2, 0xe1, 0xac, 0xbf, 0xfd, 0xcf, 0x95, 0xdc, 0x17, 0xeb, 0xf0, 0x2e, 0x04,
    0x42, 0x16, 0xb9, 0x24, 0x97, 0x18, 0xc7, 0x8c, 0xd1, 0xac, 0x3a, 0x0c, 0xf8,
    0xdd, 0x1d, 0xd4, 0xd1, 0xad, 0x33, 0xf9, 0x27, 0xf4, 0x1a, 0x25, 0x1b, 0x19,
    0xc7, 0x46, 0xcf, 0x2f, 0xb7, 0x9f, 0x3d, 0x20, 0x3f, 0xa8, 0x42, 0x42, 0xb0,
    0x2e, 0xc7, 0x2e, 0x91, 0x81, 0xf8, 0xe9, 0xcf, 0xeb, 0x92, 0x12, 0xef, 0xdb,
    0x12, 0x9e, 0xc0, 0x18, 0xec, 0x86, 0x96, 0x31, 0xc7, 0xf3, 0x40, 0x11, 0x59,
    0xdb, 0xb2, 0x15, 0xac, 0x61, 0x2c, 0x19, 0x92, 0x12, 0xd3, 0xfe, 0x25, 0x81,
    0xf5, 0x88, 0x9b, 0x27, 0xf9, 0x32, 0x4c, 0xb8, 0xab, 0x0f, 0xd5, 0xcd, 0xe0,
    0x8b, 0xe1, 0x0b, 0xe5, 0xfc, 0x16, 0xbe, 0x08, 0x26, 0xec, 0xed, 0xc9, 0x08,
    0xd8, 0x35, 0xbf, 0x0f, 0xb6, 0xfb, 0xf6, 0xcc, 0xde, 0x4b, 0x9d, 0xfe, 0x0b,
    0xd7, 0xc4, 0xea, 0x35, 0x16, 0x2b, 0x24, 0x93, 0x02, 0xc9, 0xa1, 0x31, 0xeb,
    0xc9, 0xd3, 0xec, 0xc6, 0x23, 0xfa, 0x31, 0x4e, 0x1c, 0x76, 0x50, 0x6d, 0x38,
    0xb8, 0xa2, 0x28, 0xf5, 0x00, 0x50, 0x37, 0x45, 0x43, 0xd8, 0x51, 0x1e, 0x28,
    0x63, 0x6a, 0x21, 0x6c, 0x55, 0xe0, 0x76, 0xc1, 0xf6, 0xf7, 0x7f, 0xcb, 0x73,
    0x6b, 0x14, 0x3b, 0x00, 0x74, 0x00, 0x79, 0x27, 0x5c, 0x5a, 0x7a, 0x3b, 0xcf,
    0x0a, 0x02, 0x49, 0x4b, 0x3e, 0xfe, 0xe4, 0x0d, 0x20, 0x2c, 0xd2, 0xd9, 0xd8,
    0xfb, 0x56, 0xf5, 0xca, 0x5d, 0x54, 0x27, 0x08, 0x20, 0x7d, 0x32, 0xd7, 0x18,
    0x1b, 0x56, 0x10, 0xba, 0xd4, 0x06, 0x40, 0xc1, 0x2b, 0x36, 0x7f, 0x0b, 0x10,
    0x24, 0x47, 0x4c, 0x38, 0x22, 0x01, 0xb2, 0x09, 0xbf, 0x55, 0xb8, 0xe7, 0xe4,
    0xdf, 0x44, 0xb9, 0xc0, 0xbe, 0xe6, 0x58, 0xf6, 0x1a, 0xd7, 0xc2, 0x26, 0x63,
    0x08, 0xd0, 0x2f, 0xd6, 0x18, 0x0a, 0xb0, 0x06, 0x56, 0xd4, 0x05, 0x6b, 0x73,
    0xe9, 0xe2, 0x32, 0xf7, 0x38, 0xde, 0xc3, 0x33, 0x61, 0xd9, 0x33, 0x0e, 0xdb,
    0x12, 0xdc, 0x27, 0xf2, 0xaf, 0x0f, 0x3e, 0xbb, 0x28, 0x6d, 0xbe, 0x5f, 0x41,
    0x12, 0x2c, 0x07, 0x1a, 0x09, 0x27, 0x05, 0xdc, 0x1b, 0x03, 0xda, 0x36, 0x5b,
    0x55, 0xc5, 0xf9, 0xba, 0xe4, 0x0b, 0x07, 0x20, 0xc6, 0x0c, 0x81, 0x33, 0xef,
    0xcf, 0xcc, 0xc4, 0x6f, 0x50, 0x1a, 0xe7, 0x31, 0x4d, 0x3e, 0x59, 0x3e, 0xef,
    0x36, 0xa0, 0x81, 0xdd, 0xe3, 0xab, 0xfa, 0x45, 0x42, 0x18, 0xc3, 0x04, 0x35,
    0x93, 0x47, 0x0a, 0xae, 0x39, 0x37, 0x94, 0x8c, 0x06, 0xc5, 0x0b, 0x4b, 0x4c,
    0xeb, 0xf2, 0xaa, 0x1d, 0xea, 0xb6, 0xa5, 0xee, 0xc2, 0xdf, 0x48, 0xf5, 0x05,
    0x0d, 0x35, 0xf0, 0x3a, 0x2c, 0xef, 0xb9, 0xcf, 0x9a, 0x9c, 0x21, 0xb3, 0x09,
    0x04, 0xb6, 0x39, 0xf6, 0x89, 0x91, 0x0b, 0x10, 0xfb, 0x32, 0xea, 0xb2, 0x09,
    0x75, 0x63, 0x7f, 0x01, 0x2c, 0x11, 0x1e, 0x44, 0x19, 0x0b, 0xed, 0x1f, 0x0e,
    0xdd, 0x34, 0x05, 0x41, 0x20, 0x13, 0x63, 0x13, 0x04, 0x41, 0xe6, 0xe6, 0xfb,
    0xe3, 0x0f, 0xd6, 0x1a, 0xe8, 0xe7, 0x44, 0xed, 0x25, 0x2e, 0x5f, 0x05, 0x16,
    0x6e, 0x00, 0x09, 0x09, 0x08, 0x1f, 0x63, 0x25, 0x22, 0xff, 0x64, 0x1e, 0x51,
    0x71, 0xf6, 0xfd, 0x3f, 0xe8, 0x56, 0xdc, 0xf2, 0xff, 0x10, 0x36, 0xea, 0x59,
    0x63, 0x0b, 0x6e, 0xe1, 0xbd, 0x26, 0x4b, 0x03, 0xd0, 0xe4, 0x04, 0x01, 0xe6,
    0xc8, 0x4e, 0x12, 0x05, 0xe4, 0xf6, 0x0a, 0x4c, 0x79, 0x04, 0x15, 0x58, 0xab,
    0x29, 0x53, 0xf0, 0xda, 0x09, 0x4e, 0xd1, 0x42, 0x0d, 0x3a, 0x35, 0x05, 0x4d,
    0xd8, 0x35, 0x3f, 0xf2, 0x27, 0x08, 0x24, 0x31, 0x1e, 0x0d, 0x4e, 0x3a, 0x7f,
    0x2f, 0x34, 0x2c, 0x00, 0x3f, 0xce, 0x5a, 0x56, 0x42, 0x18, 0x10, 0xda, 0xfd,
    0xef, 0xb2, 0x2d, 0xae, 0xbf, 0xe2, 0xce, 0x1e, 0x3e, 0xd4, 0x45, 0xfb, 0x90,
    0x10, 0xaa, 0x20, 0x5b, 0xf8, 0xc8, 0x51, 0xe0, 0x94, 0xc4, 0xbb, 0x29, 0x29,
    0xcd, 0xd3, 0x00, 0x4c, 0x02, 0xda, 0xae, 0xfe, 0x81, 0xe2, 0x11, 0xc2, 0x65,
    0xbd, 0xd4, 0xda, 0x8a, 0xeb, 0x1f, 0xf4, 0xee, 0xdb, 0xbe, 0x16, 0xab, 0xf7,
    0xdd, 0xde, 0x18, 0xde, 0xe5, 0x12, 0x33, 0xff, 0xd1, 0x46, 0x6a, 0xe1, 0x18,
    0x02, 0xdb, 0xec, 0xbf, 0x24, 0xf3, 0xd8, 0x19, 0xe5, 0xf0, 0xdf, 0xfb, 0xd8,
    0x18, 0x09, 0xce, 0xd3, 0xec, 0x2a, 0x0c, 0xf9, 0xdb, 0xf9, 0xd9, 0xcd, 0xd3,
    0x16, 0xe5, 0xcf, 0xea, 0xf4, 0x4a, 0x2a, 0x4e, 0xe4, 0xfb, 0x1d, 0x55, 0x41,
    0xd8, 0x1b, 0xc5, 0x26, 0x56, 0x21, 0xe0, 0xd0, 0xe5, 0x7f, 0x0e, 0x03, 0x15,
    0x1a, 0x33, 0xf3, 0xd8, 0xbc, 0x17, 0xf3, 0x40, 0xf1, 0x64, 0x1e, 0x49, 0x16,
    0x18, 0x5f, 0x17, 0xfc, 0x2c, 0xfc, 0xf9, 0xf9, 0x37, 0x03, 0x59, 0xef, 0x0b,
    0x73, 0x0f, 0x1a, 0x1c, 0x4b, 0x07, 0x43, 0xd1, 0x0e, 0x2b, 0x33, 0x28, 0x25,
    0x04, 0x2a, 0x35, 0xfc, 0x24, 0x51, 0x6e, 0xe9, 0x51, 0x17, 0x02, 0xf1, 0xd9,
    0x5c, 0x49, 0x72, 0x64, 0x59, 0xd3, 0x7f, 0x31, 0x1d, 0x4e, 0x72, 0xe6, 0x14,
    0x2b, 0x0a, 0xf4, 0x16, 0x08, 0xf4, 0x2f, 0x56, 0x4e, 0x34, 0x7f, 0xff, 0x40,
    0xed, 0xdb, 0x07, 0x16, 0x49, 0x1e, 0xe7, 0x3b, 0xfd, 0xdb, 0x34, 0xf9, 0xf6,
    0x10, 0x06, 0xf3, 0x5d, 0x45, 0xe5, 0xdc, 0x13, 0x32, 0x20, 0x03, 0xef, 0x3c,
    0xf8, 0x06, 0x63, 0xf2, 0x06, 0x2d, 0xef, 0x03, 0x34, 0x2b, 0xe7, 0xfd, 0xf4,
    0x52, 0x2c, 0x4d, 0x13, 0xe5, 0x30, 0x52, 0x44, 0x1c, 0x24, 0x48, 0x04, 0x5a,
    0x26, 0x53, 0x05, 0xf7, 0x46, 0x42, 0xf6, 0x19, 0x56, 0xc4, 0x23, 0x03, 0x09,
    0xba, 0x69, 0xd7, 0xac, 0x39, 0x88, 0xbc, 0x34, 0x04, 0xfe, 0xf2, 0x67, 0x71,
    0xc6, 0xee, 0xf4, 0x4d, 0xa0, 0xa9, 0x81, 0x83, 0x05, 0xf9, 0xfb, 0xda, 0xe3,
    0x30, 0xc3, 0x6d, 0xcb, 0xa1, 0x02, 0x05, 0x66, 0x93, 0x93, 0x35, 0xc2, 0x71,
    0xb6, 0xa6, 0xe4, 0xee, 0xb9, 0x94, 0x8a, 0xeb, 0x04, 0x37, 0x27, 0xf9, 0xc5,
    0x93, 0xd4, 0xc0, 0x8e, 0xe1, 0x84, 0xd7, 0xee, 0xe1, 0x06, 0xf5, 0xbe, 0x0f,
    0x32, 0xa4, 0x9c, 0x10, 0xf6, 0x31, 0xe1, 0xea, 0xcb, 0x36, 0x11, 0xac, 0x33,
    0x18, 0x1a, 0xcf, 0x15, 0x06, 0x42, 0xf9, 0xe5, 0x46, 0x98, 0x87, 0xbd, 0xf4,
    0x98, 0xed, 0xb7, 0x99, 0x39, 0x40, 0x30, 0xe3, 0x0f, 0x1f, 0xdc, 0x12, 0x23,
    0xe2, 0xf4, 0x38, 0x81, 0xa0, 0x23, 0x85, 0x9b, 0xee, 0x2b, 0xc1, 0x15, 0xc1,
    0x0c, 0xd5, 0x2f, 0x0a, 0xb8, 0x16, 0x13, 0xeb, 0x05, 0xd0, 0x5a, 0x1a, 0xb4,
    0x1d, 0x04, 0xd9, 0xda, 0xef, 0xbf, 0x22, 0xe0, 0xaf, 0x2e, 0xdb, 0x13, 0xf4,
    0x81, 0x25, 0x20, 0x58, 0x37, 0x25, 0x2f, 0x2d, 0x10, 0x10, 0xd0, 0xbe, 0xdd,
    0xb6, 0x1a, 0x99, 0xc6, 0x0a, 0xa5, 0xb1, 0xc8, 0xb7, 0x47, 0xb2, 0xf6, 0x9c,
    0xee, 0x9a, 0xed, 0xa5, 0x92, 0x1a, 0xe6, 0x0e, 0x37, 0xe0, 0x9a, 0x2c, 0x07,
    0x3d, 0xa6, 0x93, 0xd5, 0xe7, 0xfa, 0x9b, 0x2f, 0xe5, 0x92, 0x30, 0x25, 0xc9,
    0xff, 0x2d, 0x30, 0xa9, 0x1b, 0xbc, 0x22, 0x32, 0xb0, 0x33, 0xf6, 0x2e, 0xb7,
    0x1c, 0xcf, 0x2d, 0x42, 0xf5, 0xbe, 0x06, 0xe7, 0xfb, 0xc2, 0xec, 0xe1, 0x02,
    0xa6, 0x94, 0xee, 0x0e, 0xf5, 0xd9, 0xbc, 0x12, 0xd1, 0x9c, 0xac, 0x8d, 0xca,
    0xf8, 0xb8, 0x35, 0xf4, 0x81, 0xaf, 0x48, 0xb7, 0x09, 0x13, 0x1d, 0x29, 0x2a,
    0x14, 0xf5, 0xc1, 0x0e, 0xfb, 0xff, 0xff, 0x04, 0x00, 0x00, 0x00, 0x80, 0x02,
    0x00, 0x00, 0xdc, 0x28, 0xb7, 0xbe, 0xb5, 0x12, 0x22, 0x3d, 0x47, 0xe6, 0x05,
    0x3f, 0xc5, 0x8d, 0xda, 0xbe, 0xac, 0x9f, 0x63, 0x3e, 0xcf, 0xbc, 0x97, 0xbd,
    0xde, 0xb3, 0xc0, 0xbe, 0x9b, 0x7e, 0x02, 0xbf, 0x46, 0x80, 0x2c, 0xbc, 0x9b,
    0x1f, 0xc0, 0x3d, 0xf5, 0xa4, 0x8e, 0xbe, 0x0e, 0xd2, 0xfa, 0x3e, 0x4e, 0x2f,
    0x0f, 0xbf, 0x8d, 0x04, 0x3a, 0x3e, 0xcc, 0x64, 0x99, 0x3d, 0x20, 0x64, 0xa0,
    0x3c, 0x00, 0xf2, 0x0b, 0x3e, 0xed, 0x5e, 0xbb, 0xbe, 0x90, 0x31, 0xbb, 0x3e,
    0x03, 0x3d, 0xa2, 0x3e, 0xf2, 0x65, 0x93, 0x3e, 0xfa, 0xab, 0x08, 0xbe, 0xa4,
    0x56, 0xbf, 0xbd, 0x48, 0x14, 0xb2, 0x3e, 0xa4, 0xae, 0x78, 0x3e, 0x20, 0x7d,
    0x40, 0x3e, 0xaa, 0xd2, 0x01, 0xbe, 0x1c, 0x9b, 0x24, 0xbf, 0x9e, 0x86, 0x39,
    0xbe, 0xf3, 0xc1, 0xdf, 0x3e, 0x8a, 0x85, 0x17, 0xbc, 0x1a, 0x38, 0x4f, 0x3e,
    0xfd, 0x1f, 0x9d, 0x3d, 0xbd, 0x7e, 0xc1, 0x3e, 0xcd, 0x38, 0x69, 0xbd, 0x9c,
    0xd3, 0xc3, 0xbe, 0x7a, 0x67, 0x12, 0x3e, 0x2c, 0x74, 0xb3, 0xbe, 0x9e, 0xcb,
    0x07, 0xbf, 0x04, 0xcf, 0xb6, 0x3e, 0xe4, 0xe3, 0xd1, 0xbe, 0x68, 0x42, 0x07,
    0xbf, 0x6b, 0x43, 0x39, 0x3e, 0xaa, 0x69, 0xd7, 0xbe, 0xbf, 0x13, 0xb7, 0x3e,
    0xd4, 0x05, 0x61, 0xbd, 0x46, 0x6d, 0x1f, 0xbf, 0xec, 0x46, 0xe5, 0x3e, 0x15,
    0xd9, 0x8a, 0x3e, 0x3d, 0xd0, 0x0c, 0x3f, 0xd9, 0x41, 0x81, 0x3e, 0x8e, 0xbb,
    0x05, 0xbf, 0xb5, 0x05, 0xdd, 0x3e, 0xc6, 0xd4, 0xac, 0xbd, 0x2e, 0xf9, 0xb5,
    0xbe, 0x21, 0x42, 0x01, 0xbf, 0xb4, 0x84, 0x26, 0xbd, 0x64, 0xb0, 0x38, 0xbe,
    0x6f, 0x98, 0xa6, 0x3e, 0x1a, 0x91, 0xe7, 0xbe, 0x9f, 0xb8, 0xc0, 0x3e, 0xb3,
    0xb2, 0x19, 0x3e, 0xf8, 0x54, 0x93, 0x3e, 0xe1, 0x10, 0x0a, 0x3e, 0x32, 0x26,
    0xc0, 0x3e, 0x4f, 0x28, 0xde, 0x3e, 0xc2, 0x91, 0xae, 0x3e, 0xb2, 0xd6, 0xb5,
    0x3e, 0x07, 0x4c, 0x30, 0xbe, 0x64, 0xd9, 0xf2, 0x3e, 0x7e, 0x38, 0xe4, 0xbe,
    0xe7, 0x47, 0xc8, 0xbe, 0xea, 0x8c, 0xf5, 0xbe, 0xac, 0x17, 0x6e, 0x3e, 0x66,
    0x9f, 0x01, 0x3f, 0xcd, 0xe1, 0xf5, 0xbe, 0x84, 0x23, 0x05, 0xbf, 0x70, 0xa5,
    0xa7, 0xbd, 0xb2, 0xda, 0xdc, 0x3c, 0xd7, 0x26, 0xc9, 0xbd, 0x06, 0x47, 0x2d,
    0xbe, 0x11, 0x97, 0x47, 0x3d, 0x3c, 0x19, 0x96, 0xbe, 0xed, 0xb4, 0xcf, 0x3e,
    0xa0, 0xc3, 0x9d, 0x3e, 0xef, 0x4f, 0x2e, 0xbf, 0x58, 0xa1, 0x2c, 0xbf, 0x42,
    0x6c, 0xf5, 0x3d, 0x5d, 0xba, 0x86, 0xbe, 0x7b, 0x92, 0x33, 0xbe, 0xca, 0x4d,
    0xd3, 0xbe, 0xb6, 0x36, 0x8f, 0x3d, 0xea, 0x1a, 0xa6, 0x3e, 0x7f, 0x48, 0x73,
    0xbe, 0x67, 0xa4, 0x5b, 0xbd, 0x1c, 0xb2, 0xba, 0x3e, 0x65, 0x62, 0x14, 0x3e,
    0x7c, 0xc9, 0x53, 0xbe, 0xa2, 0x5c, 0xf5, 0xbc, 0x3a, 0x4e, 0xac, 0x3e, 0xbf,
    0xbc, 0x0a, 0xbf, 0x3c, 0xb8, 0x4f, 0x3e, 0x41, 0x25, 0xf1, 0x3d, 0x95, 0x55,
    0xb1, 0xbe, 0x14, 0xff, 0xe7, 0xbe, 0x85, 0x26, 0x26, 0x3e, 0xcd, 0xe9, 0x91,
    0xbe, 0xb0, 0xa5, 0x65, 0xbe, 0xe0, 0x3b, 0x75, 0x3d, 0xd8, 0x26, 0x8d, 0x3e,
    0x3a, 0x81, 0xcd, 0x3e, 0x58, 0x05, 0x10, 0x3f, 0x55, 0xdc, 0xf2, 0x3e, 0x41,
    0x8d, 0x71, 0xbe, 0x84, 0xf9, 0xd0, 0xbe, 0x64, 0x1c, 0xa7, 0xbe, 0xd5, 0xd5,
    0x07, 0xbf, 0x0e, 0x80, 0x99, 0xbe, 0xc6, 0xae, 0xe9, 0xbe, 0x18, 0x3c, 0x0b,
    0xbf, 0x3d, 0xdc, 0xa6, 0x3e, 0xad, 0xf7, 0xc7, 0xbe, 0xc7, 0xc0, 0x3c, 0x3e,
    0x75, 0x23, 0xbf, 0x3e, 0x86, 0x74, 0x47, 0xbe, 0x0b, 0xae, 0xc9, 0xbe, 0x1e,
    0xa5, 0x9c, 0xbe, 0xb1, 0xdc, 0xf8, 0xbe, 0xec, 0x75, 0x9f, 0xbe, 0xbf, 0xda,
    0xfb, 0xbe, 0x42, 0x09, 0x19, 0xbe, 0x50, 0x84, 0x91, 0x3e, 0x15, 0x7e, 0x78,
    0x3e, 0x07, 0x03, 0x4d, 0x3d, 0xdc, 0xf4, 0xed, 0x3e, 0x94, 0xe2, 0xc6, 0x3e,
    0x59, 0x06, 0xd2, 0x3e, 0x83, 0x81, 0x7a, 0xbe, 0x54, 0x38, 0x44, 0x3e, 0xb4,
    0xa5, 0xe7, 0xbd, 0x09, 0x29, 0x4c, 0x3e, 0x25, 0x53, 0x92, 0xbe, 0x65, 0x57,
    0x72, 0x3e, 0x0a, 0x97, 0x00, 0xbd, 0x6b, 0x7b, 0xc4, 0xbe, 0x2c, 0x46, 0xe3,
    0xbe, 0xab, 0x28, 0x6f, 0x3e, 0x79, 0x3c, 0x14, 0x3e, 0x00, 0xcc, 0x66, 0x3e,
    0xcd, 0x15, 0x01, 0xbf, 0x66, 0xce, 0x58, 0x3e, 0x78, 0xc5, 0xaa, 0x3e, 0x26,
    0xbc, 0x03, 0xbf, 0x89, 0xea, 0x21, 0x3e, 0xee, 0xa1, 0x92, 0x3e, 0xe6, 0x58,
    0x94, 0x3e, 0x42, 0xd8, 0x6f, 0xbd, 0x38, 0xba, 0xb6, 0xbe, 0x72, 0xfb, 0xa9,
    0xbe, 0x1f, 0x4c, 0xde, 0xbe, 0x9a, 0xfd, 0xff, 0xff, 0x04, 0x00, 0x00, 0x00,
    0x14, 0x00, 0x00, 0x00, 0xa5, 0x60, 0x28, 0xbd, 0xb9, 0x84, 0xa1, 0x3d, 0x75,
    0x40, 0xfe, 0x3c, 0x19, 0x8e, 0x90, 0x3d, 0x62, 0x0a, 0xd1, 0xbd, 0xba, 0xfd,
    0xff, 0xff, 0x04, 0x00, 0x00, 0x00, 0x80, 0x00, 0x00, 0x00, 0x54, 0x84, 0xc1,
    0x3d, 0x38, 0x15, 0x33, 0x3e, 0x5a, 0x07, 0x87, 0x3d, 0x7b, 0x7b, 0x47, 0x3d,
    0xb7, 0x8d, 0x47, 0x3d, 0xe7, 0x9c, 0x17, 0x3d, 0x9c, 0xfc, 0xc3, 0xbc, 0xf1,
    0x89, 0x37, 0x3c, 0x37, 0x12, 0x78, 0xbd, 0xfc, 0x52, 0xe9, 0x3d, 0x46, 0x46,
    0x2e, 0x3d, 0x65, 0xb2, 0xdd, 0xba, 0x80, 0xd1, 0xaa, 0x3d, 0xb2, 0x18, 0x70,
    0x3d, 0xb0, 0x3b, 0xfb, 0xbb, 0xed, 0xa1, 0x9d, 0x3d, 0xaf, 0x34, 0x31, 0x3d,
    0x4b, 0xa5, 0xcc, 0xb9, 0xfa, 0xaf, 0x39, 0x3d, 0x58, 0x15, 0x16, 0x3d, 0xba,
    0x4d, 0xac, 0x3d, 0xb6, 0x43, 0xf5, 0x3d, 0x25, 0x01, 0x75, 0xbd, 0x9e, 0x80,
    0x08, 0x3d, 0x8c, 0x4e, 0xf2, 0xbc, 0x00, 0x26, 0x1f, 0xbb, 0x25, 0x71, 0x00,
    0x3d, 0x5d, 0x46, 0x8a, 0x3d, 0x9e, 0xf7, 0x03, 0xbc, 0x6a, 0x43, 0xa0, 0x3c,
    0x59, 0xa9, 0xcb, 0x3b, 0x1e, 0xb9, 0x7e, 0x3d, 0x46, 0xfe, 0xff, 0xff, 0x04,
    0x00, 0x00, 0x00, 0x00, 0x01, 0x00, 0x00, 0x7b, 0x3f, 0xa5, 0x3d, 0x15, 0xce,
    0x0d, 0x3e, 0xf6, 0x48, 0x6a, 0x3c, 0xfd, 0x45, 0xab, 0xbc, 0x56, 0x84, 0x54,
    0xbc, 0x0e, 0xba, 0x38, 0x3d, 0x11, 0x7a, 0x31, 0x3d, 0x8b, 0xf5, 0xae, 0x3d,
    0x7d, 0x67, 0xb2, 0x3c, 0x6c, 0xb0, 0xb2, 0xbc, 0xe4, 0x59, 0x99, 0xbd, 0xcd,
    0xaf, 0x34, 0x3d, 0xd4, 0x66, 0xca, 0xbb, 0xef, 0xe6, 0x4c, 0x3d, 0x4d, 0xaf,
    0xdc, 0x3d, 0x1f, 0x66, 0xca, 0x3c, 0x7f, 0x91, 0x0b, 0x3e, 0x3e, 0xeb, 0x9a,
    0x3d, 0x9b, 0x3a, 0x0f, 0xbd, 0x58, 0x50, 0x0d, 0x3c, 0xc8, 0xaa, 0x9b, 0x3d,
    0x66, 0xcc, 0x28, 0x3d, 0x58, 0x3a, 0x9f, 0x3d, 0x6b, 0x31, 0x66, 0x3d, 0xcf,
    0x19, 0x14, 0xbc, 0xb4, 0x62, 0x28, 0x3d, 0x35, 0x23, 0x7e, 0x3a, 0x42, 0xc6,
    0x73, 0x3c, 0x68, 0xa2, 0x85, 0x3d, 0x90, 0x90, 0xef, 0x3c, 0x4f, 0x51, 0xa6,
    0x3d, 0x99, 0xb6, 0x67, 0x3d, 0x13, 0x3d, 0x83, 0x3d, 0xf7, 0x5e, 0xd7, 0xbc,
    0x54, 0x8b, 0x9f, 0x3d, 0x91, 0x5d, 0xd2, 0x3c, 0x7a, 0x28, 0xfd, 0x3d, 0xed,
    0x24, 0xcd, 0x3b, 0x8a, 0x07, 0x8d, 0xbd, 0xd8, 0x78, 0x00, 0x3e, 0x08, 0xad,
    0xd4, 0xbb, 0x5b, 0x2d, 0xcb, 0x3c, 0x46, 0xde, 0x6d, 0x3d, 0xd4, 0xcb, 0x86,
    0x3c, 0xdd, 0x3c, 0xb0, 0x3d, 0xe2, 0xb8, 0x43, 0x3d, 0xa3, 0x98, 0x33, 0x3e,
    0x1f, 0x12, 0x8d, 0x3d, 0x82, 0x1e, 0xa2, 0xbd, 0x59, 0x09, 0x9b, 0x3d, 0x49,
    0x1b, 0x0d, 0x3c, 0x95, 0xc2, 0xf4, 0x3d, 0xc2, 0x2b, 0x01, 0x3e, 0x3e, 0x3f,
    0x84, 0x3d, 0xfe, 0x86, 0xa6, 0x3c, 0x9f, 0x3d, 0x3b, 0x3c, 0x11, 0x50, 0x46,
    0x3d, 0x15, 0x68, 0x75, 0x3d, 0xe8, 0x2b, 0x02, 0x3d, 0x29, 0x6d, 0xf6, 0xbc,
    0x45, 0xf9, 0x2c, 0xbd, 0x7c, 0xe2, 0x1f, 0x3d, 0x6c, 0x82, 0x64, 0x3d, 0xd5,
    0x06, 0x89, 0xbc, 0x52, 0xff, 0xff, 0xff, 0x04, 0x00, 0x00, 0x00, 0x08, 0x00,
    0x00, 0x00, 0xff, 0xff, 0xff, 0xff, 0x3c, 0x00, 0x00, 0x00, 0xfc, 0xf4, 0xff,
    0xff, 0x00, 0xf5, 0xff, 0xff, 0x0f, 0x00, 0x00, 0x00, 0x4d, 0x4c, 0x49, 0x52,
    0x20, 0x43, 0x6f, 0x6e, 0x76, 0x65, 0x72, 0x74, 0x65, 0x64, 0x2e, 0x00, 0x01,
    0x00, 0x00, 0x00, 0x14, 0x00, 0x00, 0x00, 0x00, 0x00, 0x0e, 0x00, 0x18, 0x00,
    0x14, 0x00, 0x10, 0x00, 0x0c, 0x00, 0x08, 0x00, 0x04, 0x00, 0x0e, 0x00, 0x00,
    0x00, 0x14, 0x00, 0x00, 0x00, 0x1c, 0x00, 0x00, 0x00, 0x64, 0x01, 0x00, 0x00,
    0x68, 0x01, 0x00, 0x00, 0x6c, 0x01, 0x00, 0x00, 0x04, 0x00, 0x00, 0x00, 0x6d,
    0x61, 0x69, 0x6e, 0x00, 0x00, 0x00, 0x00, 0x05, 0x00, 0x00, 0x00, 0x28, 0x01,
    0x00, 0x00, 0xd4, 0x00, 0x00, 0x00, 0x88, 0x00, 0x00, 0x00, 0x50, 0x00, 0x00,
    0x00, 0x14, 0x00, 0x00, 0x00, 0x00, 0x00, 0x0e, 0x00, 0x1a, 0x00, 0x14, 0x00,
    0x10, 0x00, 0x0c, 0x00, 0x0b, 0x00, 0x04, 0x00, 0x0e, 0x00, 0x00, 0x00, 0x1c,
    0x00, 0x00, 0x00, 0x00, 0x00, 0x00, 0x09, 0x1c, 0x00, 0x00, 0x00, 0x20, 0x00,
    0x00, 0x00, 0x02, 0x00, 0x00, 0x00, 0x00, 0x00, 0x06, 0x00, 0x08, 0x00, 0x04,
    0x00, 0x06, 0x00, 0x00, 0x00, 0x00, 0x00, 0x80, 0x3f, 0x01, 0x00, 0x00, 0x00,
    0x0c, 0x00, 0x00, 0x00, 0x01, 0x00, 0x00, 0x00, 0x0b, 0x00, 0x00, 0x00, 0x92,
    0xff, 0xff, 0xff, 0x14, 0x00, 0x00, 0x00, 0x00, 0x00, 0x00, 0x08, 0x10, 0x00,
    0x00, 0x00, 0x14, 0x00, 0x00, 0x00, 0x01, 0x00, 0x00, 0x00, 0xcc, 0xf5, 0xff,
    0xff, 0x01, 0x00, 0x00, 0x00, 0x0b, 0x00, 0x00, 0x00, 0x03, 0x00, 0x00, 0x00,
    0x0a, 0x00, 0x00, 0x00, 0x05, 0x00, 0x00, 0x00, 0x04, 0x00, 0x00, 0x00, 0xc6,
    0xff, 0xff, 0xff, 0x14, 0x00, 0x00, 0x00, 0x00, 0x00, 0x00, 0x08, 0x14, 0x00,
    0x00, 0x00, 0x18, 0x00, 0x00, 0x00, 0x01, 0x00, 0x00, 0x00, 0xb8, 0xff, 0xff,
    0xff, 0x00, 0x00, 0x01, 0x01, 0x01, 0x00, 0x00, 0x00, 0x0a, 0x00, 0x00, 0x00,
    0x03, 0x00, 0x00, 0x00, 0x09, 0x00, 0x00, 0x00, 0x06, 0x00, 0x00, 0x00, 0x03,
    0x00, 0x00, 0x00, 0x00, 0x00, 0x0e, 0x00, 0x18, 0x00, 0x14, 0x00, 0x10, 0x00,
    0x0c, 0x00, 0x0b, 0x00, 0x04, 0x00, 0x0e, 0x00, 0x00, 0x00, 0x20, 0x00, 0x00,
    0x00, 0x00, 0x00, 0x00, 0x08, 0x20, 0x00, 0x00, 0x00, 0x24, 0x00, 0x00, 0x00,
    0x01, 0x00, 0x00, 0x00, 0x0c, 0x00, 0x08, 0x00, 0x07, 0x00, 0x00, 0x00, 0x00,
    0x00, 0x06, 0x00, 0x0c, 0x00, 0x00, 0x00, 0x00, 0x00, 0x01, 0x01, 0x01, 0x00,
    0x00, 0x00, 0x09, 0x00, 0x00, 0x00, 0x03, 0x00, 0x00, 0x00, 0x08, 0x00, 0x00,
    0x00, 0x07, 0x00, 0x00, 0x00, 0x02, 0x00, 0x00, 0x00, 0x00, 0x00, 0x0a, 0x00,
    0x0c, 0x00, 0x00, 0x00, 0x08, 0x00, 0x04, 0x00, 0x0a, 0x00, 0x00, 0x00, 0x08,
    0x00, 0x00, 0x00, 0x0c, 0x00, 0x00, 0x00, 0x01, 0x00, 0x00, 0x00, 0x08, 0x00,
    0x00, 0x00, 0x02, 0x00, 0x00, 0x00, 0x00, 0x00, 0x00, 0x00, 0x01, 0x00, 0x00,
    0x00, 0x01, 0x00, 0x00, 0x00, 0x0c, 0x00, 0x00, 0x00, 0x01, 0x00, 0x00, 0x00,
    0x00, 0x00, 0x00, 0x00, 0x0d, 0x00, 0x00, 0x00, 0x20, 0x09, 0x00, 0x00, 0xc8,
    0x08, 0x00, 0x00, 0x74, 0x08, 0x00, 0x00, 0x20, 0x08, 0x00, 0x00, 0xe4, 0x07,
    0x00, 0x00, 0xa4, 0x07, 0x00, 0x00, 0xbc, 0x05, 0x00, 0x00, 0x64, 0x02, 0x00,
    0x00, 0x04, 0x02, 0x00, 0x00, 0x70, 0x01, 0x00, 0x00, 0xdc, 0x00, 0x00, 0x00,
    0x60, 0x00, 0x00, 0x00, 0x04, 0x00, 0x00, 0x00, 0x2a, 0xf7, 0xff, 0xff, 0x00,
    0x00, 0x00, 0x01, 0x14, 0x00, 0x00, 0x00, 0x1c, 0x00, 0x00, 0x00, 0x1c, 0x00,
    0x00, 0x00, 0x0d, 0x00, 0x00, 0x00, 0x34, 0x00, 0x00, 0x00, 0x02, 0x00, 0x00,
    0x00, 0xff, 0xff, 0xff, 0xff, 0x05, 0x00, 0x00, 0x00, 0x10, 0xf7, 0xff, 0xff,
    0x19, 0x00, 0x00, 0x00, 0x53, 0x74, 0x61, 0x74, 0x65, 0x66, 0x75, 0x6c, 0x50,
    0x61, 0x72, 0x74, 0x69, 0x74, 0x69, 0x6f, 0x6e, 0x65, 0x64, 0x43, 0x61, 0x6c,
    0x6c, 0x3a, 0x30, 0x00, 0x00, 0x00, 0x02, 0x00, 0x00, 0x00, 0x01, 0x00, 0x00,
    0x00, 0x05, 0x00, 0x00, 0x00, 0x82, 0xf7, 0xff, 0xff, 0x00, 0x00, 0x00, 0x01,
    0x14, 0x00, 0x00, 0x00, 0x1c, 0x00, 0x00, 0x00, 0x1c, 0x00, 0x00, 0x00, 0x0c,
    0x00, 0x00, 0x00, 0x54, 0x00, 0x00, 0x00, 0x02, 0x00, 0x00, 0x00, 0xff, 0xff,
    0xff, 0xff, 0x05, 0x00, 0x00, 0x00, 0x68, 0xf7, 0xff, 0xff, 0x38, 0x00, 0x00,
    0x00, 0x73, 0x65, 0x71, 0x75, 0x65, 0x6e, 0x74, 0x69, 0x61, 0x6c, 0x5f, 0x32,
    0x2f, 0x64, 0x65, 0x6e, 0x73, 0x65, 0x5f, 0x38, 0x2f, 0x4d, 0x61, 0x74, 0x4d,
    0x75, 0x6c, 0x3b, 0x73, 0x65, 0x71, 0x75, 0x65, 0x6e, 0x74, 0x69, 0x61, 0x6c,
    0x5f, 0x32, 0x2f, 0x64, 0x65, 0x6e, 0x73, 0x65, 0x5f, 0x38, 0x2f, 0x42, 0x69,
    0x61, 0x73, 0x41, 0x64, 0x64, 0x00, 0x00, 0x00, 0x00, 0x02, 0x00, 0x00, 0x00,
    0x01, 0x00, 0x00, 0x00, 0x05, 0x00, 0x00, 0x00, 0xfa, 0xf7, 0xff, 0xff, 0x00,
    0x00, 0x00, 0x01, 0x14, 0x00, 0x00, 0x00, 0x1c, 0x00, 0x00, 0x00, 0x1c, 0x00,
    0x00, 0x00, 0x0b, 0x00, 0x00, 0x00, 0x6c, 0x00, 0x00, 0x00, 0x02, 0x00, 0x00,
    0x00, 0xff, 0xff, 0xff, 0xff, 0x20, 0x00, 0x00, 0x00, 0xe0, 0xf7, 0xff, 0xff,
    0x52, 0x00, 0x00, 0x00, 0x73, 0x65, 0x71, 0x75, 0x65, 0x6e, 0x74, 0x69, 0x61,
    0x6c, 0x5f, 0x32, 0x2f, 0x64, 0x65, 0x6e, 0x73, 0x65, 0x5f, 0x37, 0x2f, 0x4d,
    0x61, 0x74, 0x4d, 0x75, 0x6c, 0x3b, 0x73, 0x65, 0x71, 0x75, 0x65, 0x6e, 0x74,
    0x69, 0x61, 0x6c, 0x5f, 0x32, 0x2f, 0x64, 0x65, 0x6e, 0x73, 0x65, 0x5f, 0x37,
    0x2f, 0x52, 0x65, 0x6c, 0x75, 0x3b, 0x73, 0x65, 0x71, 0x75, 0x65, 0x6e, 0x74,
    0x69, 0x61, 0x6c, 0x5f, 0x32, 0x2f, 0x64, 0x65, 0x6e, 0x73, 0x65, 0x5f, 0x37,
    0x2f, 0x42, 0x69, 0x61, 0x73, 0x41, 0x64, 0x64, 0x00, 0x00, 0x02, 0x00, 0x00,
    0x00, 0x01, 0x00, 0x00, 0x00, 0x20, 0x00, 0x00, 0x00, 0x8a, 0xf8, 0xff, 0xff,
    0x00, 0x00, 0x00, 0x01, 0x14, 0x00, 0x00, 0x00, 0x1c, 0x00, 0x00, 0x00, 0x1c,
    0x00, 0x00, 0x00, 0x0a, 0x00, 0x00, 0x00, 0x6c, 0x00, 0x00, 0x00, 0x02, 0x00,
    0x00, 0x00, 0xff, 0xff, 0xff, 0xff, 0x40, 0x00, 0x00, 0x00, 0x70, 0xf8, 0xff,
    0xff, 0x52, 0x00, 0x00, 0x00, 0x73, 0x65, 0x71, 0x75, 0x65, 0x6e, 0x74, 0x69,
    0x61, 0x6c, 0x5f, 0x32, 0x2f, 0x64, 0x65, 0x6e, 0x73, 0x65, 0x5f, 0x36, 0x2f,
    0x4d, 0x61, 0x74, 0x4d, 0x75, 0x6c, 0x3b, 0x73, 0x65, 0x71, 0x75, 0x65, 0x6e,
    0x74, 0x69, 0x61, 0x6c, 0x5f, 0x32, 0x2f, 0x64, 0x65, 0x6e, 0x73, 0x65, 0x5f,
    0x36, 0x2f, 0x52, 0x65, 0x6c, 0x75, 0x3b, 0x73, 0x65, 0x71, 0x75, 0x65, 0x6e,
    0x74, 0x69, 0x61, 0x6c, 0x5f, 0x32, 0x2f, 0x64, 0x65, 0x6e, 0x73, 0x65, 0x5f,
    0x36, 0x2f, 0x42, 0x69, 0x61, 0x73, 0x41, 0x64, 0x64, 0x00, 0x00, 0x02, 0x00,
    0x00, 0x00, 0x01, 0x00, 0x00, 0x00, 0x40, 0x00, 0x00, 0x00, 0x1a, 0xf9, 0xff,
    0xff, 0x00, 0x00, 0x00, 0x01, 0x14, 0x00, 0x00, 0x00, 0x1c, 0x00, 0x00, 0x00,
    0x1c, 0x00, 0x00, 0x00, 0x09, 0x00, 0x00, 0x00, 0x38, 0x00, 0x00, 0x00, 0x02,
    0x00, 0x00, 0x00, 0xff, 0xff, 0xff, 0xff, 0x3c, 0x00, 0x00, 0x00, 0x00, 0xf9,
    0xff, 0xff, 0x1e, 0x00, 0x00, 0x00, 0x73, 0x65, 0x71, 0x75, 0x65, 0x6e, 0x74,
    0x69, 0x61, 0x6c, 0x5f, 0x32, 0x2f, 0x66, 0x6c, 0x61, 0x74, 0x74, 0x65, 0x6e,
    0x5f, 0x32, 0x2f, 0x52, 0x65, 0x73, 0x68, 0x61, 0x70, 0x65, 0x00, 0x00, 0x02,
    0x00, 0x00, 0x00, 0x01, 0x00, 0x00, 0x00, 0x3c, 0x00, 0x00, 0x00, 0xca, 0xf9,
    0xff, 0xff, 0x00, 0x00, 0x00, 0x01, 0x14, 0x00, 0x00, 0x00, 0x24, 0x03, 0x00,
    0x00, 0x08, 0x00, 0x00, 0x00, 0x00, 0x00, 0x00, 0x09, 0x30, 0x03, 0x00, 0x00,
    0xac, 0xfc, 0xff, 0xff, 0x08, 0x00, 0x00, 0x00, 0x08, 0x02, 0x00, 0x00, 0x40,
    0x00, 0x00, 0x00, 0x00, 0x00, 0x00, 0x00, 0x00, 0x00, 0x00, 0x00, 0x00, 0x00,
    0x00, 0x00, 0x00, 0x00, 0x00, 0x00, 0x00, 0x00, 0x00, 0x00, 0x00, 0x00, 0x00,
    0x00, 0x00, 0x00, 0x00, 0x00, 0x00, 0x00, 0x00, 0x00, 0x00, 0x00, 0x00, 0x00,
    0x00, 0x00, 0x00, 0x00, 0x00, 0x00, 0x00, 0x00, 0x00, 0x00, 0x00, 0x00, 0x00,
    0x00, 0x00, 0x00, 0x00, 0x00, 0x00, 0x00, 0x00, 0x00, 0x00, 0x00, 0x00, 0x00,
    0x00, 0x00, 0x00, 0x00, 0x00, 0x00, 0x00, 0x00, 0x00, 0x00, 0x00, 0x00, 0x00,
    0x00, 0x00, 0x00, 0x00, 0x00, 0x00, 0x00, 0x00, 0x00, 0x00, 0x00, 0x00, 0x00,
    0x00, 0x00, 0x00, 0x00, 0x00, 0x00, 0x00, 0x00, 0x00, 0x00, 0x00, 0x00, 0x00,
    0x00, 0x00, 0x00, 0x00, 0x00, 0x00, 0x00, 0x00, 0x00, 0x00, 0x00, 0x00, 0x00,
    0x00, 0x00, 0x00, 0x00, 0x00, 0x00, 0x00, 0x00, 0x00, 0x00, 0x00, 0x00, 0x00,
    0x00, 0x00, 0x00, 0x00, 0x00, 0x00, 0x00, 0x00, 0x00, 0x00, 0x00, 0x00, 0x00,
    0x00, 0x00, 0x00, 0x00, 0x00, 0x00, 0x00, 0x00, 0x00, 0x00, 0x00, 0x00, 0x00,
    0x00, 0x00, 0x00, 0x00, 0x00, 0x00, 0x00, 0x00, 0x00, 0x00, 0x00, 0x00, 0x00,
    0x00, 0x00, 0x00, 0x00, 0x00, 0x00, 0x00, 0x00, 0x00, 0x00, 0x00, 0x00, 0x00,
    0x00, 0x00, 0x00, 0x00, 0x00, 0x00, 0x00, 0x00, 0x00, 0x00, 0x00, 0x00, 0x00,
    0x00, 0x00, 0x00, 0x00, 0x00, 0x00, 0x00, 0x00, 0x00, 0x00, 0x00, 0x00, 0x00,
    0x00, 0x00, 0x00, 0x00, 0x00, 0x00, 0x00, 0x00, 0x00, 0x00, 0x00, 0x00, 0x00,
    0x00, 0x00, 0x00, 0x00, 0x00, 0x00, 0x00, 0x00, 0x00, 0x00, 0x00, 0x00, 0x00,
    0x00, 0x00, 0x00, 0x00, 0x00, 0x00, 0x00, 0x00, 0x00, 0x00, 0x00, 0x00, 0x00,
    0x00, 0x00, 0x00, 0x00, 0x00, 0x00, 0x00, 0x00, 0x00, 0x00, 0x00, 0x00, 0x00,
    0x00, 0x00, 0x00, 0x00, 0x00, 0x00, 0x00, 0x00, 0x00, 0x00, 0x00, 0x00, 0x00,
    0x00, 0x00, 0x00, 0x00, 0x00, 0x00, 0x00, 0x00, 0x00, 0x00, 0x00, 0x00, 0x00,
    0x00, 0x00, 0x00, 0x00, 0x00, 0x00, 0x00, 0x00, 0x00, 0x00, 0x00, 0x00, 0x00,
    0x00, 0x00, 0x00, 0x00, 0x00, 0x00, 0x00, 0x00, 0x00, 0x00, 0x00, 0x00, 0x00,
    0x00, 0x00, 0x00, 0x00, 0x00, 0x00, 0x00, 0x00, 0x00, 0x00, 0x00, 0x00, 0x00,
    0x00, 0x00, 0x00, 0x00, 0x00, 0x00, 0x00, 0x00, 0x00, 0x00, 0x00, 0x00, 0x00,
    0x00, 0x00, 0x00, 0x00, 0x00, 0x00, 0x00, 0x00, 0x00, 0x00, 0x00, 0x00, 0x00,
    0x00, 0x00, 0x00, 0x00, 0x00, 0x00, 0x00, 0x00, 0x00, 0x00, 0x00, 0x00, 0x00,
    0x00, 0x00, 0x00, 0x00, 0x00, 0x00, 0x00, 0x00, 0x00, 0x00, 0x00, 0x00, 0x00,
    0x00, 0x00, 0x00, 0x00, 0x00, 0x00, 0x00, 0x00, 0x00, 0x00, 0x00, 0x00, 0x00,
    0x00, 0x00, 0x00, 0x00, 0x00, 0x00, 0x00, 0x00, 0x00, 0x00, 0x00, 0x00, 0x00,
    0x00, 0x00, 0x00, 0x00, 0x00, 0x00, 0x00, 0x00, 0x00, 0x00, 0x00, 0x00, 0x00,
    0x00, 0x00, 0x00, 0x00, 0x00, 0x00, 0x00, 0x00, 0x00, 0x00, 0x00, 0x00, 0x00,
    0x00, 0x00, 0x00, 0x00, 0x00, 0x00, 0x00, 0x00, 0x00, 0x00, 0x00, 0x00, 0x00,
    0x00, 0x00, 0x00, 0x00, 0x00, 0x00, 0x00, 0x00, 0x00, 0x00, 0x00, 0x00, 0x00,
    0x00, 0x00, 0x00, 0x00, 0x00, 0x00, 0x00, 0x00, 0x00, 0x00, 0x00, 0x00, 0x00,
    0x00, 0x00, 0x00, 0x00, 0x00, 0x00, 0x00, 0x00, 0x00, 0x00, 0x00, 0x00, 0x00,
    0x00, 0x00, 0x00, 0x00, 0x00, 0x00, 0x00, 0x00, 0x00, 0x00, 0x00, 0x00, 0x00,
    0x00, 0x00, 0x00, 0x00, 0x00, 0x00, 0x00, 0x00, 0x00, 0x00, 0x00, 0x00, 0x00,
    0x00, 0x00, 0x00, 0x00, 0x00, 0x00, 0x00, 0x00, 0x40, 0x00, 0x00, 0x00, 0xc5,
    0xaf, 0x2f, 0x3b, 0xfb, 0x15, 0x35, 0x3b, 0x64, 0xc6, 0x7b, 0x3b, 0xb2, 0x8e,
    0x1e, 0x3b, 0x1d, 0x03, 0x55, 0x3b, 0x32, 0xc1, 0x35, 0x3b, 0xd4, 0xa5, 0x10,
    0x3b, 0x5b, 0xe7, 0x39, 0x3b, 0x65, 0x6f, 0x2a, 0x3b, 0x62, 0xf1, 0x23, 0x3b,
    0xdb, 0x96, 0xf9, 0x3a, 0xd8, 0x02, 0x14, 0x3b, 0xf6, 0x87, 0x26, 0x3b, 0x28,
    0x7a, 0x13, 0x3b, 0x01, 0x56, 0x3f, 0x3b, 0x3e, 0x04, 0x37, 0x3b, 0x17, 0x33,
    0x4b, 0x3b, 0xa2, 0x9b, 0x24, 0x3b, 0x21, 0x48, 0x2f, 0x3b, 0x32, 0x98, 0x25,
    0x3b, 0x88, 0x92, 0x1f, 0x3b, 0x90, 0x02, 0x2d, 0x3b, 0xb8, 0x3d, 0x4c, 0x3b,
    0x21, 0xb3, 0x2c, 0x3b, 0x24, 0xf1, 0x0b, 0x3b, 0xd7, 0x31, 0x1e, 0x3b, 0x54,
    0xb2, 0x1d, 0x3b, 0x77, 0x2e, 0x0a, 0x3b, 0xc3, 0xe1, 0x26, 0x3b, 0x98, 0xc4,
    0x27, 0x3b, 0x73, 0x37, 0x24, 0x3b, 0x75, 0xf3, 0x22, 0x3b, 0x67, 0xc7, 0x2c,
    0x3b, 0xf1, 0x93, 0x16, 0x3b, 0xf4, 0x8c, 0x3e, 0x3b, 0x9e, 0xee, 0x30, 0x3b,
    0x3b, 0x2c, 0x6d, 0x3b, 0xaa, 0xb7, 0x28, 0x3b, 0xac, 0xc2, 0x51, 0x3b, 0x62,
    0x84, 0x48, 0x3b, 0x84, 0xc1, 0x38, 0x3b, 0xa6, 0x13, 0x39, 0x3b, 0xb0, 0x35,
    0x31, 0x3b, 0x1d, 0x0c, 0x52, 0x3b, 0x54, 0x12, 0x30, 0x3b, 0x63, 0x8f, 0x40,
    0x3b, 0x9a, 0x52, 0x48, 0x3b, 0x29, 0x56, 0x4b, 0x3b, 0xef, 0xef, 0x39, 0x3b,
    0x82, 0xd6, 0x38, 0x3b, 0xaf, 0xbe, 0x2f, 0x3b, 0x68, 0x56, 0x4a, 0x3b, 0xe3,
    0x91, 0x2b, 0x3b, 0x1f, 0xa2, 0x4d, 0x3b, 0x89, 0xad, 0x0c, 0x3b, 0xae, 0xd2,
    0x17, 0x3b, 0xad, 0x44, 0x2c, 0x3b, 0x01, 0x8e, 0x3e, 0x3b, 0x89, 0xea, 0x25,
    0x3b, 0xcf, 0xd0, 0x0d, 0x3b, 0x33, 0xf9, 0x2f, 0x3b, 0xcc, 0xed, 0x0a, 0x3b,
    0xa1, 0xe7, 0x20, 0x3b, 0x73, 0xbb, 0x30, 0x3b, 0x12, 0x00, 0x00, 0x00, 0x74,
    0x66, 0x6c, 0x2e, 0x70, 0x73, 0x65, 0x75, 0x64, 0x6f, 0x5f, 0x71, 0x63, 0x6f,
    0x6e, 0x73, 0x74, 0x31, 0x00, 0x00, 0x02, 0x00, 0x00, 0x00, 0x40, 0x00, 0x00,
    0x00, 0x3c, 0x00, 0x00, 0x00, 0x1e, 0xfd, 0xff, 0xff, 0x00, 0x00, 0x00, 0x01,
    0x20, 0x00, 0x00, 0x00, 0xb4, 0x01, 0x00, 0x00, 0x07, 0x00, 0x00, 0x00, 0x00,
    0x00, 0x00, 0x09, 0xc0, 0x01, 0x00, 0x00, 0x0c, 0x00, 0x0c, 0x00, 0x00, 0x00,
    0x00, 0x00, 0x08, 0x00, 0x04, 0x00, 0x0c, 0x00, 0x00, 0x00, 0x08, 0x00, 0x00,
    0x00, 0x0c, 0x01, 0x00, 0x00, 0x20, 0x00, 0x00, 0x00, 0x00, 0x00, 0x00, 0x00,
    0x00, 0x00, 0x00, 0x00, 0x00, 0x00, 0x00, 0x00, 0x00, 0x00, 0x00, 0x00, 0x00,
    0x00, 0x00, 0x00, 0x00, 0x00, 0x00, 0x00, 0x00, 0x00, 0x00, 0x00, 0x00, 0x00,
    0x00, 0x00, 0x00, 0x00, 0x00, 0x00, 0x00, 0x00, 0x00, 0x00, 0x00, 0x00, 0x00,
    0x00, 0x00, 0x00, 0x00, 0x00, 0x00, 0x00, 0x00, 0x00, 0x00, 0x00, 0x00, 0x00,
    0x00, 0x00, 0x00, 0x00, 0x00, 0x00, 0x00, 0x00, 0x00, 0x00, 0x00, 0x00, 0x00,
    0x00, 0x00, 0x00, 0x00, 0x00, 0x00, 0x00, 0x00, 0x00, 0x00, 0x00, 0x00, 0x00,
    0x00, 0x00, 0x00, 0x00, 0x00, 0x00, 0x00, 0x00, 0x00, 0x00, 0x00, 0x00, 0x00,
    0x00, 0x00, 0x00, 0x00, 0x00, 0x00, 0x00, 0x00, 0x00, 0x00, 0x00, 0x00, 0x00,
    0x00, 0x00, 0x00, 0x00, 0x00, 0x00, 0x00, 0x00, 0x00, 0x00, 0x00, 0x00, 0x00,
    0x00, 0x00, 0x00, 0x00, 0x00, 0x00, 0x00, 0x00, 0x00, 0x00, 0x00, 0x00, 0x00,
    0x00, 0x00, 0x00, 0x00, 0x00, 0x00, 0x00, 0x00, 0x00, 0x00, 0x00, 0x00, 0x00,
    0x00, 0x00, 0x00, 0x00, 0x00, 0x00, 0x00, 0x00, 0x00, 0x00, 0x00, 0x00, 0x00,
    0x00, 0x00, 0x00, 0x00, 0x00, 0x00, 0x00, 0x00, 0x00, 0x00, 0x00, 0x00, 0x00,
    0x00, 0x00, 0x00, 0x00, 0x00, 0x00, 0x00, 0x00, 0x00, 0x00, 0x00, 0x00, 0x00,
    0x00, 0x00, 0x00, 0x00, 0x00, 0x00, 0x00, 0x00, 0x00, 0x00, 0x00, 0x00, 0x00,
    0x00, 0x00, 0x00, 0x00, 0x00, 0x00, 0x00, 0x00, 0x00, 0x00, 0x00, 0x00, 0x00,
    0x00, 0x00, 0x00, 0x00, 0x00, 0x00, 0x00, 0x00, 0x00, 0x00, 0x00, 0x00, 0x00,
    0x00, 0x00, 0x00, 0x00, 0x00, 0x00, 0x00, 0x00, 0x00, 0x00, 0x00, 0x00, 0x00,
    0x00, 0x00, 0x00, 0x00, 0x00, 0x00, 0x00, 0x00, 0x00, 0x00, 0x00, 0x00, 0x00,
    0x00, 0x00, 0x00, 0x00, 0x00, 0x00, 0x00, 0x00, 0x00, 0x20, 0x00, 0x00, 0x00,
    0x5f, 0x09, 0x89, 0x3b, 0xe2, 0x85, 0x8f, 0x3b, 0x5e, 0xe1, 0x41, 0x3b, 0x49,
    0x13, 0x67, 0x3b, 0x6b, 0x61, 0x74, 0x3b, 0xf9, 0xb2, 0x79, 0x3b, 0xf8, 0x81,
    0x69, 0x3b, 0x75, 0x70, 0x67, 0x3b, 0x29, 0xe3, 0x67, 0x3b, 0x59, 0x72, 0x9d,
    0x3b, 0x81, 0x38, 0x45, 0x3b, 0x05, 0xd8, 0x5e, 0x3b, 0x95, 0x32, 0x7f, 0x3b,
    0xe8, 0xd9, 0x5d, 0x3b, 0x1a, 0x70, 0x91, 0x3b, 0xaa, 0x1a, 0x65, 0x3b, 0x4a,
    0x70, 0x51, 0x3b, 0x5d, 0x76, 0x53, 0x3b, 0x0e, 0x7a, 0x3a, 0x3b, 0x32, 0x57,
    0x29, 0x3b, 0x29, 0x73, 0x56, 0x3b, 0x67, 0xee, 0x8b, 0x3b, 0x46, 0x65, 0xa3,
    0x3b, 0x7c, 0x7b, 0x51, 0x3b, 0x06, 0x80, 0x3f, 0x3b, 0xde, 0xba, 0x5d, 0x3b,
    0x54, 0xe6, 0x9c, 0x3b, 0xcb, 0x28, 0x8b, 0x3b, 0x41, 0x4b, 0x03, 0x3b, 0x3a,
    0x15, 0x50, 0x3b, 0x45, 0x72, 0x30, 0x3b, 0x63, 0x68, 0x7b, 0x3b, 0x11, 0x00,
    0x00, 0x00, 0x74, 0x66, 0x6c, 0x2e, 0x70, 0x73, 0x65, 0x75, 0x64, 0x6f, 0x5f,
    0x71, 0x63, 0x6f, 0x6e, 0x73, 0x74, 0x00, 0x00, 0x00, 0x02, 0x00, 0x00, 0x00,
    0x20, 0x00, 0x00, 0x00, 0x40, 0x00, 0x00, 0x00, 0x52, 0xff, 0xff, 0xff, 0x00,
    0x00, 0x00, 0x01, 0x10, 0x00, 0x00, 0x00, 0x10, 0x00, 0x00, 0x00, 0x06, 0x00,
    0x00, 0x00, 0x1c, 0x00, 0x00, 0x00, 0x84, 0xfe, 0xff, 0xff, 0x0f, 0x00, 0x00,
    0x00, 0x61, 0x72, 0x69, 0x74, 0x68, 0x2e, 0x63, 0x6f, 0x6e, 0x73, 0x74, 0x61,
    0x6e, 0x74, 0x34, 0x00, 0x02, 0x00, 0x00, 0x00, 0x05, 0x00, 0x00, 0x00, 0x20,
    0x00, 0x00, 0x00, 0x8e, 0xff, 0xff, 0xff, 0x00, 0x00, 0x00, 0x01, 0x10, 0x00,
    0x00, 0x00, 0x10, 0x00, 0x00, 0x00, 0x05, 0x00, 0x00, 0x00, 0x1c, 0x00, 0x00,
    0x00, 0xc0, 0xfe, 0xff, 0xff, 0x0f, 0x00, 0x00, 0x00, 0x61, 0x72, 0x69, 0x74,
    0x68, 0x2e, 0x63, 0x6f, 0x6e, 0x73, 0x74, 0x61, 0x6e, 0x74, 0x33, 0x00, 0x01,
    0x00, 0x00, 0x00, 0x05, 0x00, 0x00, 0x00, 0xc6, 0xff, 0xff, 0xff, 0x00, 0x00,
    0x00, 0x01, 0x10, 0x00, 0x00, 0x00, 0x10, 0x00, 0x00, 0x00, 0x04, 0x00, 0x00,
    0x00, 0x1c, 0x00, 0x00, 0x00, 0xf8, 0xfe, 0xff, 0xff, 0x0f, 0x00, 0x00, 0x00,
    0x61, 0x72, 0x69, 0x74, 0x68, 0x2e, 0x63, 0x6f, 0x6e, 0x73, 0x74, 0x61, 0x6e,
    0x74, 0x32, 0x00, 0x01, 0x00, 0x00, 0x00, 0x20, 0x00, 0x00, 0x00, 0x00, 0x00,
    0x16, 0x00, 0x18, 0x00, 0x14, 0x00, 0x00, 0x00, 0x10, 0x00, 0x0c, 0x00, 0x08,
    0x00, 0x00, 0x00, 0x00, 0x00, 0x00, 0x00, 0x07, 0x00, 0x16, 0x00, 0x00, 0x00,
    0x00, 0x00, 0x00, 0x01, 0x10, 0x00, 0x00, 0x00, 0x10, 0x00, 0x00, 0x00, 0x03,
    0x00, 0x00, 0x00, 0x1c, 0x00, 0x00, 0x00, 0x48, 0xff, 0xff, 0xff, 0x0f, 0x00,
    0x00, 0x00, 0x61, 0x72, 0x69, 0x74, 0x68, 0x2e, 0x63, 0x6f, 0x6e, 0x73, 0x74,
    0x61, 0x6e, 0x74, 0x31, 0x00, 0x01, 0x00, 0x00, 0x00, 0x40, 0x00, 0x00, 0x00,
    0x00, 0x00, 0x16, 0x00, 0x1c, 0x00, 0x18, 0x00, 0x17, 0x00, 0x10, 0x00, 0x0c,
    0x00, 0x08, 0x00, 0x00, 0x00, 0x00, 0x00, 0x00, 0x00, 0x07, 0x00, 0x16, 0x00,
    0x00, 0x00, 0x00, 0x00, 0x00, 0x01, 0x14, 0x00, 0x00, 0x00, 0x14, 0x00, 0x00,
    0x00, 0x02, 0x00, 0x00, 0x00, 0x00, 0x00, 0x00, 0x02, 0x1c, 0x00, 0x00, 0x00,
    0x9c, 0xff, 0xff, 0xff, 0x0e, 0x00, 0x00, 0x00, 0x61, 0x72, 0x69, 0x74, 0x68,
    0x2e, 0x63, 0x6f, 0x6e, 0x73, 0x74, 0x61, 0x6e, 0x74, 0x00, 0x00, 0x01, 0x00,
    0x00, 0x00, 0x02, 0x00, 0x00, 0x00, 0x00, 0x00, 0x16, 0x00, 0x1c, 0x00, 0x18,
    0x00, 0x00, 0x00, 0x14, 0x00, 0x10, 0x00, 0x0c, 0x00, 0x00, 0x00, 0x00, 0x00,
    0x08, 0x00, 0x07, 0x00, 0x16, 0x00, 0x00, 0x00, 0x00, 0x00, 0x00, 0x01, 0x14,
    0x00, 0x00, 0x00, 0x24, 0x00, 0x00, 0x00, 0x24, 0x00, 0x00, 0x00, 0x01, 0x00,
    0x00, 0x00, 0x44, 0x00, 0x00, 0x00, 0x03, 0x00, 0x00, 0x00, 0xff, 0xff, 0xff,
    0xff, 0x14, 0x00, 0x00, 0x00, 0x03, 0x00, 0x00, 0x00, 0x04, 0x00, 0x04, 0x00,
    0x04, 0x00, 0x00, 0x00, 0x21, 0x00, 0x00, 0x00, 0x73, 0x65, 0x72, 0x76, 0x69,
    0x6e, 0x67, 0x5f, 0x64, 0x65, 0x66, 0x61, 0x75, 0x6c, 0x74, 0x5f, 0x66, 0x6c,
    0x61, 0x74, 0x74, 0x65, 0x6e, 0x5f, 0x32, 0x5f, 0x69, 0x6e, 0x70, 0x75, 0x74,
    0x3a, 0x30, 0x00, 0x00, 0x00, 0x03, 0x00, 0x00, 0x00, 0x01, 0x00, 0x00, 0x00,
    0x14, 0x00, 0x00, 0x00, 0x03, 0x00, 0x00, 0x00, 0x03, 0x00, 0x00, 0x00, 0x40,
    0x00, 0x00, 0x00, 0x20, 0x00, 0x00, 0x00, 0x04, 0x00, 0x00, 0x00, 0xd8, 0xff,
    0xff, 0xff, 0x19, 0x00, 0x00, 0x00, 0x00, 0x00, 0x00, 0x19, 0x0c, 0x00, 0x10,
    0x00, 0x0f, 0x00, 0x00, 0x00, 0x08, 0x00, 0x04, 0x00, 0x0c, 0x00, 0x00, 0x00,
    0x09, 0x00, 0x00, 0x00, 0x0c, 0x00, 0x00, 0x00, 0x00, 0x00, 0x00, 0x09, 0x0c,
    0x00, 0x0c, 0x00, 0x0b, 0x00, 0x00, 0x00, 0x00, 0x00, 0x04, 0x00, 0x0c, 0x00,
    0x00, 0x00, 0x16, 0x00, 0x00, 0x00, 0x00, 0x00, 0x00, 0x16,
};
const int dense_model_len = 10488;
