
// This is a TensorFlow Lite model file that has been converted into a C data
// array using the tensorflow.lite.util.convert_bytes_to_c_source() function.
// This form is useful for compiling into a binary for devices that don't have a
// file system.

#include "dense_some_quantized_model.h"

// We need to keep the data array aligned on some architectures.
#ifdef __has_attribute
#define HAVE_ATTRIBUTE(x) __has_attribute(x)
#else
#define HAVE_ATTRIBUTE(x) 0
#endif
#if HAVE_ATTRIBUTE(aligned) || (defined(__GNUC__) && !defined(__clang__))
#define DATA_ALIGN_ATTRIBUTE __attribute__((aligned(4)))
#else
#define DATA_ALIGN_ATTRIBUTE
#endif

const unsigned char dense_some_quantized_model[] DATA_ALIGN_ATTRIBUTE = {
    0x1c, 0x00, 0x00, 0x00, 0x54, 0x46, 0x4c, 0x33, 0x14, 0x00, 0x20, 0x00, 0x1c,
    0x00, 0x18, 0x00, 0x14, 0x00, 0x10, 0x00, 0x0c, 0x00, 0x00, 0x00, 0x08, 0x00,
    0x04, 0x00, 0x14, 0x00, 0x00, 0x00, 0x1c, 0x00, 0x00, 0x00, 0x9c, 0x00, 0x00,
    0x00, 0x1c, 0x01, 0x00, 0x00, 0xb8, 0x1b, 0x00, 0x00, 0xc8, 0x1b, 0x00, 0x00,
    0x98, 0x2a, 0x00, 0x00, 0x03, 0x00, 0x00, 0x00, 0x01, 0x00, 0x00, 0x00, 0x10,
    0x00, 0x00, 0x00, 0x00, 0x00, 0x0a, 0x00, 0x10, 0x00, 0x0c, 0x00, 0x08, 0x00,
    0x04, 0x00, 0x0a, 0x00, 0x00, 0x00, 0x0c, 0x00, 0x00, 0x00, 0x1c, 0x00, 0x00,
    0x00, 0x40, 0x00, 0x00, 0x00, 0x0f, 0x00, 0x00, 0x00, 0x73, 0x65, 0x72, 0x76,
    0x69, 0x6e, 0x67, 0x5f, 0x64, 0x65, 0x66, 0x61, 0x75, 0x6c, 0x74, 0x00, 0x01,
    0x00, 0x00, 0x00, 0x04, 0x00, 0x00, 0x00, 0x64, 0xff, 0xff, 0xff, 0x0c, 0x00,
    0x00, 0x00, 0x04, 0x00, 0x00, 0x00, 0x0d, 0x00, 0x00, 0x00, 0x71, 0x75, 0x61,
    0x6e, 0x74, 0x5f, 0x64, 0x65, 0x6e, 0x73, 0x65, 0x5f, 0x38, 0x00, 0x00, 0x00,
    0x01, 0x00, 0x00, 0x00, 0x04, 0x00, 0x00, 0x00, 0x3e, 0xe4, 0xff, 0xff, 0x04,
    0x00, 0x00, 0x00, 0x0f, 0x00, 0x00, 0x00, 0x66, 0x6c, 0x61, 0x74, 0x74, 0x65,
    0x6e, 0x5f, 0x32, 0x5f, 0x69, 0x6e, 0x70, 0x75, 0x74, 0x00, 0x03, 0x00, 0x00,
    0x00, 0x5c, 0x00, 0x00, 0x00, 0x2c, 0x00, 0x00, 0x00, 0x04, 0x00, 0x00, 0x00,
    0xb8, 0xff, 0xff, 0xff, 0x10, 0x00, 0x00, 0x00, 0x04, 0x00, 0x00, 0x00, 0x13,
    0x00, 0x00, 0x00, 0x43, 0x4f, 0x4e, 0x56, 0x45, 0x52, 0x53, 0x49, 0x4f, 0x4e,
    0x5f, 0x4d, 0x45, 0x54, 0x41, 0x44, 0x41, 0x54, 0x41, 0x00, 0xdc, 0xff, 0xff,
    0xff, 0x0f, 0x00, 0x00, 0x00, 0x04, 0x00, 0x00, 0x00, 0x13, 0x00, 0x00, 0x00,
    0x6d, 0x69, 0x6e, 0x5f, 0x72, 0x75, 0x6e, 0x74, 0x69, 0x6d, 0x65, 0x5f, 0x76,
    0x65, 0x72, 0x73, 0x69, 0x6f, 0x6e, 0x00, 0x08, 0x00, 0x0c, 0x00, 0x08, 0x00,
    0x04, 0x00, 0x08, 0x00, 0x00, 0x00, 0x0e, 0x00, 0x00, 0x00, 0x04, 0x00, 0x00,
    0x00, 0x13, 0x00, 0x00, 0x00, 0x6d, 0x69, 0x6e, 0x5f, 0x72, 0x75, 0x6e, 0x74,
    0x69, 0x6d, 0x65, 0x5f, 0x76, 0x65, 0x72, 0x73, 0x69, 0x6f, 0x6e, 0x00, 0x11,
    0x00, 0x00, 0x00, 0x98, 0x1a, 0x00, 0x00, 0x90, 0x1a, 0x00, 0x00, 0x78, 0x1a,
    0x00, 0x00, 0x68, 0x19, 0x00, 0x00, 0x58, 0x0a, 0x00, 0x00, 0x50, 0x0a, 0x00,
    0x00, 0x48, 0x0a, 0x00, 0x00, 0x38, 0x02, 0x00, 0x00, 0xa8, 0x01, 0x00, 0x00,
    0xa0, 0x01, 0x00, 0x00, 0xf0, 0x00, 0x00, 0x00, 0xcc, 0x00, 0x00, 0x00, 0xc4,
    0x00, 0x00, 0x00, 0xbc, 0x00, 0x00, 0x00, 0x9c, 0x00, 0x00, 0x00, 0x7c, 0x00,
    0x00, 0x00, 0x04, 0x00, 0x00, 0x00, 0x26, 0xe5, 0xff, 0xff, 0x04, 0x00, 0x00,
    0x00, 0x68, 0x00, 0x00, 0x00, 0x10, 0x00, 0x00, 0x00, 0x00, 0x00, 0x00, 0x00,
    0x08, 0x00, 0x0e, 0x00, 0x08, 0x00, 0x04, 0x00, 0x08, 0x00, 0x00, 0x00, 0x10,
    0x00, 0x00, 0x00, 0x2c, 0x00, 0x00, 0x00, 0x00, 0x00, 0x06, 0x00, 0x08, 0x00,
    0x04, 0x00, 0x06, 0x00, 0x00, 0x00, 0x04, 0x00, 0x00, 0x00, 0x02, 0x00, 0x00,
    0x00, 0xeb, 0x03, 0x00, 0x00, 0xd0, 0x07, 0x00, 0x00, 0x0c, 0x00, 0x18, 0x00,
    0x14, 0x00, 0x10, 0x00, 0x0c, 0x00, 0x04, 0x00, 0x0c, 0x00, 0x00, 0x00, 0xde,
    0x08, 0x0e, 0x85, 0x23, 0x77, 0xc2, 0x2a, 0x02, 0x00, 0x00, 0x00, 0x02, 0x00,
    0x00, 0x00, 0x04, 0x00, 0x00, 0x00, 0x06, 0x00, 0x00, 0x00, 0x32, 0x2e, 0x31,
    0x39, 0x2e, 0x30, 0x00, 0x00, 0x9a, 0xe5, 0xff, 0xff, 0x04, 0x00, 0x00, 0x00,
    0x10, 0x00, 0x00, 0x00, 0x00, 0x00, 0x00, 0x00, 0x00, 0x00, 0x00, 0x00, 0x00,
    0x00, 0x00, 0x00, 0x00, 0x00, 0x00, 0x00, 0xb6, 0xe5, 0xff, 0xff, 0x04, 0x00,
    0x00, 0x00, 0x10, 0x00, 0x00, 0x00, 0x31, 0x2e, 0x31, 0x34, 0x2e, 0x30, 0x00,
    0x00, 0x00, 0x00, 0x00, 0x00, 0x00, 0x00, 0x00, 0x00, 0x40, 0xd8, 0xff, 0xff,
    0x44, 0xd8, 0xff, 0xff, 0xda, 0xe5, 0xff, 0xff, 0x04, 0x00, 0x00, 0x00, 0x14,
    0x00, 0x00, 0x00, 0x55, 0xff, 0xff, 0xff, 0xf8, 0x00, 0x00, 0x00, 0x47, 0x00,
    0x00, 0x00, 0x69, 0x00, 0x00, 0x00, 0x67, 0xfe, 0xff, 0xff, 0xfa, 0xe5, 0xff,
    0xff, 0x04, 0x00, 0x00, 0x00, 0xa0, 0x00, 0x00, 0x00, 0xa9, 0x0d, 0x4c, 0xaf,
    0x23, 0xe0, 0xbf, 0xa6, 0x01, 0x0a, 0xcd, 0x53, 0x9e, 0x15, 0x01, 0xef, 0x00,
    0xbb, 0x33, 0x2e, 0x2b, 0xf1, 0xf4, 0x34, 0x13, 0x16, 0xe2, 0x8c, 0xdc, 0x4f,
    0xe5, 0x20, 0xec, 0x46, 0xe2, 0xb3, 0x14, 0xbd, 0xb1, 0x39, 0xb8, 0xa3, 0x17,
    0xa9, 0x30, 0xe0, 0x8e, 0x46, 0x2f, 0x60, 0x25, 0xa1, 0x3a, 0xf4, 0xc3, 0xa5,
    0xf0, 0xe2, 0x35, 0xae, 0x20, 0x04, 0x41, 0xfa, 0x33, 0x3b, 0x40, 0x30, 0xd2,
    0x4a, 0xaf, 0xb3, 0x9e, 0x1f, 0x46, 0xa2, 0xa2, 0xf2, 0xfc, 0xe4, 0xd8, 0xfe,
    0xc4, 0x36, 0x28, 0x82, 0x81, 0x13, 0xc8, 0xda, 0xac, 0x0e, 0x48, 0xc9, 0xf1,
    0x39, 0x1e, 0xd5, 0xef, 0x32, 0x98, 0x17, 0x0f, 0xc3, 0xb1, 0x1b, 0xcf, 0xd6,
    0x02, 0x26, 0x3c, 0x56, 0x4b, 0xc8, 0xba, 0xba, 0xa0, 0xbe, 0xad, 0xa1, 0x34,
    0xbd, 0x1a, 0x31, 0xd9, 0xbb, 0xc8, 0x9d, 0xc6, 0xa9, 0xdd, 0x25, 0x22, 0x04,
    0x46, 0x39, 0x3c, 0xd0, 0x1b, 0xe7, 0x1f, 0xce, 0x21, 0xf7, 0xc2, 0xb6, 0x20,
    0x12, 0x1f, 0xaf, 0x21, 0x2a, 0xb3, 0x21, 0x2a, 0x27, 0xe7, 0xc1, 0xc4, 0xb1,
    0x14, 0xd9, 0xff, 0xff, 0xaa, 0xe6, 0xff, 0xff, 0x04, 0x00, 0x00, 0x00, 0x80,
    0x00, 0x00, 0x00, 0x66, 0x04, 0x00, 0x00, 0xef, 0x06, 0x00, 0x00, 0x40, 0x03,
    0x00, 0x00, 0x82, 0x00, 0x00, 0x00, 0x56, 0x01, 0x00, 0x00, 0xe3, 0x00, 0x00,
    0x00, 0x50, 0xfe, 0xff, 0xff, 0x09, 0xff, 0xff, 0xff, 0x1e, 0xfd, 0xff, 0xff,
    0x0c, 0x04, 0x00, 0x00, 0x4d, 0x00, 0x00, 0x00, 0x26, 0x00, 0x00, 0x00, 0xdd,
    0x01, 0x00, 0x00, 0x6f, 0x01, 0x00, 0x00, 0x54, 0xfe, 0xff, 0xff, 0x8f, 0x02,
    0x00, 0x00, 0x0c, 0x02, 0x00, 0x00, 0xd7, 0x00, 0x00, 0x00, 0xa4, 0xff, 0xff,
    0xff, 0x1f, 0x00, 0x00, 0x00, 0x8c, 0x02, 0x00, 0x00, 0xf6, 0x03, 0x00, 0x00,
    0x4a, 0xfd, 0xff, 0xff, 0x46, 0x01, 0x00, 0x00, 0x29, 0xfe, 0xff, 0xff, 0xfd,
    0xff, 0xff, 0xff, 0x90, 0x00, 0x00, 0x00, 0x54, 0x00, 0x00, 0x00, 0xc9, 0x01,
    0x00, 0x00, 0x31, 0x01, 0x00, 0x00, 0x39, 0x01, 0x00, 0x00, 0x38, 0x03, 0x00,
    0x00, 0x36, 0xe7, 0xff, 0xff, 0x04, 0x00, 0x00, 0x00, 0x00, 0x08, 0x00, 0x00,
    0xb0, 0xf5, 0xab, 0xcc, 0xeb, 0xcc, 0x04, 0xa2, 0xc8, 0x25, 0xf5, 0x10, 0xf7,
    0xb4, 0xc5, 0x35, 0xb3, 0xe0, 0x23, 0xdf, 0xfa, 0xec, 0x00, 0xe9, 0xfe, 0x11,
    0x0c, 0x23, 0xb9, 0xdf, 0x1c, 0x48, 0xaa, 0x3a, 0xa9, 0xd9, 0xaf, 0x1b, 0x07,
    0xb8, 0x01, 0x91, 0x16, 0xd1, 0xcd, 0xb3, 0xc2, 0xb5, 0x2e, 0xdd, 0xf6, 0xd9,
    0xbf, 0xb0, 0x0b, 0xe8, 0x43, 0xaf, 0x25, 0xff, 0xfa, 0x26, 0xf8, 0x40, 0xd2,
    0xac, 0xbf, 0xe9, 0xba, 0xf4, 0x16, 0x04, 0xf0, 0xf0, 0xed, 0x38, 0x92, 0x2b,
    0x33, 0xe8, 0xdc, 0x03, 0x10, 0xee, 0x08, 0xb2, 0xe5, 0xfe, 0x03, 0x2e, 0x23,
    0xee, 0x16, 0x0e, 0x10, 0xf7, 0xf7, 0xfd, 0xec, 0xfb, 0xb4, 0x11, 0xe7, 0xc4,
    0xa4, 0x1e, 0x01, 0x15, 0xa9, 0xee, 0xe6, 0xd8, 0x18, 0x9e, 0x10, 0xd7, 0xae,
    0x22, 0x0e, 0x94, 0xfc, 0xc8, 0x20, 0x3a, 0x07, 0x2d, 0x9f, 0x0b, 0xb7, 0xee,
    0xd7, 0xfb, 0xe1, 0xbf, 0x00, 0x20, 0xd0, 0xf5, 0x32, 0x0b, 0xbe, 0xd0, 0xc4,
    0x02, 0x1d, 0xd2, 0x12, 0xc5, 0x03, 0xe7, 0xed, 0x2a, 0x0d, 0x02, 0xc9, 0xda,
    0x0f, 0xe6, 0x18, 0xd4, 0x05, 0x11, 0x1a, 0xef, 0xe8, 0x1f, 0xcd, 0x22, 0xe9,
    0xfd, 0x12, 0xbd, 0xfc, 0xfa, 0xdf, 0xfb, 0x03, 0xee, 0x05, 0xbc, 0xe7, 0xb5,
    0x33, 0xfd, 0xed, 0x19, 0x06, 0x0a, 0x02, 0x38, 0xc6, 0xda, 0x2a, 0x04, 0x10,
    0x32, 0x18, 0xfe, 0xde, 0xfa, 0x21, 0x4e, 0xf4, 0xec, 0x3e, 0xfc, 0x0a, 0x4e,
    0xdc, 0x07, 0x59, 0x48, 0x09, 0x17, 0x1f, 0xf9, 0xe5, 0x1d, 0xf8, 0x27, 0xdd,
    0xf3, 0x2e, 0x27, 0xeb, 0x32, 0x0f, 0x26, 0x1e, 0x1c, 0x2b, 0x0c, 0x03, 0xca,
    0x11, 0x06, 0x27, 0x35, 0x24, 0x53, 0x00, 0x28, 0x36, 0xf9, 0x12, 0xde, 0xfc,
    0xfe, 0x3d, 0xed, 0x24, 0x04, 0x21, 0x36, 0x00, 0x05, 0x35, 0x3a, 0x43, 0x09,
    0x0e, 0x0f, 0xf0, 0x36, 0xf6, 0xe9, 0xe5, 0x36, 0xf4, 0x41, 0x2f, 0x1d, 0x46,
    0x3b, 0x02, 0x30, 0x03, 0xfe, 0x63, 0x33, 0x28, 0x29, 0x25, 0xe7, 0x12, 0x0f,
    0x12, 0xc8, 0x2d, 0xef, 0x60, 0x16, 0x1b, 0x0f, 0x04, 0x21, 0xfd, 0x0d, 0xf4,
    0x0c, 0x14, 0x62, 0x52, 0x31, 0x04, 0x24, 0x2d, 0x4d, 0x3b, 0x44, 0x0c, 0x31,
    0xec, 0x13, 0xec, 0x0c, 0x0d, 0xfd, 0x3f, 0xff, 0xb0, 0xfd, 0x10, 0xe0, 0xf6,
    0xd3, 0x27, 0xe0, 0xea, 0x29, 0x30, 0x29, 0xc2, 0x08, 0xd5, 0x0b, 0x9b, 0x02,
    0x2a, 0xf3, 0x00, 0xed, 0xe2, 0xc1, 0xf9, 0x27, 0x1e, 0x3c, 0xb4, 0xe4, 0x33,
    0x21, 0xd5, 0x3f, 0x02, 0x20, 0xd0, 0xef, 0x0f, 0xc4, 0xe8, 0xc6, 0xfc, 0x08,
    0xe9, 0xa0, 0xe1, 0xf2, 0x2a, 0xc7, 0x04, 0xf6, 0xbf, 0xf0, 0x22, 0x19, 0x32,
    0xd8, 0x27, 0xf3, 0x2c, 0x0d, 0xd6, 0xd3, 0x37, 0x14, 0x3f, 0x2f, 0x0b, 0x3c,
    0xe1, 0x25, 0x0f, 0x1e, 0xf0, 0xe5, 0xfc, 0x02, 0x19, 0xf7, 0x0e, 0x00, 0x08,
    0x17, 0x0a, 0x12, 0x18, 0xff, 0xdf, 0xe5, 0xee, 0x05, 0x09, 0xed, 0x2e, 0x06,
    0x13, 0x17, 0x33, 0x02, 0x27, 0xf5, 0xf9, 0x30, 0x38, 0x29, 0x0b, 0x1a, 0x12,
    0x10, 0x45, 0x47, 0xfd, 0x4d, 0x4b, 0x1f, 0x58, 0x06, 0xff, 0x38, 0x30, 0x20,
    0x14, 0xee, 0xe9, 0xfd, 0x2f, 0xeb, 0x35, 0x05, 0x3c, 0x0e, 0xe9, 0x45, 0xe7,
    0xfc, 0x05, 0xf9, 0x03, 0x12, 0xe6, 0x3a, 0x46, 0x1d, 0x24, 0x34, 0xf0, 0x24,
    0x0a, 0xfe, 0x43, 0xf2, 0xfb, 0x1c, 0x16, 0xef, 0x1b, 0x02, 0x1d, 0x1f, 0xeb,
    0x26, 0x0f, 0x47, 0x43, 0x02, 0xfd, 0x13, 0xdd, 0x0a, 0x05, 0x29, 0x4a, 0x28,
    0x46, 0x13, 0xe5, 0x54, 0x11, 0x05, 0x4f, 0x4d, 0xeb, 0x43, 0xf0, 0xe6, 0xfa,
    0xfc, 0xec, 0xe2, 0x48, 0x0d, 0x4b, 0x5a, 0x57, 0x16, 0x11, 0xfd, 0x05, 0x37,
    0xf3, 0xf3, 0x01, 0x0b, 0x11, 0x12, 0x28, 0xf2, 0x1b, 0x13, 0x01, 0x54, 0xf2,
    0x13, 0x59, 0xf0, 0x13, 0x01, 0xdd, 0xee, 0xef, 0x22, 0x0f, 0xd7, 0x1e, 0xf9,
    0x41, 0xf5, 0x54, 0x16, 0x0e, 0x42, 0x0d, 0x17, 0x17, 0x05, 0x42, 0x29, 0x14,
    0x1a, 0x14, 0x20, 0x26, 0x10, 0x0f, 0xfe, 0x23, 0x5c, 0xea, 0x2c, 0x04, 0xe9,
    0xfe, 0x04, 0x35, 0xee, 0x9a, 0x9a, 0xbc, 0x0b, 0xfb, 0xcf, 0xec, 0x24, 0xc2,
    0x02, 0x38, 0x03, 0xfb, 0xc5, 0xb6, 0x22, 0x04, 0xd0, 0x1e, 0xa9, 0x1c, 0x04,
    0x07, 0x0d, 0x02, 0xf7, 0x1b, 0x1e, 0xfc, 0xd9, 0x2d, 0x0e, 0x2c, 0xfb, 0xfb,
    0xd1, 0x84, 0x1a, 0x2a, 0xe4, 0x33, 0x0a, 0x18, 0xd5, 0xb3, 0xa2, 0xcc, 0xfd,
    0x08, 0xf8, 0xc5, 0xf9, 0xea, 0xf4, 0x29, 0xe8, 0x00, 0xf6, 0x28, 0x11, 0x10,
    0x1f, 0x12, 0x2d, 0xf6, 0x01, 0x1f, 0xe3, 0xe3, 0xe7, 0xf8, 0x06, 0x0e, 0xf0,
    0x20, 0x01, 0xe4, 0x39, 0xeb, 0x35, 0xe8, 0x38, 0x32, 0x00, 0xf0, 0xd1, 0x39,
    0xe2, 0x1f, 0x06, 0x06, 0x36, 0xe6, 0x17, 0x0e, 0x2f, 0xc8, 0x31, 0xa9, 0x16,
    0x2e, 0x0c, 0xc2, 0xb0, 0xbf, 0xc4, 0x25, 0x2d, 0xed, 0x26, 0xea, 0x2a, 0x25,
    0x1d, 0x19, 0x26, 0x01, 0x1a, 0x0d, 0xf8, 0x0e, 0xb8, 0x0c, 0x0c, 0x0a, 0xfb,
    0xd8, 0xdd, 0x08, 0xdb, 0xe2, 0xea, 0x19, 0xe9, 0xf2, 0x33, 0xc4, 0xbe, 0x12,
    0xf4, 0xd1, 0xdf, 0x0c, 0xd5, 0x26, 0xd1, 0xf5, 0x0b, 0x25, 0xea, 0x0c, 0x20,
    0x05, 0x2b, 0x04, 0xa0, 0x2c, 0x09, 0xae, 0xe1, 0x06, 0xdb, 0x0f, 0x03, 0xf6,
    0xf3, 0x1d, 0xfa, 0xd0, 0x24, 0x12, 0xd3, 0xc1, 0xe0, 0xb6, 0xe8, 0x1a, 0xec,
    0xdc, 0xdb, 0xe4, 0xbe, 0x2f, 0xf7, 0xcc, 0x2e, 0xc1, 0xfc, 0x22, 0xfa, 0xff,
    0x0c, 0x15, 0x14, 0xf6, 0xe9, 0x02, 0x2e, 0xfc, 0x04, 0x4b, 0xe7, 0x00, 0x07,
    0x20, 0x40, 0x12, 0x1d, 0x02, 0x3a, 0xf0, 0x0f, 0xdc, 0x26, 0x04, 0x14, 0x19,
    0xeb, 0x1f, 0xf3, 0x00, 0x30, 0xe2, 0x1c, 0xf3, 0x24, 0x07, 0x40, 0x2c, 0xef,
    0xfa, 0x0a, 0xea, 0xe3, 0xf7, 0x1c, 0x0c, 0x58, 0x42, 0x07, 0xeb, 0xfd, 0xf1,
    0x1a, 0x59, 0x2f, 0x0a, 0x07, 0xfd, 0xfd, 0x34, 0xe3, 0x12, 0x1d, 0x18, 0x33,
    0xcb, 0xf9, 0xf9, 0xda, 0x18, 0xfc, 0x03, 0x38, 0xb4, 0x19, 0x21, 0xd5, 0x29,
    0xc2, 0xb3, 0x16, 0x0d, 0xcc, 0x23, 0xee, 0xe8, 0x1e, 0xdd, 0x34, 0xf2, 0xea,
    0x34, 0xe0, 0x25, 0xf3, 0x06, 0xe0, 0x1f, 0x0d, 0x29, 0xd4, 0xa8, 0x02, 0x3c,
    0x1a, 0xf5, 0x0e, 0x05, 0xe5, 0xff, 0xdc, 0xc9, 0xda, 0xfc, 0xca, 0xef, 0xd2,
    0xe9, 0xe0, 0x18, 0xea, 0xdf, 0xff, 0xfb, 0x29, 0x13, 0x23, 0xcb, 0x0e, 0x16,
    0x2f, 0x29, 0x0d, 0x4b, 0x23, 0xeb, 0x1b, 0xec, 0x11, 0xee, 0xfb, 0x43, 0xf4,
    0x04, 0x41, 0x33, 0x0e, 0x2f, 0x3c, 0xf9, 0x67, 0x48, 0xff, 0x08, 0xbe, 0x26,
    0x1e, 0xf9, 0xe3, 0x1b, 0x2b, 0x36, 0x2b, 0x08, 0xfd, 0x24, 0x1c, 0x1b, 0x3d,
    0x1f, 0x21, 0x10, 0x00, 0x40, 0x00, 0x3c, 0xff, 0xe8, 0x3a, 0xdf, 0xf3, 0x36,
    0x05, 0x00, 0x16, 0x02, 0x26, 0x08, 0xee, 0xdc, 0x3c, 0x51, 0xed, 0x01, 0xe3,
    0xed, 0xd9, 0x25, 0x2e, 0x10, 0xfc, 0x0f, 0xfc, 0xfa, 0xf7, 0x14, 0x19, 0x0f,
    0xe9, 0xb5, 0xff, 0x05, 0xbf, 0xb8, 0x30, 0xd7, 0x25, 0x07, 0xc3, 0x3a, 0xec,
    0x29, 0xeb, 0x2c, 0x0d, 0xaf, 0x0f, 0xd9, 0xf9, 0xac, 0xa3, 0x24, 0xc3, 0x1b,
    0xd1, 0xa9, 0x15, 0xc6, 0xf0, 0xe5, 0xbf, 0xc5, 0xf8, 0xd8, 0xb3, 0xdf, 0x0c,
    0xe1, 0xec, 0x1e, 0xf9, 0x1f, 0x13, 0xc7, 0x19, 0xc0, 0x0a, 0xde, 0xbe, 0xd8,
    0xce, 0x1d, 0x07, 0x00, 0xe3, 0x0e, 0xeb, 0xe8, 0xcc, 0x1b, 0xfa, 0x15, 0xfd,
    0xf9, 0x11, 0x1a, 0xfb, 0xcf, 0x28, 0xd6, 0x20, 0xd2, 0xc5, 0x23, 0x11, 0x2a,
    0xd6, 0x29, 0x2b, 0xc7, 0x1c, 0xce, 0x16, 0xb7, 0xa8, 0x00, 0xf4, 0xe4, 0xe3,
    0xad, 0x0c, 0xf5, 0xe6, 0x02, 0xbf, 0xc8, 0x07, 0xe9, 0xa9, 0xb9, 0x1c, 0xcd,
    0xea, 0x28, 0xfb, 0x2b, 0xf4, 0xc4, 0x12, 0xd0, 0x30, 0x0f, 0x07, 0xba, 0x07,
    0xe1, 0x07, 0x1a, 0xb4, 0xfc, 0xae, 0xc1, 0x19, 0xf0, 0x1b, 0x2d, 0xce, 0xc4,
    0x0b, 0xda, 0xd7, 0xe1, 0xb8, 0xdf, 0x0d, 0xf2, 0xf6, 0x11, 0xd5, 0x0b, 0x1f,
    0xe8, 0xe9, 0xcf, 0xf7, 0xe2, 0x20, 0xd8, 0xf5, 0xcb, 0xf4, 0xf1, 0xda, 0xe2,
    0x29, 0xba, 0xfd, 0x00, 0xe4, 0xd1, 0xec, 0x1b, 0x05, 0x14, 0x19, 0xb8, 0xf8,
    0xd9, 0xbf, 0x1a, 0xe7, 0xd5, 0xd8, 0xed, 0xe6, 0x1b, 0xf8, 0x21, 0x2b, 0x08,
    0x3c, 0x21, 0x38, 0x1c, 0xdb, 0xd3, 0x0d, 0xf6, 0xff, 0x26, 0x17, 0x30, 0x21,
    0xe3, 0x31, 0x0d, 0x09, 0x39, 0x36, 0x0b, 0x2d, 0x20, 0xe4, 0x3c, 0xe2, 0xf8,
    0xf1, 0x49, 0xdb, 0x45, 0x31, 0x14, 0x10, 0x00, 0x3a, 0xff, 0x44, 0x0e, 0x2c,
    0x30, 0x40, 0x23, 0xeb, 0x03, 0x01, 0x30, 0x22, 0x2b, 0xfd, 0xf7, 0x0e, 0x09,
    0x21, 0xe2, 0xea, 0xe8, 0xf6, 0x1e, 0xf9, 0xea, 0x27, 0x2e, 0x13, 0xf5, 0x0a,
    0x2f, 0x10, 0xf1, 0x05, 0x09, 0x2b, 0x00, 0xe1, 0xe8, 0x02, 0x1a, 0xdb, 0x15,
    0x1f, 0x3b, 0xf1, 0x0f, 0x0a, 0x26, 0x29, 0x0c, 0x0c, 0xfe, 0xda, 0xff, 0xe5,
    0x28, 0xda, 0xf1, 0xef, 0xf5, 0x24, 0xdc, 0xde, 0xdf, 0xf6, 0x2b, 0xf8, 0x0a,
    0xec, 0xe5, 0x10, 0x37, 0x05, 0xef, 0x19, 0xf4, 0x07, 0x11, 0xdc, 0xfb, 0x27,
    0xee, 0x01, 0x3c, 0x2f, 0xe8, 0xea, 0x21, 0xf3, 0x1b, 0xe5, 0xe6, 0x0f, 0x38,
    0xe2, 0x1c, 0x0b, 0xeb, 0x0a, 0xf6, 0x13, 0xf7, 0xd2, 0x03, 0x27, 0xde, 0x1b,
    0x47, 0xe9, 0x3d, 0x21, 0x0b, 0x21, 0xff, 0x13, 0xff, 0x14, 0x01, 0xe3, 0x0d,
    0x05, 0xdf, 0x20, 0x30, 0x2d, 0xe4, 0xf4, 0xe5, 0xec, 0x09, 0x00, 0x11, 0xe2,
    0x10, 0xaf, 0x17, 0xf7, 0xf3, 0xdc, 0xe0, 0x3f, 0x31, 0x10, 0xec, 0x10, 0x2a,
    0x24, 0x2e, 0x18, 0xe7, 0x1c, 0xc4, 0xa0, 0xde, 0xe3, 0xbd, 0xff, 0x38, 0x31,
    0x15, 0xbd, 0x04, 0x26, 0xa2, 0x34, 0x07, 0xb6, 0x35, 0x2b, 0x9e, 0xa4, 0x0c,
    0xcb, 0x07, 0x3c, 0x36, 0xfe, 0xf9, 0xb0, 0x19, 0xf7, 0xbe, 0xa9, 0x00, 0xc4,
    0xee, 0x36, 0xf4, 0x03, 0x04, 0x32, 0xed, 0x2e, 0x21, 0xf6, 0xc6, 0xd6, 0xaf,
    0xb5, 0x16, 0xc2, 0xf9, 0xef, 0xcc, 0x2c, 0xfe, 0xa3, 0xa7, 0x0d, 0x06, 0x02,
    0x20, 0xea, 0xc0, 0x0b, 0x73, 0x66, 0x7f, 0x0b, 0x28, 0x15, 0x1b, 0x41, 0x1d,
    0x07, 0xf4, 0x21, 0x0c, 0xec, 0x2d, 0x08, 0x3f, 0x25, 0x09, 0x71, 0x17, 0x0d,
    0x50, 0xe9, 0xf3, 0xf9, 0xe7, 0x0d, 0xd9, 0x13, 0xef, 0xdf, 0x3f, 0xf3, 0x2e,
    0x2c, 0x62, 0x09, 0x10, 0x60, 0x06, 0x0e, 0x12, 0x0a, 0x27, 0x60, 0x2c, 0x3c,
    0x06, 0x64, 0x30, 0x58, 0x71, 0xf3, 0x08, 0x46, 0xeb, 0x50, 0xe7, 0xef, 0x02,
    0x00, 0x3a, 0xf2, 0x3c, 0x49, 0x0f, 0x42, 0xf6, 0xe2, 0x10, 0x30, 0x04, 0xec,
    0xf2, 0x0d, 0x0d, 0xfc, 0xe7, 0x29, 0x16, 0x05, 0xf5, 0x09, 0x16, 0x2e, 0x5b,
    0x02, 0x17, 0x32, 0xd0, 0x1c, 0x24, 0xf3, 0xf4, 0x02, 0x34, 0xe8, 0x36, 0x0b,
    0x2a, 0x26, 0x04, 0x37, 0xf0, 0x2c, 0x2c, 0xfb, 0x21, 0x0b, 0x26, 0x29, 0x1b,
    0x16, 0x3c, 0x2e, 0x4d, 0x14, 0x26, 0x20, 0xfa, 0x31, 0xef, 0x2e, 0x3c, 0x24,
    0x1b, 0x08, 0xe0, 0xf4, 0xf0, 0xd3, 0x11, 0xce, 0xd4, 0xec, 0xdf, 0x0c, 0x21,
    0xd8, 0x1c, 0xed, 0xbb, 0x08, 0xca, 0x0a, 0x2b, 0xed, 0xd2, 0x21, 0xe6, 0xbd,
    0xca, 0xd4, 0x16, 0x11, 0xdf, 0xe6, 0xfd, 0x35, 0xee, 0xf2, 0xcb, 0xf6, 0xb2,
    0xe1, 0x05, 0xe2, 0x32, 0xd1, 0xd5, 0xe5, 0xc2, 0xec, 0xfd, 0xe7, 0xe5, 0xe1,
    0xca, 0xf6, 0xcf, 0xf3, 0xdc, 0xe9, 0x16, 0xdd, 0xf1, 0x0a, 0x0a, 0x04, 0xe4,
    0x1d, 0x44, 0xee, 0x1d, 0x06, 0xf1, 0xf9, 0xdb, 0x0e, 0xf7, 0xee, 0x0b, 0xeb,
    0xfc, 0xf4, 0x00, 0xea, 0x12, 0xff, 0xdf, 0xee, 0xf8, 0x1f, 0x0f, 0xfc, 0xdf,
    0xfe, 0xf5, 0xe8, 0xe0, 0x0c, 0xed, 0xe2, 0xf7, 0xfb, 0x35, 0x19, 0x38, 0xee,
    0xff, 0x05, 0x2f, 0x30, 0xee, 0x09, 0xd9, 0x1e, 0x3d, 0x21, 0xf5, 0xec, 0xf4,
    0x5c, 0x12, 0xff, 0x0f, 0x13, 0x1b, 0xfc, 0xf1, 0xd2, 0x0c, 0xfb, 0x2e, 0xfc,
    0x60, 0x25, 0x45, 0x17, 0x17, 0x5d, 0x13, 0xfb, 0x36, 0x00, 0xff, 0xfc, 0x29,
    0x11, 0x58, 0xf8, 0x03, 0x71, 0x0c, 0x21, 0x11, 0x3f, 0x0a, 0x30, 0xd5, 0x00,
    0x25, 0x2e, 0x1e, 0x23, 0x07, 0x20, 0x23, 0x04, 0x1b, 0x56, 0x64, 0xf0, 0x3e,
    0x0b, 0x03, 0xee, 0xe8, 0x55, 0x48, 0x66, 0x61, 0x51, 0xdc, 0x6f, 0x36, 0x1e,
    0x45, 0x64, 0xeb, 0x1f, 0x28, 0x01, 0xfa, 0x0a, 0xfd, 0xf8, 0x30, 0x4f, 0x3d,
    0x29, 0x6e, 0x03, 0x39, 0xed, 0xe4, 0x01, 0x13, 0x43, 0x14, 0xf5, 0x3a, 0x01,
    0xe7, 0x34, 0xf4, 0xf8, 0x15, 0x10, 0xee, 0x4b, 0x42, 0xe8, 0xe8, 0x00, 0x23,
    0x1c, 0xfa, 0xf3, 0x37, 0x0a, 0x02, 0x44, 0xf1, 0x04, 0x20, 0xf6, 0x09, 0x25,
    0x27, 0xe5, 0xfa, 0x01, 0x49, 0x1f, 0x3b, 0x17, 0xf0, 0x30, 0x45, 0x3e, 0x1c,
    0x13, 0x29, 0x12, 0x42, 0x19, 0x3c, 0xfc, 0xfa, 0x34, 0x2d, 0xf4, 0x06, 0x12,
    0xd9, 0x0b, 0xfc, 0xf7, 0xfb, 0x08, 0xde, 0xf4, 0x1c, 0xea, 0xdb, 0xfe, 0xec,
    0x10, 0xe5, 0x08, 0x3f, 0xe8, 0x0e, 0xf0, 0x05, 0xaf, 0xf5, 0xf7, 0xb5, 0x19,
    0xd1, 0xf6, 0x1c, 0x18, 0xf0, 0xfa, 0x0a, 0xdc, 0xe2, 0x0f, 0x01, 0xf7, 0xd6,
    0xb7, 0x19, 0xcc, 0x24, 0xdd, 0xe7, 0xf5, 0x03, 0xe7, 0xee, 0xe0, 0xec, 0xe6,
    0x25, 0xff, 0x27, 0xcd, 0x07, 0x06, 0x02, 0xec, 0xe7, 0xb9, 0xe7, 0xef, 0xe7,
    0x02, 0xf7, 0xd0, 0x0e, 0x1c, 0xc6, 0xb5, 0x0a, 0xfa, 0x0e, 0xe3, 0xf1, 0xd2,
    0x24, 0xf9, 0xc2, 0x12, 0x14, 0x03, 0xe5, 0x10, 0x0c, 0x2c, 0xf3, 0xdc, 0x28,
    0xc0, 0xaf, 0xd2, 0x01, 0xb7, 0xf8, 0xcb, 0xc0, 0x22, 0x24, 0x1d, 0xea, 0x10,
    0x11, 0xdb, 0xfb, 0x0a, 0xe8, 0xef, 0x24, 0xb3, 0xbd, 0xfb, 0xb6, 0xba, 0x04,
    0x0d, 0xd2, 0x10, 0xc5, 0x0d, 0xf2, 0x1c, 0xfc, 0xca, 0x01, 0x02, 0xe8, 0x01,
    0xdd, 0x34, 0x16, 0xd8, 0x11, 0xf0, 0xe4, 0xf1, 0xe5, 0xe8, 0x16, 0xe1, 0xcb,
    0x1a, 0xd9, 0xfb, 0xe8, 0xb9, 0x07, 0x1c, 0x28, 0x0f, 0x14, 0x08, 0x1b, 0x0f,
    0xf9, 0xdd, 0xd8, 0xe1, 0xd1, 0x12, 0xc5, 0xd7, 0xfa, 0xcb, 0xce, 0xe0, 0xce,
    0x22, 0xd5, 0xf9, 0xca, 0xf4, 0xc2, 0xf0, 0xd5, 0xc6, 0x03, 0xfd, 0xfc, 0x0a,
    0xe2, 0xc3, 0x16, 0xf6, 0x09, 0xc3, 0xc4, 0xf2, 0xe8, 0xf2, 0xb2, 0x18, 0xe2,
    0xa9, 0x1d, 0x18, 0xce, 0x0a, 0x21, 0x1f, 0xb2, 0xfd, 0xbf, 0x1a, 0x23, 0xb6,
    0x2b, 0xed, 0x20, 0xbf, 0xfd, 0xdf, 0x26, 0x33, 0xec, 0xd8, 0x04, 0xe5, 0xfe,
    0xde, 0xf6, 0xee, 0x02, 0xab, 0xad, 0xf5, 0xf9, 0xf8, 0xd8, 0xdb, 0x0c, 0xcc,
    0xac, 0xba, 0xa3, 0xd6, 0x03, 0xb9, 0x12, 0xe8, 0x9b, 0xb9, 0x33, 0xc4, 0x06,
    0x0f, 0x15, 0x20, 0x20, 0x15, 0xef, 0xcb, 0xb0, 0xe1, 0xff, 0xff, 0xb4, 0xe1,
    0xff, 0xff, 0x4a, 0xef, 0xff, 0xff, 0x04, 0x00, 0x00, 0x00, 0x00, 0x0f, 0x00,
    0x00, 0x1a, 0x7f, 0xbf, 0x3e, 0x47, 0x05, 0x11, 0x37, 0x13, 0xe2, 0x29, 0x4e,
    0x21, 0x69, 0xbf, 0xff, 0x55, 0xcf, 0x24, 0x59, 0x2e, 0xef, 0x20, 0x20, 0x4e,
    0x57, 0x28, 0xdf, 0x00, 0x1a, 0xbd, 0x3a, 0xfd, 0xc6, 0x60, 0x9b, 0x0d, 0x56,
    0x3b, 0xcb, 0xeb, 0xdd, 0x49, 0xc4, 0xb9, 0xaf, 0x51, 0x98, 0x0d, 0x75, 0xc4,
    0x2c, 0x3b, 0xc6, 0x18, 0x9b, 0x17, 0x11, 0x61, 0x1b, 0xe6, 0xe9, 0x81, 0xd1,
    0x25, 0x29, 0x48, 0x1c, 0x19, 0x1e, 0x0d, 0xec, 0xc8, 0xed, 0xd0, 0xef, 0x3a,
    0xe0, 0xcf, 0x5d, 0xc9, 0xee, 0x18, 0x1c, 0xcf, 0xc1, 0x0c, 0x30, 0x24, 0x17,
    0xc1, 0x5d, 0xda, 0x4a, 0x9a, 0x0a, 0x38, 0xb1, 0x20, 0xf8, 0x12, 0xe0, 0xc1,
    0x5b, 0xb6, 0xb5, 0xf6, 0xff, 0x41, 0xdb, 0xf2, 0x43, 0xf2, 0xcb, 0x30, 0xd5,
    0xfc, 0x1c, 0xbe, 0x0a, 0xf4, 0x33, 0x25, 0xcb, 0xdf, 0xfb, 0xe9, 0x17, 0x46,
    0xc7, 0x24, 0x18, 0x4e, 0xf9, 0xe0, 0xb8, 0xe0, 0x0d, 0xf9, 0xf4, 0x4d, 0x3f,
    0xe4, 0xbb, 0x25, 0xff, 0xce, 0xba, 0x06, 0x01, 0xf4, 0xc6, 0x41, 0x24, 0x03,
    0xef, 0x07, 0x0c, 0xdc, 0xbe, 0x2f, 0xf9, 0x10, 0xf5, 0x2a, 0x31, 0xeb, 0x1f,
    0x1e, 0xea, 0x30, 0x14, 0x5a, 0x81, 0x09, 0x08, 0xaf, 0x32, 0xdb, 0xdf, 0x11,
    0x51, 0xf8, 0xfa, 0xac, 0xc2, 0xe3, 0xe0, 0x0b, 0x16, 0xb5, 0xed, 0x43, 0x21,
    0x0b, 0x3b, 0xfd, 0xf8, 0x71, 0x06, 0x0d, 0x36, 0x05, 0x08, 0xfa, 0xbc, 0xaa,
    0x75, 0xd5, 0xbf, 0x66, 0x6c, 0x36, 0x81, 0x3c, 0x30, 0xea, 0x38, 0xea, 0xfa,
    0xb7, 0xe8, 0x79, 0x47, 0xc0, 0xeb, 0xda, 0xfd, 0xd2, 0xc8, 0xed, 0x3b, 0xd0,
    0x15, 0xf6, 0x53, 0x1b, 0x0d, 0x3e, 0xc2, 0x11, 0xf8, 0x45, 0x56, 0x0c, 0xe3,
    0x29, 0x0e, 0x1f, 0x6f, 0x19, 0xe7, 0x7f, 0x04, 0x4b, 0x1e, 0x08, 0x2c, 0x16,
    0xe1, 0x4b, 0x63, 0x3e, 0x36, 0x4f, 0x0e, 0xe8, 0xc3, 0xea, 0x11, 0x45, 0xc4,
    0x37, 0xf4, 0x41, 0xc9, 0xdb, 0x17, 0x4a, 0x14, 0xfe, 0x43, 0x22, 0xd5, 0x32,
    0xe8, 0x06, 0xff, 0xd0, 0xf0, 0x05, 0x13, 0x42, 0x35, 0x48, 0xd6, 0xd5, 0x14,
    0x05, 0x38, 0xc6, 0xf8, 0x5a, 0x09, 0x81, 0xbd, 0x45, 0xa7, 0x0c, 0xeb, 0x0e,
    0xf9, 0x22, 0xe7, 0x4d, 0xb5, 0xb4, 0xd5, 0xb9, 0xc2, 0xc2, 0x4f, 0xe3, 0xe1,
    0x3a, 0x26, 0xde, 0xb8, 0x27, 0x07, 0x21, 0x27, 0xf8, 0x1f, 0xbf, 0x21, 0x64,
    0x0a, 0x3f, 0xdf, 0xff, 0xab, 0xee, 0xbd, 0x19, 0xfb, 0xfc, 0x2f, 0x6e, 0xdd,
    0x0c, 0xbf, 0x2f, 0x25, 0xdb, 0x4d, 0xa4, 0xdf, 0xb1, 0xd1, 0x1d, 0xfe, 0xcd,
    0xe7, 0xb9, 0x3b, 0xaf, 0x20, 0xd1, 0xb2, 0xef, 0xb5, 0x31, 0x2c, 0x20, 0xc8,
    0xc1, 0x22, 0xe2, 0x13, 0xc8, 0xb0, 0xd6, 0x07, 0x3f, 0xbb, 0xe0, 0xd1, 0xbc,
    0x8d, 0x22, 0xe2, 0x3a, 0x38, 0xb0, 0xf6, 0x9f, 0x94, 0x13, 0x92, 0x81, 0xfd,
    0xc8, 0xc5, 0xcf, 0xb7, 0xfe, 0x19, 0x1d, 0x20, 0x20, 0xaa, 0xfe, 0xd1, 0xaa,
    0x9a, 0x29, 0xe8, 0xc6, 0x1e, 0x91, 0x31, 0xde, 0xde, 0xc6, 0xcc, 0x1b, 0x07,
    0xdd, 0xb8, 0xc1, 0xe7, 0x97, 0x20, 0xc5, 0x88, 0x56, 0x1b, 0x1c, 0xaf, 0x23,
    0x26, 0x07, 0xb2, 0xb9, 0x41, 0x9f, 0xc9, 0xdb, 0x99, 0xf7, 0x06, 0xcb, 0x3a,
    0x41, 0x47, 0xc1, 0x22, 0x8e, 0xe4, 0xee, 0xf6, 0xff, 0x54, 0xaa, 0xac, 0xf3,
    0xd8, 0x03, 0xd2, 0xe1, 0x82, 0xde, 0x81, 0xc1, 0x09, 0xeb, 0x29, 0xfc, 0x15,
    0x56, 0xc5, 0x54, 0x3d, 0x81, 0xa1, 0xe8, 0x09, 0xcd, 0xd8, 0xd0, 0xd8, 0x1b,
    0xdd, 0x7a, 0x46, 0xe9, 0xf5, 0x38, 0xad, 0xd1, 0xfc, 0xae, 0xe5, 0x27, 0x13,
    0x4c, 0x18, 0xc3, 0x11, 0x11, 0x17, 0xe0, 0xe3, 0xcc, 0xec, 0x47, 0xbe, 0x2c,
    0xd9, 0x01, 0x0f, 0xb9, 0xa1, 0xd3, 0x03, 0x92, 0x04, 0xe3, 0xec, 0x2c, 0xed,
    0xff, 0x07, 0xa2, 0xc8, 0xcf, 0xa6, 0x1f, 0x24, 0x4c, 0x14, 0x6e, 0xd8, 0x2c,
    0x55, 0x4b, 0xfd, 0xee, 0xbe, 0xcd, 0xfc, 0x2a, 0x0d, 0x1c, 0x26, 0x0b, 0x20,
    0x29, 0x4f, 0x29, 0xe5, 0xe5, 0x3a, 0xff, 0xd0, 0x7f, 0xc9, 0xff, 0x0a, 0x04,
    0xfa, 0x25, 0xe5, 0xda, 0xe5, 0xeb, 0xd3, 0x57, 0x14, 0xe4, 0x52, 0x04, 0x29,
    0x3d, 0xcf, 0x5d, 0x23, 0xfc, 0x53, 0x4b, 0x25, 0xca, 0xf9, 0xe9, 0xfa, 0x26,
    0xc5, 0xdd, 0x1c, 0xf8, 0x28, 0xf6, 0x0a, 0x24, 0x14, 0x36, 0x18, 0x06, 0xc2,
    0xc6, 0x67, 0xfa, 0x10, 0x41, 0xf6, 0x9d, 0x2c, 0x93, 0x8d, 0x36, 0xca, 0x6f,
    0x45, 0x28, 0xe8, 0xc6, 0xbf, 0x32, 0x08, 0x24, 0x14, 0x34, 0xa7, 0xe8, 0xc6,
    0x9d, 0x22, 0x32, 0x2e, 0xdc, 0x22, 0xf8, 0x7f, 0x71, 0x24, 0xaf, 0x2a, 0xea,
    0x5d, 0x3c, 0xad, 0x5f, 0x30, 0xf0, 0xd4, 0xce, 0xde, 0xe8, 0x1a, 0x81, 0x04,
    0xf0, 0x4c, 0xd0, 0x01, 0xdf, 0x5a, 0x54, 0x0c, 0xca, 0xee, 0xb4, 0xf0, 0x99,
    0x28, 0xf9, 0x3a, 0xb5, 0xed, 0x10, 0xc0, 0xb2, 0xf1, 0xd0, 0xb2, 0xd6, 0xc7,
    0xdc, 0xc3, 0xff, 0xbb, 0x37, 0xcc, 0xc9, 0xac, 0xbb, 0xa2, 0x2a, 0xa5, 0xc0,
    0x0d, 0xb7, 0xcd, 0x34, 0xd8, 0xc3, 0xcc, 0xf0, 0xea, 0xc9, 0xe8, 0x3c, 0x2e,
    0x31, 0xa3, 0xfd, 0xde, 0x1b, 0x3c, 0xf9, 0xbc, 0x29, 0x08, 0x10, 0xca, 0x7b,
    0x3b, 0xef, 0x7f, 0x2f, 0xf0, 0xd1, 0xd4, 0x6e, 0x1f, 0x63, 0xe7, 0x53, 0x1e,
    0xe1, 0x5d, 0xb9, 0xeb, 0x4e, 0xdd, 0x6a, 0x36, 0xdb, 0x00, 0x0b, 0xf5, 0xcc,
    0xe0, 0xc5, 0x44, 0xb9, 0x28, 0x17, 0xe4, 0x50, 0x10, 0x45, 0xb0, 0x3d, 0x61,
    0x20, 0x3d, 0xd4, 0xfd, 0x3e, 0xb4, 0x38, 0x4c, 0x19, 0xca, 0x44, 0x34, 0x4b,
    0xf9, 0xfd, 0xa7, 0x98, 0xe5, 0xb6, 0xfd, 0x08, 0xf5, 0xeb, 0xe9, 0xcb, 0x1e,
    0xaa, 0xd7, 0xd0, 0x14, 0xa4, 0x3b, 0xe6, 0xa1, 0xe6, 0xd1, 0x20, 0x50, 0x1b,
    0x98, 0x1d, 0x2f, 0x12, 0xd1, 0x2f, 0x24, 0xe0, 0x2d, 0xd4, 0xc5, 0xa1, 0x81,
    0xc2, 0x35, 0x03, 0x18, 0x53, 0xeb, 0xe8, 0x0e, 0xd9, 0x0e, 0xec, 0xe6, 0x1e,
    0x11, 0x8f, 0x0b, 0x49, 0xe8, 0x23, 0xdc, 0xbf, 0x0b, 0xe5, 0x05, 0xb8, 0xfa,
    0xf2, 0x10, 0x8a, 0x98, 0x00, 0x19, 0x81, 0xf2, 0xc5, 0xd2, 0x0c, 0xbf, 0x44,
    0x14, 0x48, 0xd7, 0xe0, 0xd1, 0xe1, 0xaf, 0xbb, 0xd0, 0x09, 0xb6, 0xcc, 0x30,
    0x5c, 0x16, 0x02, 0x24, 0x4a, 0xcb, 0x2f, 0xe9, 0xd4, 0x53, 0xab, 0x37, 0xe9,
    0x29, 0x48, 0x2e, 0xf2, 0xee, 0xee, 0xff, 0x31, 0x5c, 0xd2, 0xc7, 0x66, 0xb4,
    0xfc, 0xcd, 0x14, 0xd2, 0x0d, 0xf0, 0x4d, 0x1f, 0xe2, 0x32, 0xc5, 0xd1, 0x3c,
    0xce, 0x4d, 0x0c, 0x26, 0x08, 0xea, 0x2f, 0xaf, 0xd0, 0xe8, 0x11, 0x15, 0xe3,
    0xd1, 0xae, 0x1e, 0xe8, 0x4b, 0xc8, 0x19, 0x09, 0xbc, 0xb9, 0x2a, 0x04, 0x3e,
    0xcd, 0x2e, 0x1f, 0x3a, 0xe3, 0xee, 0x5a, 0x49, 0xfd, 0x38, 0x25, 0xe1, 0x0d,
    0x0e, 0xf8, 0xd3, 0xee, 0x7f, 0xd6, 0xf9, 0x6a, 0xc1, 0xec, 0xd9, 0x52, 0xb2,
    0xff, 0x2a, 0x16, 0x11, 0xe2, 0xf7, 0x1c, 0x12, 0xeb, 0x07, 0x2e, 0xb6, 0x52,
    0x08, 0x0f, 0xbf, 0xbf, 0x31, 0xcd, 0x05, 0x05, 0x2b, 0xb1, 0x0a, 0x40, 0xf2,
    0xd1, 0x0e, 0xc1, 0xe5, 0xdc, 0xf2, 0xd1, 0xeb, 0xf4, 0xe7, 0xf3, 0xa0, 0xe7,
    0x05, 0xf9, 0xd2, 0x0c, 0xca, 0xef, 0x17, 0xbb, 0x0b, 0xe3, 0x0f, 0xc2, 0xd2,
    0xd2, 0x14, 0xfb, 0x81, 0xc6, 0x22, 0x16, 0xeb, 0x2b, 0xcb, 0x7a, 0x93, 0x0e,
    0xa1, 0xc9, 0xd5, 0x2d, 0x7f, 0xce, 0x89, 0x91, 0xfe, 0xfd, 0xb6, 0x5a, 0x3b,
    0xac, 0x25, 0x4f, 0xfa, 0x22, 0x99, 0xf8, 0x1d, 0x1b, 0x93, 0x6c, 0x64, 0x28,
    0x10, 0xb9, 0x99, 0xc0, 0xbb, 0xa4, 0xae, 0x22, 0xd3, 0x1f, 0x60, 0x10, 0x30,
    0xfd, 0xc1, 0x1a, 0x42, 0x1f, 0x2d, 0x93, 0x05, 0xa6, 0xe5, 0x9b, 0x05, 0x5c,
    0xf2, 0xab, 0xf7, 0xd8, 0x23, 0xbf, 0x4b, 0x5c, 0x00, 0xe5, 0x1b, 0xc1, 0x10,
    0x6c, 0x0c, 0xd2, 0x76, 0x35, 0xc3, 0x1f, 0x23, 0xb9, 0xbc, 0x00, 0x50, 0xfc,
    0xf4, 0x2c, 0x76, 0xad, 0xa6, 0x1c, 0x29, 0xc5, 0x4d, 0xac, 0xcf, 0xe7, 0x01,
    0x59, 0x67, 0x53, 0x35, 0x7f, 0xce, 0xdb, 0x16, 0xcf, 0xf0, 0x70, 0x07, 0x06,
    0x06, 0x13, 0x44, 0xff, 0x3a, 0x4d, 0xdd, 0x2f, 0x3a, 0x34, 0x25, 0xf6, 0xf3,
    0xf0, 0xa5, 0xd3, 0xbb, 0xfa, 0xd0, 0xf1, 0xd2, 0xc1, 0xf6, 0x09, 0x82, 0x84,
    0x2b, 0xcc, 0x96, 0x45, 0x4e, 0xfd, 0xc7, 0xe7, 0xcf, 0x30, 0x31, 0x06, 0x18,
    0x6f, 0xdf, 0xab, 0x3c, 0xe5, 0x6a, 0xc0, 0x6c, 0x52, 0x24, 0x22, 0xf4, 0x4c,
    0x1c, 0xbb, 0xe1, 0x34, 0x51, 0xa3, 0x4e, 0xd9, 0x1b, 0xdf, 0xd0, 0x0c, 0x7f,
    0x09, 0xf7, 0xea, 0x09, 0x01, 0xf2, 0x13, 0xe3, 0xdd, 0x33, 0x3d, 0xb8, 0x1d,
    0xf5, 0xaf, 0x16, 0xcd, 0xfc, 0x0a, 0xa8, 0xed, 0x19, 0x19, 0xe3, 0x04, 0x49,
    0xf9, 0xe4, 0x23, 0x89, 0x2b, 0xbf, 0xc6, 0xf9, 0x4c, 0xfa, 0x5c, 0xd4, 0xf1,
    0xe7, 0xd4, 0xfa, 0x00, 0xf5, 0xe9, 0x3a, 0xee, 0xcc, 0x0e, 0x13, 0x81, 0xb5,
    0x01, 0xa5, 0xdd, 0x0e, 0xba, 0x3b, 0xf5, 0xaf, 0xb4, 0xc5, 0xaf, 0x04, 0xe0,
    0x32, 0x0c, 0x11, 0x62, 0x30, 0x1d, 0x30, 0xa1, 0x4d, 0x67, 0xa7, 0x39, 0xfd,
    0x36, 0xe2, 0x4d, 0x7f, 0xe2, 0x3e, 0xfb, 0x11, 0x05, 0xa8, 0x77, 0x17, 0xec,
    0x17, 0x27, 0x38, 0xe5, 0xbc, 0xca, 0x55, 0x3e, 0x32, 0xdd, 0xe5, 0xfd, 0xcd,
    0x00, 0xe6, 0x56, 0x33, 0x2a, 0xf8, 0x74, 0xd1, 0x18, 0xbd, 0x59, 0xcb, 0xb9,
    0xd6, 0x79, 0x65, 0x5c, 0x56, 0x1b, 0xee, 0x09, 0xfd, 0x2d, 0x01, 0x43, 0xdb,
    0xbe, 0xc3, 0xf5, 0x48, 0xd7, 0xbc, 0xc1, 0x1f, 0x03, 0xea, 0x22, 0x21, 0x1f,
    0x20, 0x2d, 0x17, 0xd7, 0xad, 0x81, 0xd2, 0xc9, 0xe3, 0x2d, 0x56, 0xf4, 0x20,
    0x1e, 0x2a, 0x1a, 0xd8, 0x01, 0x23, 0x06, 0xd7, 0xb7, 0x21, 0xd4, 0xdd, 0x25,
    0x42, 0x00, 0xfa, 0x16, 0xe2, 0xe4, 0xf8, 0x39, 0x0f, 0xb8, 0xf5, 0xf2, 0x3f,
    0xd2, 0xec, 0x3d, 0x9f, 0xbb, 0xaf, 0x9d, 0xa5, 0xee, 0xf2, 0xc0, 0xbe, 0xb7,
    0xc0, 0x94, 0xf6, 0xd9, 0xc0, 0x24, 0xd5, 0x03, 0x08, 0xca, 0xf6, 0xfa, 0xe0,
    0xdc, 0x21, 0xed, 0xf5, 0xa6, 0xe7, 0xb8, 0xfd, 0xed, 0x39, 0xd4, 0xbe, 0xe0,
    0xa2, 0xa9, 0xce, 0x07, 0xcc, 0x81, 0xa8, 0x27, 0xcd, 0xe3, 0x0f, 0xfd, 0xb3,
    0xf9, 0x12, 0x2b, 0xf8, 0x29, 0xf9, 0xf6, 0xf6, 0xd9, 0xea, 0x98, 0x9c, 0x2c,
    0xf9, 0x88, 0xcf, 0xca, 0x2e, 0xf6, 0x22, 0xa3, 0xfe, 0x14, 0xdc, 0xcc, 0xfb,
    0x36, 0xc6, 0x3d, 0xed, 0x36, 0x44, 0xb0, 0xa5, 0xe0, 0xdb, 0x0c, 0xa3, 0xdb,
    0x02, 0xd1, 0x13, 0xc3, 0x38, 0xbc, 0x31, 0xaa, 0xc1, 0xf8, 0xa6, 0xb0, 0x95,
    0x16, 0xe3, 0x36, 0xcc, 0x81, 0xbb, 0xf6, 0xdb, 0xaa, 0x3f, 0xc1, 0x2c, 0x3b,
    0xd4, 0xc1, 0xb9, 0xb5, 0xb2, 0x18, 0xa2, 0x48, 0x51, 0x00, 0x1c, 0x2e, 0xd6,
    0x2c, 0xb1, 0xa6, 0x28, 0xe6, 0xcb, 0x27, 0xe4, 0xc0, 0x21, 0x16, 0x34, 0x58,
    0x3d, 0x21, 0x18, 0xd2, 0xb5, 0x53, 0x0b, 0xd6, 0x74, 0xc7, 0x1d, 0x34, 0x18,
    0x23, 0x4a, 0x46, 0x2e, 0xce, 0xd2, 0xc1, 0x7b, 0x93, 0x9e, 0x63, 0x09, 0x9b,
    0xf3, 0x09, 0x81, 0x4d, 0x97, 0x37, 0xe8, 0xc3, 0xb1, 0x37, 0x21, 0xe4, 0x18,
    0x0b, 0x15, 0xe7, 0xe9, 0x3a, 0xea, 0xd7, 0x3c, 0xbd, 0x10, 0x5e, 0xdb, 0xed,
    0xf0, 0xdb, 0x7f, 0x5d, 0xd9, 0x4a, 0xd3, 0xc2, 0x0d, 0x0f, 0xf1, 0x34, 0xf9,
    0xe2, 0x55, 0x05, 0xfe, 0xcb, 0x2c, 0xe9, 0x47, 0x34, 0x06, 0x21, 0x0a, 0x02,
    0x29, 0x13, 0xc7, 0x16, 0xc6, 0x24, 0x17, 0x53, 0x24, 0x1b, 0x46, 0x18, 0x19,
    0x13, 0x0a, 0xe4, 0x33, 0x22, 0x0a, 0x45, 0xe2, 0x0a, 0xcc, 0xeb, 0x26, 0x4d,
    0x49, 0xca, 0x3c, 0xce, 0x5e, 0xf6, 0x1b, 0x3a, 0x6a, 0x66, 0xe7, 0xb3, 0xa2,
    0x9a, 0xb5, 0xc2, 0x4d, 0x19, 0xdd, 0x4b, 0x28, 0xc4, 0xa7, 0xfe, 0xdb, 0xc4,
    0x9a, 0x25, 0x72, 0x41, 0x51, 0x30, 0xb5, 0x75, 0x13, 0x26, 0xfe, 0xf4, 0xce,
    0x13, 0x7f, 0xc4, 0xd2, 0x26, 0x0f, 0x90, 0x6e, 0x02, 0x3a, 0x55, 0xcc, 0x77,
    0x32, 0xf8, 0xc6, 0xeb, 0x9d, 0x21, 0x81, 0xda, 0xa4, 0xf4, 0xb1, 0xdd, 0x92,
    0x45, 0x11, 0xec, 0x98, 0x02, 0xe0, 0xe0, 0x21, 0xd1, 0xc4, 0x11, 0xd1, 0xce,
    0xea, 0xc6, 0xfd, 0xb0, 0x97, 0x0d, 0xe0, 0xa6, 0xe0, 0xe0, 0x23, 0x2a, 0x95,
    0x25, 0x26, 0x90, 0xe4, 0xdb, 0xc1, 0xae, 0x92, 0xf9, 0xb0, 0xcc, 0xd6, 0xd8,
    0x90, 0x0a, 0xbd, 0x2b, 0xb3, 0xd5, 0xba, 0xfd, 0xf4, 0xd1, 0xda, 0xfb, 0xd7,
    0x00, 0x0a, 0x6a, 0xae, 0x0d, 0xb4, 0x07, 0x31, 0x31, 0xbb, 0xb6, 0x19, 0x47,
    0x90, 0x08, 0xb1, 0xfb, 0x4e, 0xa7, 0xec, 0xcb, 0x2b, 0x0c, 0xb6, 0x45, 0x9b,
    0x30, 0xe6, 0x59, 0x19, 0xaa, 0xcd, 0xeb, 0xe4, 0x03, 0xb2, 0xb7, 0xa4, 0xac,
    0xdd, 0x9a, 0xcd, 0xc3, 0xe9, 0xbb, 0x0a, 0x33, 0xe6, 0x3d, 0x30, 0x7f, 0x23,
    0xda, 0x45, 0x10, 0xc6, 0x2e, 0xdf, 0x36, 0x23, 0x43, 0x2b, 0x07, 0x4a, 0x18,
    0x08, 0xdf, 0x4e, 0xcc, 0xcf, 0xcb, 0xd3, 0x08, 0x67, 0x50, 0xfa, 0x58, 0x3d,
    0x46, 0x19, 0xd5, 0x0f, 0x11, 0xa4, 0xef, 0x15, 0x01, 0xff, 0x58, 0xe3, 0x1f,
    0xee, 0x2a, 0xae, 0x00, 0xf1, 0x26, 0x7f, 0x15, 0x12, 0x3b, 0x9d, 0x00, 0x32,
    0xf2, 0xf3, 0x1b, 0x54, 0xec, 0xea, 0xc1, 0x11, 0x03, 0x20, 0x03, 0x1c, 0x78,
    0xf8, 0x36, 0x60, 0xb4, 0x1f, 0xf7, 0x68, 0x07, 0xc0, 0xb3, 0xfd, 0x22, 0xb7,
    0x56, 0xd3, 0x54, 0xe2, 0x4c, 0x77, 0xb7, 0x16, 0x0b, 0xe6, 0xe0, 0xd2, 0x7f,
    0x27, 0xf0, 0x1c, 0xbf, 0xff, 0xa8, 0xea, 0xda, 0x59, 0x2a, 0x32, 0x51, 0xec,
    0xfb, 0x2b, 0xfc, 0x23, 0x22, 0xbb, 0xde, 0x36, 0xe9, 0x27, 0x0e, 0x1e, 0x73,
    0x2f, 0x07, 0xcd, 0x17, 0x20, 0xd5, 0x3a, 0x55, 0xec, 0x48, 0xe7, 0x49, 0x06,
    0x3c, 0x2a, 0x9d, 0x07, 0xf1, 0xc3, 0x31, 0x90, 0xf7, 0xb7, 0xc7, 0x16, 0xf4,
    0xdc, 0x9c, 0x34, 0xc6, 0xd9, 0x4c, 0xba, 0x06, 0xb7, 0xc9, 0x39, 0x1c, 0x58,
    0x0f, 0x9d, 0x15, 0x1b, 0xff, 0x1e, 0xca, 0xe1, 0x4b, 0xa0, 0xab, 0x1c, 0xdf,
    0x1c, 0xca, 0xd0, 0x97, 0x31, 0x21, 0x25, 0xc0, 0xb8, 0x0a, 0x1c, 0xff, 0xcf,
    0xf1, 0x03, 0x9f, 0x7f, 0x9a, 0xd9, 0x4a, 0x3d, 0x21, 0xd1, 0x10, 0x34, 0xc3,
    0xd9, 0x6e, 0x1e, 0x2f, 0xd1, 0xc1, 0x7f, 0x26, 0xf3, 0x69, 0x21, 0xf3, 0x29,
    0xc0, 0xc9, 0x63, 0xde, 0x60, 0x3a, 0xc6, 0x47, 0xd6, 0xde, 0xcc, 0xda, 0xfb,
    0xce, 0x21, 0xe5, 0x11, 0x1b, 0x66, 0x4a, 0x2d, 0x27, 0xfe, 0x34, 0xc8, 0xda,
    0x43, 0xd4, 0x22, 0x50, 0xf7, 0xb6, 0xf3, 0x35, 0x2c, 0xda, 0xcf, 0x67, 0xea,
    0xe0, 0xf2, 0x29, 0xd1, 0xe6, 0xfd, 0x0c, 0xfa, 0xea, 0x3f, 0x24, 0x13, 0xc4,
    0xd1, 0xdc, 0xfc, 0x35, 0x0c, 0xb8, 0x59, 0x01, 0xdf, 0xbf, 0x20, 0x38, 0x0d,
    0x0d, 0x4c, 0x45, 0xed, 0x32, 0xe0, 0x8b, 0xb4, 0x2c, 0xd6, 0x0a, 0x1f, 0xd2,
    0x5a, 0xe5, 0x50, 0xfa, 0xd1, 0xd2, 0xaa, 0x47, 0xee, 0xee, 0x4e, 0x35, 0xd2,
    0xe0, 0x81, 0xce, 0xce, 0xcf, 0x11, 0xd7, 0x12, 0x20, 0xff, 0x24, 0x51, 0xbb,
    0xc5, 0x0d, 0xfc, 0x40, 0xff, 0x0c, 0xe0, 0xf7, 0xb8, 0xdd, 0xf4, 0x30, 0xed,
    0xd3, 0xc2, 0xf9, 0x45, 0x81, 0xcf, 0xb9, 0xf7, 0x38, 0xda, 0x11, 0x34, 0x00,
    0xe0, 0xdd, 0xa4, 0xe6, 0xbf, 0x3d, 0xa1, 0x2a, 0x1a, 0x9c, 0x51, 0x16, 0x98,
    0xfd, 0xb9, 0xd6, 0xc9, 0xf0, 0xe0, 0x4a, 0x3a, 0xe7, 0x14, 0x07, 0x8f, 0x23,
    0xf9, 0xd0, 0xb4, 0x33, 0x65, 0x05, 0xd3, 0x13, 0x0b, 0x1b, 0x4b, 0x17, 0xd5,
    0x7f, 0xf3, 0xd6, 0xeb, 0xff, 0x17, 0xf5, 0xe6, 0x50, 0x51, 0x1c, 0xcd, 0x12,
    0xf2, 0xb3, 0x10, 0xf7, 0x0f, 0x28, 0x17, 0x2d, 0xf4, 0x21, 0x09, 0x2d, 0x1e,
    0xdf, 0x59, 0xd3, 0xda, 0x00, 0x12, 0x36, 0x22, 0xe9, 0x32, 0x14, 0xc6, 0x34,
    0x4a, 0xbd, 0x13, 0x22, 0xe7, 0xf1, 0x12, 0x1d, 0x14, 0xfa, 0xc6, 0xc9, 0xd1,
    0x50, 0xe2, 0x55, 0xd6, 0xec, 0xf7, 0x19, 0xcb, 0xd9, 0xc6, 0xb9, 0x3a, 0x8f,
    0xfb, 0xb9, 0x0e, 0xfe, 0xc6, 0x29, 0xad, 0x2f, 0xd3, 0xf8, 0xe2, 0xf7, 0xad,
    0x24, 0xce, 0xdc, 0xd9, 0x1e, 0xfd, 0x10, 0xc6, 0xd9, 0xbd, 0xbd, 0xaa, 0x0d,
    0x18, 0xa2, 0x45, 0x0e, 0xf8, 0x27, 0x4b, 0x81, 0xd6, 0xf7, 0xa5, 0x52, 0xe2,
    0xfb, 0xc1, 0x67, 0xfd, 0x1e, 0x21, 0x1f, 0x18, 0x20, 0xf5, 0x16, 0x09, 0x7f,
    0xd0, 0x12, 0x20, 0x25, 0x3a, 0x6d, 0x08, 0x4a, 0x31, 0xe0, 0x3c, 0xff, 0x05,
    0x0f, 0x2d, 0x36, 0xf2, 0x53, 0xe5, 0x27, 0xec, 0xed, 0x19, 0x39, 0x2a, 0xd0,
    0x27, 0x2c, 0x38, 0x2a, 0x20, 0x09, 0x00, 0xe9, 0x4f, 0x3c, 0x13, 0xed, 0x33,
    0x19, 0x38, 0x0f, 0x1c, 0x1c, 0x38, 0xb6, 0x20, 0x03, 0x0e, 0xfb, 0x4e, 0xf7,
    0x4d, 0xeb, 0xdd, 0xee, 0xe2, 0x39, 0xbe, 0xb4, 0xe9, 0x81, 0xe1, 0xb8, 0xed,
    0x11, 0x17, 0x32, 0xfa, 0xca, 0xe7, 0xf5, 0x54, 0xbe, 0xcf, 0x02, 0xf6, 0x02,
    0xde, 0xf0, 0x1e, 0x08, 0x8c, 0xd7, 0x28, 0x25, 0x41, 0xfb, 0x23, 0x3e, 0x0d,
    0xdd, 0xe9, 0x25, 0x18, 0xf9, 0xd9, 0xe9, 0xd5, 0x6e, 0x18, 0x39, 0x08, 0x0d,
    0xc5, 0xd1, 0xe3, 0xf7, 0xfe, 0x19, 0x02, 0x3e, 0xc8, 0x26, 0x31, 0xe2, 0x6c,
    0x25, 0x48, 0x52, 0xf2, 0x46, 0x77, 0x10, 0x2d, 0x0e, 0x46, 0x6d, 0xf8, 0x26,
    0x2d, 0x60, 0xd3, 0xfb, 0x74, 0x37, 0x2a, 0xf1, 0x29, 0x04, 0xf8, 0xf6, 0xf4,
    0x31, 0xf8, 0x4f, 0x1d, 0x08, 0x12, 0x28, 0x51, 0x07, 0x29, 0x97, 0x01, 0x12,
    0xd4, 0xf8, 0x1a, 0xee, 0x1f, 0x62, 0xd3, 0x7f, 0x78, 0xd8, 0x26, 0xd2, 0xbd,
    0x08, 0xfd, 0x51, 0x59, 0xb3, 0x33, 0x26, 0x12, 0xdf, 0x22, 0xb0, 0x3c, 0xbe,
    0x39, 0x54, 0xb4, 0xfa, 0xe0, 0x19, 0x16, 0x34, 0xa3, 0xfb, 0xd4, 0x29, 0x43,
    0xd0, 0x00, 0xf2, 0xda, 0x12, 0xc2, 0xde, 0x81, 0xff, 0x14, 0xc7, 0x00, 0xd1,
    0x3c, 0xef, 0xc7, 0xab, 0xed, 0xd7, 0xd1, 0xe4, 0x06, 0xbf, 0x93, 0xf8, 0xb9,
    0xbf, 0xf2, 0xc6, 0x06, 0x29, 0xc9, 0xb5, 0x14, 0xc8, 0xa7, 0x6b, 0x26, 0xb2,
    0xd1, 0x06, 0xe7, 0x29, 0xda, 0xb4, 0xdd, 0x17, 0x81, 0xd6, 0xbf, 0xdd, 0xf9,
    0x0d, 0xda, 0x37, 0x2c, 0xe9, 0x06, 0x5a, 0xcd, 0x04, 0x9a, 0x8b, 0xd6, 0xa6,
    0x1b, 0x31, 0xfa, 0xee, 0xc0, 0x52, 0xbc, 0x2f, 0xc0, 0x1e, 0xfd, 0x37, 0xfa,
    0xe4, 0x1e, 0xc2, 0x11, 0x04, 0xaa, 0x1f, 0xd4, 0x9c, 0xde, 0x3e, 0xc3, 0xe4,
    0xcf, 0xe7, 0x42, 0x07, 0xa6, 0x18, 0xcf, 0x0f, 0x84, 0x39, 0x31, 0xc9, 0xba,
    0xc7, 0x99, 0x48, 0xec, 0xec, 0x0f, 0xa1, 0xba, 0xd5, 0x50, 0x0b, 0x03, 0x30,
    0x91, 0x60, 0xed, 0xd9, 0xc0, 0x10, 0x98, 0x35, 0xeb, 0xfd, 0xe0, 0xcf, 0x81,
    0x2c, 0xf0, 0xa8, 0x40, 0x24, 0x8c, 0x07, 0x15, 0x03, 0xf4, 0xd1, 0x85, 0xe8,
    0xe4, 0xff, 0xd0, 0x3b, 0x2d, 0xe9, 0x10, 0xa8, 0x0d, 0xe0, 0x99, 0xdf, 0x2f,
    0xdc, 0xb8, 0x56, 0x17, 0xdd, 0x6f, 0x33, 0x00, 0x2b, 0xf7, 0xd5, 0x08, 0xf7,
    0xb0, 0x06, 0xfb, 0x22, 0x62, 0x1d, 0xa3, 0xd0, 0x7f, 0xbf, 0xdd, 0xbe, 0x86,
    0xb2, 0xe2, 0x50, 0xfd, 0x2f, 0x66, 0x1b, 0x60, 0xa3, 0xb9, 0xae, 0xb9, 0x15,
    0xe3, 0x4f, 0x35, 0x3c, 0x6a, 0x12, 0xd3, 0xfc, 0xd4, 0xc8, 0xb7, 0x9f, 0x04,
    0x2d, 0xf4, 0xff, 0x17, 0xad, 0xa0, 0x01, 0x19, 0x17, 0x2f, 0xe0, 0x32, 0x46,
    0x25, 0x25, 0xa8, 0xf0, 0xe1, 0xc0, 0x9f, 0x51, 0xfb, 0xa4, 0x49, 0x4d, 0x3b,
    0xf0, 0x47, 0x2d, 0x3c, 0xf7, 0x4b, 0x48, 0x9e, 0x1a, 0x51, 0xe0, 0x10, 0x28,
    0x18, 0x09, 0x05, 0x27, 0x25, 0x18, 0xdd, 0x01, 0x7f, 0xca, 0xed, 0x7d, 0xe0,
    0xfa, 0x25, 0xc3, 0x1a, 0x70, 0x0a, 0x09, 0xf6, 0xe5, 0xe7, 0x0e, 0x14, 0xe6,
    0x0e, 0xff, 0x01, 0x75, 0x1a, 0x26, 0x3d, 0xa2, 0x04, 0x51, 0xb0, 0x1f, 0x2c,
    0x2d, 0xd0, 0x26, 0xc3, 0x2f, 0xfa, 0xb4, 0xdf, 0x68, 0xe7, 0x08, 0x7f, 0x58,
    0xda, 0xd5, 0xcc, 0x16, 0x06, 0x1b, 0x44, 0x27, 0x04, 0xca, 0x56, 0x22, 0x15,
    0xef, 0x49, 0x34, 0x47, 0xc4, 0x37, 0x5d, 0xd3, 0xf7, 0x49, 0x38, 0xa7, 0x08,
    0xcc, 0x2c, 0x2c, 0x17, 0xc9, 0xf6, 0xcd, 0xdc, 0xd5, 0x27, 0x23, 0x0e, 0xee,
    0x23, 0xf7, 0x1c, 0xbc, 0x23, 0xf2, 0x07, 0xf4, 0x10, 0xdc, 0xe8, 0x38, 0x24,
    0x15, 0xd9, 0xff, 0xf4, 0xc4, 0xbb, 0xc8, 0x05, 0xb7, 0x12, 0xd0, 0xd3, 0xee,
    0xdd, 0x1b, 0x10, 0xff, 0x34, 0xd0, 0x23, 0x15, 0x30, 0x24, 0xe1, 0x3c, 0xe5,
    0x22, 0xbe, 0x23, 0x37, 0x2a, 0x35, 0x22, 0x3c, 0xb1, 0x3e, 0x7f, 0x95, 0xb5,
    0x2d, 0xe8, 0x4e, 0xf3, 0xf0, 0x63, 0xf1, 0xf5, 0xf0, 0xfa, 0xdc, 0xd9, 0x0f,
    0x52, 0x06, 0x73, 0x39, 0x81, 0x19, 0xe3, 0xb4, 0xfe, 0xd7, 0xa3, 0xdd, 0x25,
    0xc2, 0x00, 0xfb, 0x9e, 0xe2, 0xcd, 0xb0, 0xd8, 0x1f, 0x15, 0x0b, 0x10, 0x3d,
    0x32, 0xfc, 0x0c, 0xe8, 0xcc, 0xab, 0xb9, 0xed, 0xde, 0xef, 0x2a, 0x1a, 0xec,
    0x09, 0x04, 0xf7, 0x07, 0xba, 0xd9, 0xd3, 0xed, 0x0e, 0x1b, 0xf0, 0x33, 0x29,
    0xc3, 0xef, 0xf1, 0x0f, 0x6c, 0xc4, 0x01, 0x69, 0xeb, 0xbe, 0xd8, 0xe6, 0x1f,
    0xee, 0x1a, 0x04, 0xd7, 0xf0, 0xc6, 0x52, 0xf5, 0x48, 0x3c, 0xfe, 0x05, 0x1d,
    0x31, 0x21, 0xc2, 0x1d, 0x08, 0xc4, 0x07, 0xe5, 0xcd, 0xff, 0xf9, 0xab, 0xe4,
    0x23, 0xf8, 0xbd, 0x10, 0x2f, 0xca, 0x12, 0x20, 0x0b, 0xbb, 0xed, 0xf2, 0xd4,
    0xd8, 0x9e, 0x0d, 0x7f, 0xe3, 0x38, 0x37, 0xe4, 0x0f, 0xbc, 0x60, 0x45, 0x0a,
    0xb1, 0x2d, 0x26, 0x22, 0xe9, 0x63, 0x25, 0xd6, 0x52, 0xaa, 0xcf, 0xeb, 0x81,
    0x3a, 0x50, 0x1e, 0x15, 0x38, 0x20, 0x6d, 0x77, 0x01, 0xd0, 0x53, 0xb7, 0x36,
    0x07, 0x20, 0x10, 0x44, 0x40, 0xfa, 0x67, 0x3b, 0x0b, 0x6b, 0xbb, 0xda, 0x4c,
    0xd6, 0x52, 0xfa, 0x4c, 0x20, 0x31, 0x01, 0xd3, 0x20, 0x0d, 0xec, 0x1e, 0x04,
    0xd7, 0x3b, 0x42, 0xc8, 0x5f, 0xe7, 0xe2, 0xef, 0x09, 0xb7, 0x15, 0x37, 0xd6,
    0x2d, 0xea, 0xd6, 0xcd, 0xfb, 0xf4, 0x02, 0xe9, 0x16, 0x00, 0xf4, 0x2c, 0x10,
    0xb8, 0xd9, 0x1a, 0xc3, 0xe4, 0x16, 0x56, 0x35, 0xc6, 0x06, 0x15, 0x29, 0xc4,
    0x31, 0x44, 0xd7, 0x05, 0xcc, 0x3e, 0x29, 0x11, 0xf2, 0x12, 0x19, 0x23, 0x7b,
    0x14, 0xef, 0x30, 0x3f, 0x81, 0xc4, 0x2b, 0xfc, 0x33, 0x14, 0xd6, 0x37, 0xfd,
    0xbc, 0xd2, 0x36, 0x2f, 0x1e, 0xb4, 0xfc, 0x27, 0xca, 0xe3, 0xd4, 0x9a, 0x06,
    0x07, 0x19, 0xd7, 0x41, 0xef, 0xdc, 0x57, 0xba, 0xef, 0xe6, 0x98, 0x1d, 0xea,
    0xfd, 0xfd, 0x9b, 0x51, 0x11, 0xc7, 0xbe, 0x1d, 0xe4, 0xd8, 0x61, 0x1c, 0x61,
    0x81, 0xc9, 0x62, 0xf1, 0x07, 0x3a, 0xe2, 0xdf, 0xb5, 0x3b, 0x48, 0x21, 0xba,
    0x29, 0x68, 0x97, 0x2b, 0x3b, 0xe3, 0x07, 0x2f, 0x23, 0x60, 0xd3, 0x3c, 0xf4,
    0xa4, 0xc8, 0x30, 0xe3, 0xc2, 0x06, 0xfd, 0xdd, 0x2b, 0x81, 0x31, 0x68, 0xd1,
    0x3c, 0x0d, 0xcb, 0xae, 0x45, 0xf4, 0x41, 0x2c, 0x8b, 0xfc, 0x2b, 0x0d, 0xe5,
    0xbd, 0xd5, 0xd7, 0xed, 0xa5, 0xde, 0x29, 0x92, 0xc6, 0xea, 0xf3, 0x19, 0x05,
    0xe7, 0xff, 0xb0, 0xae, 0xe2, 0xee, 0xe3, 0xdc, 0xad, 0x98, 0x12, 0x98, 0xe1,
    0x1f, 0xb2, 0x33, 0xff, 0x0e, 0x05, 0x2d, 0xd6, 0x02, 0x5c, 0x9d, 0xe2, 0x4b,
    0x8d, 0xe4, 0xd1, 0xe2, 0x36, 0x94, 0x84, 0xcf, 0xab, 0xd6, 0x00, 0x10, 0xf4,
    0xd6, 0xa2, 0x2f, 0xfe, 0x1a, 0x81, 0x23, 0xe1, 0x47, 0xf6, 0x2b, 0xc7, 0xb5,
    0x1e, 0x13, 0xeb, 0x3d, 0x83, 0x34, 0x1a, 0x23, 0x18, 0xd6, 0x2b, 0xc7, 0x34,
    0xb0, 0x38, 0xc8, 0x0e, 0x26, 0x46, 0xa6, 0x49, 0x3b, 0xf4, 0xbe, 0xb9, 0xca,
    0xe1, 0x4e, 0x21, 0xc1, 0xc1, 0xd3, 0x3f, 0x36, 0xf6, 0x0d, 0x26, 0x51, 0xc5,
    0xf6, 0xa7, 0x07, 0x47, 0x63, 0x96, 0x5b, 0xdd, 0x88, 0xc1, 0xcb, 0x21, 0x93,
    0x08, 0xeb, 0x6d, 0x15, 0x9d, 0xe2, 0xf1, 0xf1, 0xe1, 0xf0, 0x6d, 0xac, 0xac,
    0x4c, 0xc1, 0xe2, 0x02, 0xd0, 0x42, 0x10, 0x24, 0x57, 0x4f, 0xd8, 0xd7, 0x42,
    0xe9, 0x44, 0x7f, 0x9d, 0xfb, 0xb7, 0x05, 0x4d, 0xf7, 0x3a, 0xf0, 0xd7, 0x0a,
    0xfa, 0xff, 0xf6, 0x30, 0x19, 0x40, 0x33, 0xf9, 0x6f, 0xd3, 0xf7, 0x68, 0x12,
    0xf1, 0xce, 0x0a, 0x0a, 0x56, 0x3f, 0x56, 0x0c, 0xf3, 0xf0, 0x43, 0x16, 0x16,
    0x60, 0xa7, 0x93, 0x1d, 0x35, 0x5f, 0x14, 0x0a, 0x6d, 0x09, 0xb7, 0x17, 0xf9,
    0x2f, 0xdd, 0x49, 0x1f, 0x81, 0x4c, 0xc4, 0x17, 0x12, 0x30, 0x00, 0xf9, 0x04,
    0x2c, 0x55, 0xec, 0xa6, 0x12, 0xf6, 0xdf, 0x92, 0x3a, 0x62, 0x99, 0xfc, 0xe1,
    0xf0, 0xa3, 0x3a, 0x21, 0xc0, 0xf0, 0x81, 0x33, 0x2a, 0xa8, 0x04, 0x49, 0x1d,
    0x14, 0xe5, 0x16, 0xaf, 0xdf, 0xea, 0x9e, 0x09, 0xce, 0xcc, 0x2f, 0xd2, 0x1d,
    0xd3, 0x3e, 0x16, 0xde, 0xf0, 0x0c, 0x36, 0xe5, 0xb8, 0xe6, 0x33, 0xbc, 0x4d,
    0xca, 0x8d, 0xd5, 0x08, 0xf3, 0xb7, 0xbc, 0x08, 0x11, 0xe2, 0x38, 0xfa, 0x11,
    0xf3, 0xfa, 0x40, 0x48, 0x06, 0xea, 0x55, 0xbe, 0x5e, 0xd4, 0xc0, 0x29, 0x3a,
    0xe5, 0x40, 0xbe, 0x05, 0xe5, 0x1c, 0x2a, 0x71, 0xce, 0xd3, 0xda, 0xaa, 0xae,
    0xb5, 0xd9, 0xc9, 0x50, 0xb6, 0xa7, 0x7f, 0xe4, 0x43, 0xf3, 0x0b, 0xf5, 0x42,
    0x14, 0xd6, 0xb0, 0x4a, 0xf5, 0x40, 0x27, 0xd6, 0x64, 0x10, 0xef, 0x76, 0x99,
    0xd9, 0x19, 0xc3, 0xf3, 0x3d, 0xd6, 0x2f, 0xe8, 0xba, 0x02, 0x2b, 0x36, 0x34,
    0x11, 0xab, 0x55, 0x2b, 0x02, 0x23, 0x1c, 0xa4, 0x50, 0xbe, 0x9b, 0x3f, 0xd3,
    0xb7, 0x6a, 0x15, 0xf4, 0xf2, 0x10, 0xe2, 0xf7, 0x59, 0xd5, 0xf7, 0x32, 0xc5,
    0xf4, 0x52, 0x02, 0x11, 0xc5, 0xd8, 0x2b, 0xc0, 0x9d, 0x71, 0x46, 0xa6, 0xd6,
    0x57, 0x9b, 0xf4, 0x40, 0x13, 0x25, 0x7f, 0xe2, 0x10, 0xe9, 0xed, 0x52, 0x10,
    0x97, 0xde, 0xfa, 0x9e, 0x46, 0x00, 0xa8, 0xf2, 0xb9, 0x03, 0xfd, 0xd5, 0x25,
    0x11, 0x14, 0x97, 0x00, 0xb4, 0xcd, 0x32, 0xed, 0xc0, 0xd2, 0x28, 0xfd, 0x02,
    0xb6, 0xdf, 0xba, 0xc7, 0xfe, 0xfb, 0x16, 0x14, 0x49, 0xa0, 0x81, 0xf2, 0x54,
    0x90, 0xbf, 0x3b, 0xaf, 0xbf, 0xef, 0xf8, 0xec, 0x39, 0xa9, 0x2b, 0x13, 0x1c,
    0x4a, 0x69, 0xa2, 0xbf, 0x46, 0xfb, 0x2a, 0xf5, 0x43, 0xf0, 0x2d, 0xa0, 0xea,
    0x18, 0xdc, 0x49, 0x10, 0xe7, 0xbb, 0x3c, 0x45, 0x3a, 0x38, 0xde, 0xa3, 0xb7,
    0xca, 0x16, 0x4c, 0x18, 0xda, 0xcf, 0xfc, 0x40, 0x4e, 0xd6, 0x09, 0x16, 0xf7,
    0x83, 0x36, 0xd1, 0x35, 0x3a, 0xad, 0xdf, 0x67, 0xe7, 0xda, 0x74, 0xf9, 0x33,
    0x4e, 0xb9, 0x41, 0xf1, 0xee, 0x10, 0xf0, 0x53, 0x47, 0x7f, 0xc6, 0xe8, 0x59,
    0x2d, 0xf9, 0x6b, 0xc6, 0xc2, 0xd7, 0xc0, 0xc9, 0xea, 0x35, 0xc2, 0x2a, 0x0a,
    0x29, 0x29, 0x21, 0xaf, 0xee, 0xe5, 0xe8, 0xb0, 0xe2, 0x4e, 0xb3, 0xdf, 0x31,
    0x3b, 0x55, 0xb3, 0x41, 0xda, 0xef, 0xe1, 0xeb, 0x68, 0x81, 0xd6, 0x1a, 0x0e,
    0x0c, 0x0d, 0x47, 0x0a, 0x5e, 0x06, 0x0a, 0x33, 0xb3, 0x00, 0x1a, 0x2c, 0x4a,
    0x92, 0x1f, 0xc2, 0xf6, 0x96, 0x08, 0x4a, 0xee, 0x15, 0xf6, 0xbc, 0x2d, 0xc4,
    0x12, 0x32, 0x13, 0x06, 0x3f, 0xb3, 0x15, 0x6e, 0xdb, 0xfc, 0xed, 0x17, 0x57,
    0x7b, 0x23, 0xe2, 0x04, 0xe9, 0x20, 0x3a, 0x32, 0x1f, 0x7f, 0xf6, 0xfc, 0xef,
    0xc5, 0x0d, 0x05, 0xf6, 0x36, 0x1c, 0xc9, 0x20, 0x05, 0xe0, 0x00, 0x21, 0xdf,
    0x06, 0x23, 0xb9, 0x1f, 0x05, 0x36, 0x5b, 0x17, 0xcd, 0x29, 0x1b, 0xbb, 0x09,
    0x0f, 0xd4, 0x1a, 0x47, 0xfb, 0x1b, 0x56, 0xfe, 0xff, 0xff, 0x04, 0x00, 0x00,
    0x00, 0x00, 0x01, 0x00, 0x00, 0x16, 0x07, 0x00, 0x00, 0x80, 0x08, 0x00, 0x00,
    0x0f, 0x01, 0x00, 0x00, 0x6f, 0x01, 0x00, 0x00, 0x10, 0xfb, 0xff, 0xff, 0xf9,
    0x03, 0x00, 0x00, 0xb8, 0x02, 0x00, 0x00, 0xce, 0x05, 0x00, 0x00, 0x0b, 0x04,
    0x00, 0x00, 0x70, 0xfc, 0xff, 0xff, 0x6d, 0xee, 0xff, 0xff, 0xd6, 0x02, 0x00,
    0x00, 0xf2, 0xfe, 0xff, 0xff, 0x86, 0x09, 0x00, 0x00, 0x09, 0x0a, 0x00, 0x00,
    0x73, 0x00, 0x00, 0x00, 0x0a, 0x0a, 0x00, 0x00, 0xc7, 0x09, 0x00, 0x00, 0x98,
    0xf9, 0xff, 0xff, 0xda, 0x02, 0x00, 0x00, 0x24, 0x07, 0x00, 0x00, 0xf9, 0x02,
    0x00, 0x00, 0x56, 0x06, 0x00, 0x00, 0x2f, 0x04, 0x00, 0x00, 0x98, 0xff, 0xff,
    0xff, 0xa4, 0x02, 0x00, 0x00, 0x8c, 0xfe, 0xff, 0xff, 0x30, 0x00, 0x00, 0x00,
    0x30, 0x04, 0x00, 0x00, 0x2d, 0x01, 0x00, 0x00, 0x50, 0x06, 0x00, 0x00, 0x30,
    0x00, 0x00, 0x00, 0xc4, 0x06, 0x00, 0x00, 0x58, 0xfd, 0xff, 0xff, 0xca, 0x07,
    0x00, 0x00, 0xa9, 0x03, 0x00, 0x00, 0x28, 0x08, 0x00, 0x00, 0xb7, 0xfe, 0xff,
    0xff, 0x52, 0xf7, 0xff, 0xff, 0xb6, 0x06, 0x00, 0x00, 0xea, 0xfc, 0xff, 0xff,
    0x4d, 0x02, 0x00, 0x00, 0xf3, 0x03, 0x00, 0x00, 0xbc, 0x02, 0x00, 0x00, 0xfc,
    0x04, 0x00, 0x00, 0x32, 0x03, 0x00, 0x00, 0x2e, 0x0c, 0x00, 0x00, 0xd9, 0x06,
    0x00, 0x00, 0x1c, 0xf9, 0xff, 0xff, 0x63, 0x04, 0x00, 0x00, 0x49, 0x05, 0x00,
    0x00, 0x9b, 0x0c, 0x00, 0x00, 0xd4, 0x08, 0x00, 0x00, 0x7a, 0x05, 0x00, 0x00,
    0x27, 0xfe, 0xff, 0xff, 0x60, 0xff, 0xff, 0xff, 0xd5, 0x01, 0x00, 0x00, 0x23,
    0x05, 0x00, 0x00, 0x69, 0xfc, 0xff, 0xff, 0x26, 0xf9, 0xff, 0xff, 0x9c, 0xf9,
    0xff, 0xff, 0xad, 0xfe, 0xff, 0xff, 0xe4, 0x03, 0x00, 0x00, 0x67, 0xfa, 0xff,
    0xff, 0x62, 0xff, 0xff, 0xff, 0x04, 0x00, 0x00, 0x00, 0x08, 0x00, 0x00, 0x00,
    0xff, 0xff, 0xff, 0xff, 0x3c, 0x00, 0x00, 0x00, 0xe4, 0xf1, 0xff, 0xff, 0xe8,
    0xf1, 0xff, 0xff, 0x0f, 0x00, 0x00, 0x00, 0x4d, 0x4c, 0x49, 0x52, 0x20, 0x43,
    0x6f, 0x6e, 0x76, 0x65, 0x72, 0x74, 0x65, 0x64, 0x2e, 0x00, 0x01, 0x00, 0x00,
    0x00, 0x14, 0x00, 0x00, 0x00, 0x00, 0x00, 0x0e, 0x00, 0x18, 0x00, 0x14, 0x00,
    0x10, 0x00, 0x0c, 0x00, 0x08, 0x00, 0x04, 0x00, 0x0e, 0x00, 0x00, 0x00, 0x14,
    0x00, 0x00, 0x00, 0x1c, 0x00, 0x00, 0x00, 0x60, 0x01, 0x00, 0x00, 0x64, 0x01,
    0x00, 0x00, 0x68, 0x01, 0x00, 0x00, 0x04, 0x00, 0x00, 0x00, 0x6d, 0x61, 0x69,
    0x6e, 0x00, 0x00, 0x00, 0x00, 0x05, 0x00, 0x00, 0x00, 0x24, 0x01, 0x00, 0x00,
    0xd4, 0x00, 0x00, 0x00, 0x88, 0x00, 0x00, 0x00, 0x40, 0x00, 0x00, 0x00, 0x04,
    0x00, 0x00, 0x00, 0x4a, 0xff, 0xff, 0xff, 0x1c, 0x00, 0x00, 0x00, 0x00, 0x00,
    0x00, 0x09, 0x1c, 0x00, 0x00, 0x00, 0x20, 0x00, 0x00, 0x00, 0x02, 0x00, 0x00,
    0x00, 0x00, 0x00, 0x06, 0x00, 0x08, 0x00, 0x04, 0x00, 0x06, 0x00, 0x00, 0x00,
    0x00, 0x00, 0x80, 0x3f, 0x01, 0x00, 0x00, 0x00, 0x0c, 0x00, 0x00, 0x00, 0x01,
    0x00, 0x00, 0x00, 0x0b, 0x00, 0x00, 0x00, 0xca, 0xff, 0xff, 0xff, 0x14, 0x00,
    0x00, 0x00, 0x00, 0x00, 0x00, 0x08, 0x10, 0x00, 0x00, 0x00, 0x14, 0x00, 0x00,
    0x00, 0x01, 0x00, 0x00, 0x00, 0xa4, 0xf2, 0xff, 0xff, 0x01, 0x00, 0x00, 0x00,
    0x0b, 0x00, 0x00, 0x00, 0x03, 0x00, 0x00, 0x00, 0x08, 0x00, 0x00, 0x00, 0x09,
    0x00, 0x00, 0x00, 0x0a, 0x00, 0x00, 0x00, 0x00, 0x00, 0x0e, 0x00, 0x18, 0x00,
    0x14, 0x00, 0x10, 0x00, 0x0c, 0x00, 0x0b, 0x00, 0x04, 0x00, 0x0e, 0x00, 0x00,
    0x00, 0x14, 0x00, 0x00, 0x00, 0x00, 0x00, 0x00, 0x08, 0x14, 0x00, 0x00, 0x00,
    0x18, 0x00, 0x00, 0x00, 0x01, 0x00, 0x00, 0x00, 0xb6, 0xff, 0xff, 0xff, 0x00,
    0x00, 0x00, 0x01, 0x01, 0x00, 0x00, 0x00, 0x08, 0x00, 0x00, 0x00, 0x03, 0x00,
    0x00, 0x00, 0x05, 0x00, 0x00, 0x00, 0x06, 0x00, 0x00, 0x00, 0x07, 0x00, 0x00,
    0x00, 0x00, 0x00, 0x0e, 0x00, 0x1a, 0x00, 0x14, 0x00, 0x10, 0x00, 0x0c, 0x00,
    0x0b, 0x00, 0x04, 0x00, 0x0e, 0x00, 0x00, 0x00, 0x1c, 0x00, 0x00, 0x00, 0x00,
    0x00, 0x00, 0x08, 0x1c, 0x00, 0x00, 0x00, 0x20, 0x00, 0x00, 0x00, 0x01, 0x00,
    0x00, 0x00, 0x00, 0x00, 0x06, 0x00, 0x08, 0x00, 0x07, 0x00, 0x06, 0x00, 0x00,
    0x00, 0x00, 0x00, 0x00, 0x01, 0x01, 0x00, 0x00, 0x00, 0x05, 0x00, 0x00, 0x00,
    0x03, 0x00, 0x00, 0x00, 0x04, 0x00, 0x00, 0x00, 0x03, 0x00, 0x00, 0x00, 0x02,
    0x00, 0x00, 0x00, 0x00, 0x00, 0x0a, 0x00, 0x0c, 0x00, 0x00, 0x00, 0x08, 0x00,
    0x04, 0x00, 0x0a, 0x00, 0x00, 0x00, 0x08, 0x00, 0x00, 0x00, 0x0c, 0x00, 0x00,
    0x00, 0x01, 0x00, 0x00, 0x00, 0x04, 0x00, 0x00, 0x00, 0x02, 0x00, 0x00, 0x00,
    0x00, 0x00, 0x00, 0x00, 0x01, 0x00, 0x00, 0x00, 0x01, 0x00, 0x00, 0x00, 0x0c,
    0x00, 0x00, 0x00, 0x01, 0x00, 0x00, 0x00, 0x00, 0x00, 0x00, 0x00, 0x0d, 0x00,
    0x00, 0x00, 0xa4, 0x0c, 0x00, 0x00, 0x48, 0x0c, 0x00, 0x00, 0xdc, 0x08, 0x00,
    0x00, 0x80, 0x05, 0x00, 0x00, 0xf4, 0x04, 0x00, 0x00, 0x28, 0x04, 0x00, 0x00,
    0x74, 0x03, 0x00, 0x00, 0x10, 0x03, 0x00, 0x00, 0x44, 0x02, 0x00, 0x00, 0x90,
    0x01, 0x00, 0x00, 0x2c, 0x01, 0x00, 0x00, 0x80, 0x00, 0x00, 0x00, 0x04, 0x00,
    0x00, 0x00, 0xa6, 0xf3, 0xff, 0xff, 0x00, 0x00, 0x00, 0x01, 0x18, 0x00, 0x00,
    0x00, 0x20, 0x00, 0x00, 0x00, 0x3c, 0x00, 0x00, 0x00, 0x0d, 0x00, 0x00, 0x00,
    0x00, 0x00, 0x00, 0x09, 0x50, 0x00, 0x00, 0x00, 0x02, 0x00, 0x00, 0x00, 0xff,
    0xff, 0xff, 0xff, 0x05, 0x00, 0x00, 0x00, 0x8c, 0xf3, 0xff, 0xff, 0x08, 0x00,
    0x00, 0x00, 0x10, 0x00, 0x00, 0x00, 0x01, 0x00, 0x00, 0x00, 0x80, 0xff, 0xff,
    0xff, 0xff, 0xff, 0xff, 0xff, 0x01, 0x00, 0x00, 0x00, 0x00, 0x00, 0x80, 0x3b,
    0x19, 0x00, 0x00, 0x00, 0x53, 0x74, 0x61, 0x74, 0x65, 0x66, 0x75, 0x6c, 0x50,
    0x61, 0x72, 0x74, 0x69, 0x74, 0x69, 0x6f, 0x6e, 0x65, 0x64, 0x43, 0x61, 0x6c,
    0x6c, 0x3a, 0x30, 0x00, 0x00, 0x00, 0x02, 0x00, 0x00, 0x00, 0x01, 0x00, 0x00,
    0x00, 0x05, 0x00, 0x00, 0x00, 0x1e, 0xf4, 0xff, 0xff, 0x00, 0x00, 0x00, 0x01,
    0x18, 0x00, 0x00, 0x00, 0x20, 0x00, 0x00, 0x00, 0x40, 0x00, 0x00, 0x00, 0x0c,
    0x00, 0x00, 0x00, 0x00, 0x00, 0x00, 0x09, 0x80, 0x00, 0x00, 0x00, 0x02, 0x00,
    0x00, 0x00, 0xff, 0xff, 0xff, 0xff, 0x05, 0x00, 0x00, 0x00, 0x04, 0xf4, 0xff,
    0xff, 0x08, 0x00, 0x00, 0x00, 0x14, 0x00, 0x00, 0x00, 0x01, 0x00, 0x00, 0x00,
    0x0a, 0x00, 0x00, 0x00, 0x00, 0x00, 0x00, 0x00, 0x00, 0x00, 0x00, 0x00, 0x01,
    0x00, 0x00, 0x00, 0x1a, 0xe9, 0x91, 0x3e, 0x44, 0x00, 0x00, 0x00, 0x73, 0x65,
    0x71, 0x75, 0x65, 0x6e, 0x74, 0x69, 0x61, 0x6c, 0x5f, 0x32, 0x2f, 0x71, 0x75,
    0x61, 0x6e, 0x74, 0x5f, 0x64, 0x65, 0x6e, 0x73, 0x65, 0x5f, 0x38, 0x2f, 0x4d,
    0x61, 0x74, 0x4d, 0x75, 0x6c, 0x3b, 0x73, 0x65, 0x71, 0x75, 0x65, 0x6e, 0x74,
    0x69, 0x61, 0x6c, 0x5f, 0x32, 0x2f, 0x71, 0x75, 0x61, 0x6e, 0x74, 0x5f, 0x64,
    0x65, 0x6e, 0x73, 0x65, 0x5f, 0x38, 0x2f, 0x42, 0x69, 0x61, 0x73, 0x41, 0x64,
    0x64, 0x00, 0x00, 0x00, 0x00, 0x02, 0x00, 0x00, 0x00, 0x01, 0x00, 0x00, 0x00,
    0x05, 0x00, 0x00, 0x00, 0x1e, 0xf5, 0xff, 0xff, 0x00, 0x00, 0x00, 0x01, 0x14,
    0x00, 0x00, 0x00, 0x34, 0x00, 0x00, 0x00, 0x0b, 0x00, 0x00, 0x00, 0x00, 0x00,
    0x00, 0x02, 0x40, 0x00, 0x00, 0x00, 0x9c, 0xf4, 0xff, 0xff, 0x08, 0x00, 0x00,
    0x00, 0x14, 0x00, 0x00, 0x00, 0x01, 0x00, 0x00, 0x00, 0x00, 0x00, 0x00, 0x00,
    0x00, 0x00, 0x00, 0x00, 0x00, 0x00, 0x00, 0x00, 0x01, 0x00, 0x00, 0x00, 0x41,
    0xd5, 0xd5, 0x39, 0x12, 0x00, 0x00, 0x00, 0x74, 0x66, 0x6c, 0x2e, 0x70, 0x73,
    0x65, 0x75, 0x64, 0x6f, 0x5f, 0x71, 0x63, 0x6f, 0x6e, 0x73, 0x74, 0x32, 0x00,
    0x00, 0x01, 0x00, 0x00, 0x00, 0x05, 0x00, 0x00, 0x00, 0x7e, 0xf5, 0xff, 0xff,
    0x00, 0x00, 0x00, 0x01, 0x14, 0x00, 0x00, 0x00, 0x30, 0x00, 0x00, 0x00, 0x0a,
    0x00, 0x00, 0x00, 0x00, 0x00, 0x00, 0x09, 0x8c, 0x00, 0x00, 0x00, 0xfc, 0xf4,
    0xff, 0xff, 0x08, 0x00, 0x00, 0x00, 0x10, 0x00, 0x00, 0x00, 0x01, 0x00, 0x00,
    0x00, 0x00, 0x00, 0x00, 0x00, 0x00, 0x00, 0x00, 0x00, 0x01, 0x00, 0x00, 0x00,
    0x18, 0xc1, 0xd9, 0x3b, 0x63, 0x00, 0x00, 0x00, 0x73, 0x65, 0x71, 0x75, 0x65,
    0x6e, 0x74, 0x69, 0x61, 0x6c, 0x5f, 0x32, 0x2f, 0x71, 0x75, 0x61, 0x6e, 0x74,
    0x5f, 0x64, 0x65, 0x6e, 0x73, 0x65, 0x5f, 0x38, 0x2f, 0x4d, 0x61, 0x74, 0x4d,
    0x75, 0x6c, 0x3b, 0x73, 0x65, 0x71, 0x75, 0x65, 0x6e, 0x74, 0x69, 0x61, 0x6c,
    0x5f, 0x32, 0x2f, 0x71, 0x75, 0x61, 0x6e, 0x74, 0x5f, 0x64, 0x65, 0x6e, 0x73,
    0x65, 0x5f, 0x38, 0x2f, 0x4c, 0x61, 0x73, 0x74, 0x56, 0x61, 0x6c, 0x75, 0x65,
    0x51, 0x75, 0x61, 0x6e, 0x74, 0x2f, 0x46, 0x61, 0x6b, 0x65, 0x51, 0x75, 0x61,
    0x6e, 0x74, 0x57, 0x69, 0x74, 0x68, 0x4d, 0x69, 0x6e, 0x4d, 0x61, 0x78, 0x56,
    0x61, 0x72, 0x73, 0x00, 0x02, 0x00, 0x00, 0x00, 0x05, 0x00, 0x00, 0x00, 0x20,
    0x00, 0x00, 0x00, 0xd6, 0xf5, 0xff, 0xff, 0x00, 0x00, 0x00, 0x01, 0x18, 0x00,
    0x00, 0x00, 0x20, 0x00, 0x00, 0x00, 0x40, 0x00, 0x00, 0x00, 0x09, 0x00, 0x00,
    0x00, 0x00, 0x00, 0x00, 0x09, 0xa0, 0x00, 0x00, 0x00, 0x02, 0x00, 0x00, 0x00,
    0xff, 0xff, 0xff, 0xff, 0x20, 0x00, 0x00, 0x00, 0xbc, 0xf5, 0xff, 0xff, 0x08,
    0x00, 0x00, 0x00, 0x14, 0x00, 0x00, 0x00, 0x01, 0x00, 0x00, 0x00, 0x84, 0xff,
    0xff, 0xff, 0xff, 0xff, 0xff, 0xff, 0x00, 0x00, 0x00, 0x00, 0x01, 0x00, 0x00,
    0x00, 0xda, 0x63, 0x7b, 0x3d, 0x64, 0x00, 0x00, 0x00, 0x73, 0x65, 0x71, 0x75,
    0x65, 0x6e, 0x74, 0x69, 0x61, 0x6c, 0x5f, 0x32, 0x2f, 0x71, 0x75, 0x61, 0x6e,
    0x74, 0x5f, 0x64, 0x65, 0x6e, 0x73, 0x65, 0x5f, 0x37, 0x2f, 0x4d, 0x61, 0x74,
    0x4d, 0x75, 0x6c, 0x3b, 0x73, 0x65, 0x71, 0x75, 0x65, 0x6e, 0x74, 0x69, 0x61,
    0x6c, 0x5f, 0x32, 0x2f, 0x71, 0x75, 0x61, 0x6e, 0x74, 0x5f, 0x64, 0x65, 0x6e,
    0x73, 0x65, 0x5f, 0x37, 0x2f, 0x52, 0x65, 0x6c, 0x75, 0x3b, 0x73, 0x65, 0x71,
    0x75, 0x65, 0x6e, 0x74, 0x69, 0x61, 0x6c, 0x5f, 0x32, 0x2f, 0x71, 0x75, 0x61,
    0x6e, 0x74, 0x5f, 0x64, 0x65, 0x6e, 0x73, 0x65, 0x5f, 0x37, 0x2f, 0x42, 0x69,
    0x61, 0x73, 0x41, 0x64, 0x64, 0x00, 0x00, 0x00, 0x00, 0x02, 0x00, 0x00, 0x00,
    0x01, 0x00, 0x00, 0x00, 0x20, 0x00, 0x00, 0x00, 0xf6, 0xf6, 0xff, 0xff, 0x00,
    0x00, 0x00, 0x01, 0x14, 0x00, 0x00, 0x00, 0x34, 0x00, 0x00, 0x00, 0x08, 0x00,
    0x00, 0x00, 0x00, 0x00, 0x00, 0x02, 0x40, 0x00, 0x00, 0x00, 0x74, 0xf6, 0xff,
    0xff, 0x08, 0x00, 0x00, 0x00, 0x14, 0x00, 0x00, 0x00, 0x01, 0x00, 0x00, 0x00,
    0x00, 0x00, 0x00, 0x00, 0x00, 0x00, 0x00, 0x00, 0x00, 0x00, 0x00, 0x00, 0x01,
    0x00, 0x00, 0x00, 0xc6, 0xc5, 0x10, 0x39, 0x13, 0x00, 0x00, 0x00, 0x74, 0x66,
    0x6c, 0x2e, 0x70, 0x73, 0x65, 0x75, 0x64, 0x6f, 0x5f, 0x71, 0x63, 0x6f, 0x6e,
    0x73, 0x74, 0x31, 0x31, 0x00, 0x01, 0x00, 0x00, 0x00, 0x20, 0x00, 0x00, 0x00,
    0x56, 0xf7, 0xff, 0xff, 0x00, 0x00, 0x00, 0x01, 0x14, 0x00, 0x00, 0x00, 0x30,
    0x00, 0x00, 0x00, 0x07, 0x00, 0x00, 0x00, 0x00, 0x00, 0x00, 0x09, 0x8c, 0x00,
    0x00, 0x00, 0xd4, 0xf6, 0xff, 0xff, 0x08, 0x00, 0x00, 0x00, 0x10, 0x00, 0x00,
    0x00, 0x01, 0x00, 0x00, 0x00, 0x00, 0x00, 0x00, 0x00, 0x00, 0x00, 0x00, 0x00,
    0x01, 0x00, 0x00, 0x00, 0x2a, 0x03, 0xbe, 0x3b, 0x63, 0x00, 0x00, 0x00, 0x73,
    0x65, 0x71, 0x75, 0x65, 0x6e, 0x74, 0x69, 0x61, 0x6c, 0x5f, 0x32, 0x2f, 0x71,
    0x75, 0x61, 0x6e, 0x74, 0x5f, 0x64, 0x65, 0x6e, 0x73, 0x65, 0x5f, 0x37, 0x2f,
    0x4d, 0x61, 0x74, 0x4d, 0x75, 0x6c, 0x3b, 0x73, 0x65, 0x71, 0x75, 0x65, 0x6e,
    0x74, 0x69, 0x61, 0x6c, 0x5f, 0x32, 0x2f, 0x71, 0x75, 0x61, 0x6e, 0x74, 0x5f,
    0x64, 0x65, 0x6e, 0x73, 0x65, 0x5f, 0x37, 0x2f, 0x4c, 0x61, 0x73, 0x74, 0x56,
    0x61, 0x6c, 0x75, 0x65, 0x51, 0x75, 0x61, 0x6e, 0x74, 0x2f, 0x46, 0x61, 0x6b,
    0x65, 0x51, 0x75, 0x61, 0x6e, 0x74, 0x57, 0x69, 0x74, 0x68, 0x4d, 0x69, 0x6e,
    0x4d, 0x61, 0x78, 0x56, 0x61, 0x72, 0x73, 0x00, 0x02, 0x00, 0x00, 0x00, 0x20,
    0x00, 0x00, 0x00, 0x40, 0x00, 0x00, 0x00, 0xae, 0xf7, 0xff, 0xff, 0x00, 0x00,
    0x00, 0x01, 0x18, 0x00, 0x00, 0x00, 0x20, 0x00, 0x00, 0x00, 0x40, 0x00, 0x00,
    0x00, 0x06, 0x00, 0x00, 0x00, 0x00, 0x00, 0x00, 0x09, 0xa0, 0x00, 0x00, 0x00,
    0x02, 0x00, 0x00, 0x00, 0xff, 0xff, 0xff, 0xff, 0x40, 0x00, 0x00, 0x00, 0x94,
    0xf7, 0xff, 0xff, 0x08, 0x00, 0x00, 0x00, 0x14, 0x00, 0x00, 0x00, 0x01, 0x00,
    0x00, 0x00, 0x8a, 0xff, 0xff, 0xff, 0xff, 0xff, 0xff, 0xff, 0x00, 0x00, 0x00,
    0x00, 0x01, 0x00, 0x00, 0x00, 0x9d, 0x0c, 0xc3, 0x3c, 0x64, 0x00, 0x00, 0x00,
    0x73, 0x65, 0x71, 0x75, 0x65, 0x6e, 0x74, 0x69, 0x61, 0x6c, 0x5f, 0x32, 0x2f,
    0x71, 0x75, 0x61, 0x6e, 0x74, 0x5f, 0x64, 0x65, 0x6e, 0x73, 0x65, 0x5f, 0x36,
    0x2f, 0x4d, 0x61, 0x74, 0x4d, 0x75, 0x6c, 0x3b, 0x73, 0x65, 0x71, 0x75, 0x65,
    0x6e, 0x74, 0x69, 0x61, 0x6c, 0x5f, 0x32, 0x2f, 0x71, 0x75, 0x61, 0x6e, 0x74,
    0x5f, 0x64, 0x65, 0x6e, 0x73, 0x65, 0x5f, 0x36, 0x2f, 0x52, 0x65, 0x6c, 0x75,
    0x3b, 0x73, 0x65, 0x71, 0x75, 0x65, 0x6e, 0x74, 0x69, 0x61, 0x6c, 0x5f, 0x32,
    0x2f, 0x71, 0x75, 0x61, 0x6e, 0x74, 0x5f, 0x64, 0x65, 0x6e, 0x73, 0x65, 0x5f,
    0x36, 0x2f, 0x42, 0x69, 0x61, 0x73, 0x41, 0x64, 0x64, 0x00, 0x00, 0x00, 0x00,
    0x02, 0x00, 0x00, 0x00, 0x01, 0x00, 0x00, 0x00, 0x40, 0x00, 0x00, 0x00, 0x76,
    0xf8, 0xff, 0xff, 0x00, 0x00, 0x00, 0x01, 0x18, 0x00, 0x00, 0x00, 0x20, 0x00,
    0x00, 0x00, 0x40, 0x00, 0x00, 0x00, 0x05, 0x00, 0x00, 0x00, 0x00, 0x00, 0x00,
    0x09, 0x60, 0x00, 0x00, 0x00, 0x02, 0x00, 0x00, 0x00, 0xff, 0xff, 0xff, 0xff,
    0x3c, 0x00, 0x00, 0x00, 0x5c, 0xf8, 0xff, 0xff, 0x08, 0x00, 0x00, 0x00, 0x14,
    0x00, 0x00, 0x00, 0x01, 0x00, 0x00, 0x00, 0x00, 0x00, 0x00, 0x00, 0x00, 0x00,
    0x00, 0x00, 0x00, 0x00, 0x00, 0x00, 0x01, 0x00, 0x00, 0x00, 0x52, 0x96, 0x80,
    0x3c, 0x24, 0x00, 0x00, 0x00, 0x73, 0x65, 0x71, 0x75, 0x65, 0x6e, 0x74, 0x69,
    0x61, 0x6c, 0x5f, 0x32, 0x2f, 0x71, 0x75, 0x61, 0x6e, 0x74, 0x5f, 0x66, 0x6c,
    0x61, 0x74, 0x74, 0x65, 0x6e, 0x5f, 0x32, 0x2f, 0x52, 0x65, 0x73, 0x68, 0x61,
    0x70, 0x65, 0x00, 0x00, 0x00, 0x00, 0x02, 0x00, 0x00, 0x00, 0x01, 0x00, 0x00,
    0x00, 0x3c, 0x00, 0x00, 0x00, 0x56, 0xf9, 0xff, 0xff, 0x00, 0x00, 0x00, 0x01,
    0x14, 0x00, 0x00, 0x00, 0x28, 0x03, 0x00, 0x00, 0x04, 0x00, 0x00, 0x00, 0x00,
    0x00, 0x00, 0x09, 0x34, 0x03, 0x00, 0x00, 0xd4, 0xf8, 0xff, 0xff, 0x08, 0x00,
    0x00, 0x00, 0x0c, 0x02, 0x00, 0x00, 0x40, 0x00, 0x00, 0x00, 0x00, 0x00, 0x00,
    0x00, 0x00, 0x00, 0x00, 0x00, 0x00, 0x00, 0x00, 0x00, 0x00, 0x00, 0x00, 0x00,
    0x00, 0x00, 0x00, 0x00, 0x00, 0x00, 0x00, 0x00, 0x00, 0x00, 0x00, 0x00, 0x00,
    0x00, 0x00, 0x00, 0x00, 0x00, 0x00, 0x00, 0x00, 0x00, 0x00, 0x00, 0x00, 0x00,
    0x00, 0x00, 0x00, 0x00, 0x00, 0x00, 0x00, 0x00, 0x00, 0x00, 0x00, 0x00, 0x00,
    0x00, 0x00, 0x00, 0x00, 0x00, 0x00, 0x00, 0x00, 0x00, 0x00, 0x00, 0x00, 0x00,
    0x00, 0x00, 0x00, 0x00, 0x00, 0x00, 0x00, 0x00, 0x00, 0x00, 0x00, 0x00, 0x00,
    0x00, 0x00, 0x00, 0x00, 0x00, 0x00, 0x00, 0x00, 0x00, 0x00, 0x00, 0x00, 0x00,
    0x00, 0x00, 0x00, 0x00, 0x00, 0x00, 0x00, 0x00, 0x00, 0x00, 0x00, 0x00, 0x00,
    0x00, 0x00, 0x00, 0x00, 0x00, 0x00, 0x00, 0x00, 0x00, 0x00, 0x00, 0x00, 0x00,
    0x00, 0x00, 0x00, 0x00, 0x00, 0x00, 0x00, 0x00, 0x00, 0x00, 0x00, 0x00, 0x00,
    0x00, 0x00, 0x00, 0x00, 0x00, 0x00, 0x00, 0x00, 0x00, 0x00, 0x00, 0x00, 0x00,
    0x00, 0x00, 0x00, 0x00, 0x00, 0x00, 0x00, 0x00, 0x00, 0x00, 0x00, 0x00, 0x00,
    0x00, 0x00, 0x00, 0x00, 0x00, 0x00, 0x00, 0x00, 0x00, 0x00, 0x00, 0x00, 0x00,
    0x00, 0x00, 0x00, 0x00, 0x00, 0x00, 0x00, 0x00, 0x00, 0x00, 0x00, 0x00, 0x00,
    0x00, 0x00, 0x00, 0x00, 0x00, 0x00, 0x00, 0x00, 0x00, 0x00, 0x00, 0x00, 0x00,
    0x00, 0x00, 0x00, 0x00, 0x00, 0x00, 0x00, 0x00, 0x00, 0x00, 0x00, 0x00, 0x00,
    0x00, 0x00, 0x00, 0x00, 0x00, 0x00, 0x00, 0x00, 0x00, 0x00, 0x00, 0x00, 0x00,
    0x00, 0x00, 0x00, 0x00, 0x00, 0x00, 0x00, 0x00, 0x00, 0x00, 0x00, 0x00, 0x00,
    0x00, 0x00, 0x00, 0x00, 0x00, 0x00, 0x00, 0x00, 0x00, 0x00, 0x00, 0x00, 0x00,
    0x00, 0x00, 0x00, 0x00, 0x00, 0x00, 0x00, 0x00, 0x00, 0x00, 0x00, 0x00, 0x00,
    0x00, 0x00, 0x00, 0x00, 0x00, 0x00, 0x00, 0x00, 0x00, 0x00, 0x00, 0x00, 0x00,
    0x00, 0x00, 0x00, 0x00, 0x00, 0x00, 0x00, 0x00, 0x00, 0x00, 0x00, 0x00, 0x00,
    0x00, 0x00, 0x00, 0x00, 0x00, 0x00, 0x00, 0x00, 0x00, 0x00, 0x00, 0x00, 0x00,
    0x00, 0x00, 0x00, 0x00, 0x00, 0x00, 0x00, 0x00, 0x00, 0x00, 0x00, 0x00, 0x00,
    0x00, 0x00, 0x00, 0x00, 0x00, 0x00, 0x00, 0x00, 0x00, 0x00, 0x00, 0x00, 0x00,
    0x00, 0x00, 0x00, 0x00, 0x00, 0x00, 0x00, 0x00, 0x00, 0x00, 0x00, 0x00, 0x00,
    0x00, 0x00, 0x00, 0x00, 0x00, 0x00, 0x00, 0x00, 0x00, 0x00, 0x00, 0x00, 0x00,
    0x00, 0x00, 0x00, 0x00, 0x00, 0x00, 0x00, 0x00, 0x00, 0x00, 0x00, 0x00, 0x00,
    0x00, 0x00, 0x00, 0x00, 0x00, 0x00, 0x00, 0x00, 0x00, 0x00, 0x00, 0x00, 0x00,
    0x00, 0x00, 0x00, 0x00, 0x00, 0x00, 0x00, 0x00, 0x00, 0x00, 0x00, 0x00, 0x00,
    0x00, 0x00, 0x00, 0x00, 0x00, 0x00, 0x00, 0x00, 0x00, 0x00, 0x00, 0x00, 0x00,
    0x00, 0x00, 0x00, 0x00, 0x00, 0x00, 0x00, 0x00, 0x00, 0x00, 0x00, 0x00, 0x00,
    0x00, 0x00, 0x00, 0x00, 0x00, 0x00, 0x00, 0x00, 0x00, 0x00, 0x00, 0x00, 0x00,
    0x00, 0x00, 0x00, 0x00, 0x00, 0x00, 0x00, 0x00, 0x00, 0x00, 0x00, 0x00, 0x00,
    0x00, 0x00, 0x00, 0x00, 0x00, 0x00, 0x00, 0x00, 0x00, 0x00, 0x00, 0x00, 0x00,
    0x00, 0x00, 0x00, 0x00, 0x00, 0x00, 0x00, 0x00, 0x00, 0x00, 0x00, 0x00, 0x00,
    0x00, 0x00, 0x00, 0x00, 0x00, 0x00, 0x00, 0x00, 0x00, 0x00, 0x00, 0x00, 0x00,
    0x00, 0x00, 0x00, 0x00, 0x00, 0x00, 0x00, 0x00, 0x00, 0x00, 0x00, 0x00, 0x00,
    0x00, 0x00, 0x00, 0x00, 0x00, 0x00, 0x00, 0x00, 0x00, 0x00, 0x00, 0x00, 0x00,
    0x00, 0x00, 0x00, 0x00, 0x00, 0x00, 0x40, 0x00, 0x00, 0x00, 0xf5, 0x2f, 0x5a,
    0x3b, 0x5f, 0x9d, 0x69, 0x3b, 0xcd, 0xf2, 0x8b, 0x3b, 0x20, 0x50, 0x30, 0x3b,
    0x5f, 0x9d, 0x69, 0x3b, 0x8e, 0xc7, 0x55, 0x3b, 0x1e, 0x4b, 0x25, 0x3b, 0x56,
    0x89, 0x3d, 0x3b, 0x26, 0x5f, 0x51, 0x3b, 0x24, 0x5a, 0x46, 0x3b, 0xb3, 0xd8,
    0x0a, 0x3b, 0x22, 0x55, 0x3b, 0x3b, 0x24, 0x5a, 0x46, 0x3b, 0xef, 0x20, 0x39,
    0x3b, 0xc4, 0x00, 0x63, 0x3b, 0x8e, 0xc7, 0x55, 0x3b, 0xcb, 0xed, 0x80, 0x3b,
    0xed, 0x1b, 0x2e, 0x3b, 0x56, 0x89, 0x3d, 0x3b, 0x22, 0x55, 0x3b, 0x3b, 0x8c,
    0xc2, 0x4a, 0x3b, 0xef, 0x20, 0x39, 0x3b, 0x4c, 0x70, 0x86, 0x3b, 0x8c, 0xc2,
    0x4a, 0x3b, 0x1e, 0x4b, 0x25, 0x3b, 0xe9, 0x11, 0x18, 0x3b, 0x2a, 0x69, 0x67,
    0x3b, 0x4e, 0x75, 0x11, 0x3b, 0x52, 0x7f, 0x27, 0x3b, 0x86, 0xb3, 0x29, 0x3b,
    0x58, 0x8e, 0x48, 0x3b, 0xf3, 0x2a, 0x4f, 0x3b, 0x22, 0x55, 0x3b, 0x3b, 0x54,
    0x84, 0x32, 0x3b, 0xf5, 0x2f, 0x5a, 0x3b, 0xbd, 0xf1, 0x41, 0x3b, 0x99, 0xbe,
    0x89, 0x3b, 0x54, 0x84, 0x32, 0x3b, 0x94, 0xd6, 0x76, 0x3b, 0x61, 0xa2, 0x74,
    0x3b, 0xbf, 0xf6, 0x4c, 0x3b, 0x28, 0x64, 0x5c, 0x3b, 0x24, 0x5a, 0x46, 0x3b,
    0x26, 0x5f, 0x51, 0x3b, 0xc2, 0xfb, 0x57, 0x3b, 0x90, 0xcc, 0x60, 0x3b, 0x32,
    0x56, 0x85, 0x3b, 0xc6, 0x05, 0x6e, 0x3b, 0x90, 0xcc, 0x60, 0x3b, 0xc6, 0x05,
    0x6e, 0x3b, 0x24, 0x5a, 0x46, 0x3b, 0xff, 0x21, 0x83, 0x3b, 0x8c, 0xc2, 0x4a,
    0x3b, 0xc2, 0xfb, 0x57, 0x3b, 0xb7, 0xe2, 0x20, 0x3b, 0x86, 0xb3, 0x29, 0x3b,
    0x8a, 0xbd, 0x3f, 0x3b, 0x8e, 0xc7, 0x55, 0x3b, 0x54, 0x84, 0x32, 0x3b, 0xb7,
    0xe2, 0x20, 0x3b, 0x88, 0xb8, 0x34, 0x3b, 0x1c, 0x46, 0x1a, 0x3b, 0xf5, 0x2f,
    0x5a, 0x3b, 0xf5, 0x2f, 0x5a, 0x3b, 0x12, 0x00, 0x00, 0x00, 0x74, 0x66, 0x6c,
    0x2e, 0x70, 0x73, 0x65, 0x75, 0x64, 0x6f, 0x5f, 0x71, 0x63, 0x6f, 0x6e, 0x73,
    0x74, 0x31, 0x00, 0x00, 0x02, 0x00, 0x00, 0x00, 0x40, 0x00, 0x00, 0x00, 0x3c,
    0x00, 0x00, 0x00, 0xae, 0xfc, 0xff, 0xff, 0x00, 0x00, 0x00, 0x01, 0x14, 0x00,
    0x00, 0x00, 0x24, 0x03, 0x00, 0x00, 0x03, 0x00, 0x00, 0x00, 0x00, 0x00, 0x00,
    0x02, 0x30, 0x03, 0x00, 0x00, 0x2c, 0xfc, 0xff, 0xff, 0x08, 0x00, 0x00, 0x00,
    0x08, 0x02, 0x00, 0x00, 0x40, 0x00, 0x00, 0x00, 0x00, 0x00, 0x00, 0x00, 0x00,
    0x00, 0x00, 0x00, 0x00, 0x00, 0x00, 0x00, 0x00, 0x00, 0x00, 0x00, 0x00, 0x00,
    0x00, 0x00, 0x00, 0x00, 0x00, 0x00, 0x00, 0x00, 0x00, 0x00, 0x00, 0x00, 0x00,
    0x00, 0x00, 0x00, 0x00, 0x00, 0x00, 0x00, 0x00, 0x00, 0x00, 0x00, 0x00, 0x00,
    0x00, 0x00, 0x00, 0x00, 0x00, 0x00, 0x00, 0x00, 0x00, 0x00, 0x00, 0x00, 0x00,
    0x00, 0x00, 0x00, 0x00, 0x00, 0x00, 0x00, 0x00, 0x00, 0x00, 0x00, 0x00, 0x00,
    0x00, 0x00, 0x00, 0x00, 0x00, 0x00, 0x00, 0x00, 0x00, 0x00, 0x00, 0x00, 0x00,
    0x00, 0x00, 0x00, 0x00, 0x00, 0x00, 0x00, 0x00, 0x00, 0x00, 0x00, 0x00, 0x00,
    0x00, 0x00, 0x00, 0x00, 0x00, 0x00, 0x00, 0x00, 0x00, 0x00, 0x00, 0x00, 0x00,
    0x00, 0x00, 0x00, 0x00, 0x00, 0x00, 0x00, 0x00, 0x00, 0x00, 0x00, 0x00, 0x00,
    0x00, 0x00, 0x00, 0x00, 0x00, 0x00, 0x00, 0x00, 0x00, 0x00, 0x00, 0x00, 0x00,
    0x00, 0x00, 0x00, 0x00, 0x00, 0x00, 0x00, 0x00, 0x00, 0x00, 0x00, 0x00, 0x00,
    0x00, 0x00, 0x00, 0x00, 0x00, 0x00, 0x00, 0x00, 0x00, 0x00, 0x00, 0x00, 0x00,
    0x00, 0x00, 0x00, 0x00, 0x00, 0x00, 0x00, 0x00, 0x00, 0x00, 0x00, 0x00, 0x00,
    0x00, 0x00, 0x00, 0x00, 0x00, 0x00, 0x00, 0x00, 0x00, 0x00, 0x00, 0x00, 0x00,
    0x00, 0x00, 0x00, 0x00, 0x00, 0x00, 0x00, 0x00, 0x00, 0x00, 0x00, 0x00, 0x00,
    0x00, 0x00, 0x00, 0x00, 0x00, 0x00, 0x00, 0x00, 0x00, 0x00, 0x00, 0x00, 0x00,
    0x00, 0x00, 0x00, 0x00, 0x00, 0x00, 0x00, 0x00, 0x00, 0x00, 0x00, 0x00, 0x00,
    0x00, 0x00, 0x00, 0x00, 0x00, 0x00, 0x00, 0x00, 0x00, 0x00, 0x00, 0x00, 0x00,
    0x00, 0x00, 0x00, 0x00, 0x00, 0x00, 0x00, 0x00, 0x00, 0x00, 0x00, 0x00, 0x00,
    0x00, 0x00, 0x00, 0x00, 0x00, 0x00, 0x00, 0x00, 0x00, 0x00, 0x00, 0x00, 0x00,
    0x00, 0x00, 0x00, 0x00, 0x00, 0x00, 0x00, 0x00, 0x00, 0x00, 0x00, 0x00, 0x00,
    0x00, 0x00, 0x00, 0x00, 0x00, 0x00, 0x00, 0x00, 0x00, 0x00, 0x00, 0x00, 0x00,
    0x00, 0x00, 0x00, 0x00, 0x00, 0x00, 0x00, 0x00, 0x00, 0x00, 0x00, 0x00, 0x00,
    0x00, 0x00, 0x00, 0x00, 0x00, 0x00, 0x00, 0x00, 0x00, 0x00, 0x00, 0x00, 0x00,
    0x00, 0x00, 0x00, 0x00, 0x00, 0x00, 0x00, 0x00, 0x00, 0x00, 0x00, 0x00, 0x00,
    0x00, 0x00, 0x00, 0x00, 0x00, 0x00, 0x00, 0x00, 0x00, 0x00, 0x00, 0x00, 0x00,
    0x00, 0x00, 0x00, 0x00, 0x00, 0x00, 0x00, 0x00, 0x00, 0x00, 0x00, 0x00, 0x00,
    0x00, 0x00, 0x00, 0x00, 0x00, 0x00, 0x00, 0x00, 0x00, 0x00, 0x00, 0x00, 0x00,
    0x00, 0x00, 0x00, 0x00, 0x00, 0x00, 0x00, 0x00, 0x00, 0x00, 0x00, 0x00, 0x00,
    0x00, 0x00, 0x00, 0x00, 0x00, 0x00, 0x00, 0x00, 0x00, 0x00, 0x00, 0x00, 0x00,
    0x00, 0x00, 0x00, 0x00, 0x00, 0x00, 0x00, 0x00, 0x00, 0x00, 0x00, 0x00, 0x00,
    0x00, 0x00, 0x00, 0x00, 0x00, 0x00, 0x00, 0x00, 0x00, 0x00, 0x00, 0x00, 0x00,
    0x00, 0x00, 0x00, 0x00, 0x00, 0x00, 0x00, 0x00, 0x00, 0x00, 0x00, 0x00, 0x00,
    0x00, 0x00, 0x00, 0x00, 0x00, 0x00, 0x00, 0x00, 0x00, 0x00, 0x00, 0x00, 0x00,
    0x00, 0x00, 0x00, 0x00, 0x00, 0x00, 0x00, 0x00, 0x00, 0x00, 0x00, 0x00, 0x00,
    0x00, 0x00, 0x00, 0x00, 0x00, 0x00, 0x00, 0x00, 0x00, 0x00, 0x00, 0x00, 0x00,
    0x00, 0x00, 0x00, 0x00, 0x00, 0x00, 0x00, 0x00, 0x00, 0x00, 0x00, 0x00, 0x00,
    0x00, 0x00, 0x00, 0x00, 0x00, 0x00, 0x00, 0x00, 0x00, 0x00, 0x00, 0x00, 0x00,
    0x00, 0x00, 0x00, 0x00, 0x00, 0x00, 0x00, 0x00, 0x00, 0x00, 0x00, 0x00, 0x00,
    0x40, 0x00, 0x00, 0x00, 0x31, 0x30, 0x5b, 0x38, 0xb9, 0xaf, 0x6a, 0x38, 0x27,
    0x97, 0x8c, 0x38, 0x2f, 0x1f, 0x31, 0x38, 0xb9, 0xaf, 0x6a, 0x38, 0x9d, 0xc2,
    0x56, 0x38, 0x3c, 0x0d, 0x26, 0x38, 0xec, 0x67, 0x3e, 0x38, 0x08, 0x55, 0x52,
    0x38, 0x15, 0x43, 0x47, 0x38, 0xc2, 0x7b, 0x0b, 0x38, 0x22, 0x31, 0x3c, 0x38,
    0x15, 0x43, 0x47, 0x38, 0x58, 0xfa, 0x39, 0x38, 0x5a, 0x0b, 0x64, 0x38, 0x9d,
    0xc2, 0x56, 0x38, 0x34, 0x85, 0x81, 0x38, 0x65, 0xe8, 0x2e, 0x38, 0xec, 0x67,
    0x3e, 0x38, 0x22, 0x31, 0x3c, 0x38, 0xaa, 0xb0, 0x4b, 0x38, 0x58, 0xfa, 0x39,
    0x38, 0x2e, 0x0e, 0x87, 0x38, 0xaa, 0xb0, 0x4b, 0x38, 0x3c, 0x0d, 0x26, 0x38,
    0x7f, 0xc4, 0x18, 0x38, 0xed, 0x78, 0x68, 0x38, 0x21, 0x20, 0x12, 0x38, 0x07,
    0x44, 0x28, 0x38, 0xd1, 0x7a, 0x2a, 0x38, 0xdf, 0x79, 0x49, 0x38, 0x3e, 0x1e,
    0x50, 0x38, 0x22, 0x31, 0x3c, 0x38, 0xf9, 0x55, 0x33, 0x38, 0x31, 0x30, 0x5b,
    0x38, 0x81, 0xd5, 0x42, 0x38, 0x5d, 0x60, 0x8a, 0x38, 0xf9, 0x55, 0x33, 0x38,
    0x76, 0xf8, 0x77, 0x38, 0xac, 0xc1, 0x75, 0x38, 0x73, 0xe7, 0x4d, 0x38, 0xfb,
    0x66, 0x5d, 0x38, 0x15, 0x43, 0x47, 0x38, 0x08, 0x55, 0x52, 0x38, 0x67, 0xf9,
    0x58, 0x38, 0x90, 0xd4, 0x61, 0x38, 0xc8, 0xf2, 0x85, 0x38, 0x4d, 0x1d, 0x6f,
    0x38, 0x90, 0xd4, 0x61, 0x38, 0x4d, 0x1d, 0x6f, 0x38, 0x15, 0x43, 0x47, 0x38,
    0xff, 0xbb, 0x83, 0x38, 0xaa, 0xb0, 0x4b, 0x38, 0x67, 0xf9, 0x58, 0x38, 0xa8,
    0x9f, 0x21, 0x38, 0xd1, 0x7a, 0x2a, 0x38, 0xb7, 0x9e, 0x40, 0x38, 0x9d, 0xc2,
    0x56, 0x38, 0xf9, 0x55, 0x33, 0x38, 0xa8, 0x9f, 0x21, 0x38, 0xc4, 0x8c, 0x35,
    0x38, 0x49, 0xfb, 0x1a, 0x38, 0x31, 0x30, 0x5b, 0x38, 0x31, 0x30, 0x5b, 0x38,
    0x11, 0x00, 0x00, 0x00, 0x74, 0x66, 0x6c, 0x2e, 0x70, 0x73, 0x65, 0x75, 0x64,
    0x6f, 0x5f, 0x71, 0x63, 0x6f, 0x6e, 0x73, 0x74, 0x00, 0x00, 0x00, 0x01, 0x00,
    0x00, 0x00, 0x40, 0x00, 0x00, 0x00, 0x00, 0x00, 0x16, 0x00, 0x1c, 0x00, 0x18,
    0x00, 0x17, 0x00, 0x10, 0x00, 0x0c, 0x00, 0x08, 0x00, 0x00, 0x00, 0x00, 0x00,
    0x00, 0x00, 0x07, 0x00, 0x16, 0x00, 0x00, 0x00, 0x00, 0x00, 0x00, 0x01, 0x18,
    0x00, 0x00, 0x00, 0x18, 0x00, 0x00, 0x00, 0x02, 0x00, 0x00, 0x00, 0x00, 0x00,
    0x00, 0x02, 0x20, 0x00, 0x00, 0x00, 0x04, 0x00, 0x04, 0x00, 0x04, 0x00, 0x00,
    0x00, 0x0e, 0x00, 0x00, 0x00, 0x61, 0x72, 0x69, 0x74, 0x68, 0x2e, 0x63, 0x6f,
    0x6e, 0x73, 0x74, 0x61, 0x6e, 0x74, 0x00, 0x00, 0x01, 0x00, 0x00, 0x00, 0x02,
    0x00, 0x00, 0x00, 0x00, 0x00, 0x16, 0x00, 0x20, 0x00, 0x1c, 0x00, 0x1b, 0x00,
    0x14, 0x00, 0x10, 0x00, 0x0c, 0x00, 0x00, 0x00, 0x00, 0x00, 0x08, 0x00, 0x07,
    0x00, 0x16, 0x00, 0x00, 0x00, 0x00, 0x00, 0x00, 0x01, 0x18, 0x00, 0x00, 0x00,
    0x30, 0x00, 0x00, 0x00, 0x50, 0x00, 0x00, 0x00, 0x01, 0x00, 0x00, 0x00, 0x00,
    0x00, 0x00, 0x09, 0x6c, 0x00, 0x00, 0x00, 0x03, 0x00, 0x00, 0x00, 0xff, 0xff,
    0xff, 0xff, 0x14, 0x00, 0x00, 0x00, 0x03, 0x00, 0x00, 0x00, 0x0c, 0x00, 0x0c,
    0x00, 0x00, 0x00, 0x00, 0x00, 0x08, 0x00, 0x04, 0x00, 0x0c, 0x00, 0x00, 0x00,
    0x08, 0x00, 0x00, 0x00, 0x14, 0x00, 0x00, 0x00, 0x01, 0x00, 0x00, 0x00, 0x00,
    0x00, 0x00, 0x00, 0x00, 0x00, 0x00, 0x00, 0x00, 0x00, 0x00, 0x00, 0x01, 0x00,
    0x00, 0x00, 0x52, 0x96, 0x80, 0x3c, 0x21, 0x00, 0x00, 0x00, 0x73, 0x65, 0x72,
    0x76, 0x69, 0x6e, 0x67, 0x5f, 0x64, 0x65, 0x66, 0x61, 0x75, 0x6c, 0x74, 0x5f,
    0x66, 0x6c, 0x61, 0x74, 0x74, 0x65, 0x6e, 0x5f, 0x32, 0x5f, 0x69, 0x6e, 0x70,
    0x75, 0x74, 0x3a, 0x30, 0x00, 0x00, 0x00, 0x03, 0x00, 0x00, 0x00, 0x01, 0x00,
    0x00, 0x00, 0x14, 0x00, 0x00, 0x00, 0x03, 0x00, 0x00, 0x00, 0x03, 0x00, 0x00,
    0x00, 0x44, 0x00, 0x00, 0x00, 0x24, 0x00, 0x00, 0x00, 0x04, 0x00, 0x00, 0x00,
    0xf0, 0xff, 0xff, 0xff, 0x19, 0x00, 0x00, 0x00, 0x02, 0x00, 0x00, 0x00, 0x00,
    0x00, 0x00, 0x19, 0x0c, 0x00, 0x10, 0x00, 0x0f, 0x00, 0x00, 0x00, 0x08, 0x00,
    0x04, 0x00, 0x0c, 0x00, 0x00, 0x00, 0x09, 0x00, 0x00, 0x00, 0x04, 0x00, 0x00,
    0x00, 0x00, 0x00, 0x00, 0x09, 0x0c, 0x00, 0x0c, 0x00, 0x0b, 0x00, 0x00, 0x00,
    0x00, 0x00, 0x04, 0x00, 0x0c, 0x00, 0x00, 0x00, 0x16, 0x00, 0x00, 0x00, 0x00,
    0x00, 0x00, 0x16,
};
const int dense_some_quantized_model_len = 11040;
